0307
0409
0601
0B0E
0109
0308
0C0B
040D
0C09
0000
0D0E
0104
0B0C
010D
0C01
0509
0706
0B04
0C0B
0205
0006
0C0C
000C
0402
010D
030D
0908
0805
0408
0B0C
0403
090C
080B
020C
0408
0006
0802
0005
0206
070D
0D0C
0004
0408
0504
0B0D
0506
0E00
0E04
0208
0804
010A
0D01
0C02
0A0C
0500
050D
0604
0103
0207
080A
0B00
0409
0903
0C01
0603
0901
0709
090A
0D00
0603
0408
0902
0408
040C
0004
0906
0B03
0001
0604
0103
0900
0B09
0C05
080B
0508
0E04
0303
020C
0E02
0806
0D00
090A
0700
0E05
0D0C
040D
0C0C
0003
0E02
0000
0303
0203
0003
070A
050C
0209
0B08
0103
0B0E
0C0E
010D
0609
0301
0303
0100
070D
0408
0400
030E
030D
0A07
030D
050E
000C
0D06
0401
0304
0B01
0503
0709
0E08
0A07
0C0D
0B0B
010B
0B0E
0C02
0D05
070A
0B00
0807
0808
0108
0C0B
0504
0003
0602
0201
0D06
0801
0400
0D01
0601
0B0C
0A0E
0802
0805
0C01
0308
0101
0401
0E04
020A
0E09
0A08
0605
0703
0D09
0C07
0D01
080D
0D0D
0403
030B
090C
0306
0D04
0506
060C
050C
0C08
0C09
090B
070A
0D00
0107
0102
0308
010A
0508
0C0A
040E
080B
0E0C
0102
0305
060C
0901
040B
0E08
0C04
0A03
0E00
0C08
0D08
0B0A
0809
050D
080D
0C05
020C
0206
0008
0408
0E0A
0E02
0B09
0200
080B
0B00
0C01
020B
000D
0009
080E
0504
030C
0806
0E09
0809
0D06
0008
0705
030B
0D0B
0301
0E08
0D04
0A03
080A
080D
0B02
040B
0B08
0A09
0802
020C
0406
0D05
090A
0A0C
0D02
0C0A
0C06
0005
0E07
0208
0D02
090E
0A06
0503
0803
0A00
0D00
000B
0708
0805
070D
0E05
0706
070A
0106
0E08
0E03
0105
0704
0903
0C01
0906
020D
0807
0B04
0E07
0B05
0501
0807
0C02
070A
0602
0301
0602
0E0B
0809
0009
0704
0C08
0209
0105
0801
0B06
0206
0E08
0C03
0E07
020A
0E05
080B
040B
0B05
0701
000C
0004
090A
0107
0607
0905
0E08
0906
0C0D
0507
0E0E
0204
080C
000B
0009
0E08
0E0C
0D01
0B0B
0D05
080B
0407
0104
010C
0E05
0701
0B06
0707
010A
0D0B
0D0C
0408
0D07
020E
0200
0B0E
0807
0306
0D03
0D03
0A06
0108
080B
0107
0C01
0501
0E02
0A0B
080C
0803
0D0E
0806
0206
0303
030A
0106
0803
0A03
070D
0508
0208
090C
0D0B
060B
0200
0707
070B
0A02
040B
0C05
0E02
0C03
000D
0406
0606
010B
060C
060C
0A06
0801
0B0A
090E
0801
0707
0409
0D0C
0A0B
0906
0901
000B
0B0A
0504
0209
0D05
0008
070D
0707
0D01
0D08
0A0E
0E0A
000E
090A
040E
0807
000A
0C04
030D
050A
0700
0E05
0D07
0004
000D
0B0C
0801
0D0A
0B0C
0008
0504
000D
0107
010E
0E0A
010C
0503
0B0E
0B0B
0E03
0608
0A08
070C
030A
000E
0002
0A05
0B00
0903
0108
0401
0E06
0207
0A04
0603
0E07
000B
0908
0B03
0D03
0502
0B06
0400
060C
0403
0900
080C
0804
0704
0606
0204
010E
0800
0A0C
0E09
050B
050D
090A
030A
040D
0405
0C02
0705
0B08
070A
050B
0E0B
0B00
060B
0C0E
000E
0505
0208
0C00
020A
0E04
060A
040A
0107
0904
0603
000D
050B
0402
020E
0305
0A05
0B04
080A
0B02
0E07
0205
0204
0304
0B0A
0B0C
0309
0D05
0009
0200
0A04
0901
0507
0206
0006
0705
030A
0C06
0E01
030B
0B0A
0407
0906
0A02
0D05
050B
0B04
0406
0309
050E
0207
0603
070A
0C04
020E
0108
0D0E
0304
0002
010A
0B09
0507
0206
040E
0100
0E0A
080B
0E09
0E01
0A02
0E0D
0705
0D0A
0302
0D00
0E06
0A0A
0307
0208
0608
0700
0906
0B0C
080A
0908
000D
0C0A
0B04
010D
0E08
0D01
070C
0105
090B
040E
0800
0A0E
0E0B
0202
050E
060D
0A0A
010A
0D01
0102
0809
0205
090A
0208
080C
060B
020E
0D09
010A
0203
0306
0C02
0D01
0B03
000C
060B
0D08
0D03
0808
0803
0807
0E0E
0400
0E04
0506
0D0A
0207
020E
0C06
060C
0B08
0B07
080B
0B0A
0C0C
0501
0A0E
0507
0C05
060E
0C0D
0201
080A
0602
0B0B
0201
0E00
0304
000C
080C
030B
0B04
0505
0705
0D0B
0808
060B
0D02
0103
0D08
0104
050B
0B09
0108
0E0C
0E00
0C08
0C05
0E09
010D
080A
0C08
0B0A
010C
0806
0807
0208
050D
070D
050E
080A
0206
0005
010D
0706
0300
040C
0E01
0008
0509
0E05
0308
0A08
0009
020D
0E03
0004
0209
0506
0E03
0D0A
0903
0402
0502
000B
0300
030B
0B07
0C09
0A0A
0309
0A08
0E06
0105
0009
0000
0601
0905
080A
090C
0D0B
0602
0502
0306
0E0D
0703
0A05
0600
0302
090D
0E02
060A
0B01
0606
030B
0B03
0B0C
0203
0908
050C
0E08
0B03
0703
0008
0C0E
0905
0C0E
0B0B
050A
0209
0800
0107
0409
0800
0506
0C0A
040B
0D08
0803
020C
0509
040C
0906
0108
020E
0A0B
090B
0000
020A
0403
000A
0108
0D04
060D
0E06
020B
0A0B
010A
0001
0109
060C
050B
0104
0006
0D01
050C
0700
070B
0B0E
080A
0E07
0E05
040E
0408
0E06
0705
060B
0A0B
020A
0C0E
0A0C
0101
0802
0000
060C
0201
0E0B
0705
0B0E
0502
0907
0107
040B
0702
0D06
0106
010D
0E06
030E
010E
0B08
0B06
0706
060C
0608
0809
010A
0506
0D05
0A0B
0D0B
0D01
010D
070D
080E
0402
0A06
0003
0501
0809
0205
0E0A
0C03
0D06
0309
0400
0100
0202
090B
080D
010A
0006
0403
0203
030D
0208
0C00
000A
0709
0207
000A
070D
030C
0302
0202
0106
0800
0104
070D
010B
0305
0409
030C
080C
0406
030A
0903
0206
090C
040A
0B0D
010A
0908
090D
0E0C
070C
0509
0700
0D04
0D0E
0A0A
0B07
040A
0809
0605
070A
0202
0B03
0808
0E0D
010C
0607
080A
080A
0005
0600
030D
0808
0105
0206
0802
0705
0308
0001
0000
0804
0C07
0D04
0707
0903
040E
030C
0D07
0B08
0B0D
0803
0B0C
0101
0608
0509
0905
0107
0B03
0E05
080A
0406
0B04
040E
060C
0601
0305
0604
0003
070B
0006
0205
0A00
0202
060C
0B02
090C
0B0D
0C0A
0D03
0C01
0807
030E
050E
020D
0402
0C0C
0D05
0203
0B0A
0D04
0805
0C03
0102
0301
0303
0B04
0A07
0A05
0806
010D
0306
0404
0404
0E0B
0600
0C0B
020E
0B06
0804
0E09
080E
0E03
0302
0201
040E
060A
0500
070D
0E03
0B06
0802
0403
0306
010C
0E02
0E04
040B
0102
0D05
0403
060D
0601
0700
0207
0501
0900
020C
0209
0B03
0D00
000D
0C0E
0505
0604
0309
0A09
0009
0C05
090A
0A05
0C0A
0300
0703
0704
0805
0C00
0301
0C08
070D
0902
090C
060D
0C08
0902
0009
0908
0303
0004
0B04
0007
0406
0A0A
000C
0002
0A0A
070C
0E0D
0200
0606
0B04
0909
0103
0E02
0B04
0A0E
0104
0C0B
0109
0900
090E
060C
0A03
0D0E
0906
0C03
0B00
0109
0E09
0D0D
0A05
0A05
0604
090D
0C02
090A
0B07
0900
0C08
0D02
0407
070C
0107
0003
020B
0E03
0603
0504
0B04
030E
0700
0B06
0802
0C0E
030E
0C06
0806
0604
0A00
020A
0B0A
0600
0D0E
0900
020B
0B0B
0308
0C04
0D0C
0802
0505
040C
0C05
0C0D
0C0C
0800
0308
0A0A
0A0B
070E
0A08
0905
0608
0107
0502
0B08
0102
0800
090D
0E04
020A
040A
0604
0E07
0002
0A05
0D0A
0B08
0C01
060C
0309
0B09
0203
0D04
0B02
030B
0901
0502
0908
0B04
0304
0404
080B
0804
0B03
0308
0D00
0B0D
0009
0C02
020A
0A00
0C01
0907
0D0B
070A
0304
0807
0A03
0B03
0A05
050B
020B
0801
0506
0A0A
0903
0C06
0B03
0607
0B07
0709
0A07
0303
0908
0A0D
0D0C
080B
0002
0805
0106
0100
0B03
0207
030E
0E0C
0909
0705
0604
0509
020A
0604
0C03
0C0A
0004
0906
010D
0102
0901
0A00
0100
060B
0C05
060C
070A
0607
0B07
070B
060B
010A
0D0A
010D
0602
030A
0404
0708
080A
0902
010B
060D
0508
0800
0E0B
010B
0307
0A0C
0001
0103
0002
0608
0C07
0005
0A08
0C06
0C03
050C
0B0D
0A09
0808
0A0C
0902
0C07
0406
0305
060B
0B08
040B
0E00
0A00
0E0D
0A01
0708
020B
0401
0802
0802
0E0E
0D0E
0D08
0703
0801
0506
0507
0806
0C08
040B
0107
0307
060A
0D00
0306
0E04
070B
0C05
0008
0201
0800
060A
050C
0908
0C07
080A
090B
0107
0A08
090A
0405
0C0D
0708
0D00
0D09
000C
0C0E
0B0B
0E06
0E04
0903
080E
0401
0408
0C01
0E0C
0401
0503
0606
010E
0C0D
0D00
000A
050B
0E0C
0A08
0804
0804
040A
0405
0503
0104
0102
0908
0702
0C0D
0D0A
050D
0C04
0307
0304
0C06
0D01
020E
0A01
0804
0502
0705
070B
0B09
0E07
0C08
0E05
0A0D
0B04
090C
0C0C
070B
040E
040E
0E06
0905
0604
010C
050C
0B06
0B0E
0104
0104
0403
060D
0009
0B08
010A
0A01
0101
010C
0708
0E09
0902
0E00
0706
0908
070D
0C02
0203
000A
060C
030C
010E
0707
0C04
0806
0200
0005
050C
0C00
090E
0600
0105
0409
0E03
0803
0C0B
030D
0801
0504
020D
050B
0601
0902
0C08
0B00
070B
0406
0A00
0204
0601
0809
0B0B
0208
0901
0002
0902
0600
0607
070B
0600
0E00
0D06
0E0C
0B00
070E
0606
080E
0B08
030B
0500
0D0C
0002
0300
0302
0909
0E0A
0B06
0A01
0A05
0703
040A
080E
0B0A
020B
0E03
0B08
0702
0409
0C07
0A08
0D0B
0D0C
020C
0206
0C0A
0E00
0A00
0B05
0C08
0C0E
0C01
020A
0206
060B
010D
0D07
0A06
0101
0605
0601
0D0E
0302
0308
0D0E
0A0D
0E0A
0001
0302
0601
010E
070D
0909
0203
010A
0E03
0605
0904
0B08
010B
0202
070B
0606
0404
0601
0508
020D
0A0D
0500
000B
060D
0701
050B
0300
090D
0704
0A04
0501
0200
040E
0A04
0301
0707
0306
010D
060B
0808
0302
0703
0B09
0D0A
0307
060A
0408
0900
0505
090C
050E
0B0B
0701
050B
0208
0903
0C06
0E04
0707
030E
0909
0B0E
0901
0D07
0A07
0407
020C
0E05
0E0A
0901
0B09
0204
0406
0E05
0901
070A
0409
0901
0804
0A0A
0E00
0000
0C02
0E09
0600
0D04
0D01
0603
0201
000B
0409
030A
0208
0105
0009
020D
0402
0E07
0D00
0702
0C0B
0B00
0E08
0E0E
0600
0E0C
0105
0303
0404
0307
0B01
0608
0408
0C0D
030E
0907
0C0C
0007
0809
060C
0607
0708
0D08
0805
0E01
080C
0D0B
0A0A
090A
0504
070B
0208
0E06
000B
0D05
040A
0905
0407
0B0A
0C02
0C08
0208
020A
050E
0602
0306
0603
0108
0A07
0D01
0001
0706
0401
0005
0105
030E
0E0E
0500
0E01
0509
0201
060C
0C05
0A01
0D0C
0A00
0005
0301
0709
0805
0300
0904
0508
060C
050D
0800
000A
0200
0603
0801
0404
0809
0402
0D08
030A
000C
010E
0B04
0305
0D07
0501
0303
0B0A
050D
010D
0E05
080C
040D
0303
0E0C
0D0E
050E
0103
0404
070E
0E04
0702
0A0C
0907
080A
0B0C
0C06
0A05
030A
0407
0907
0801
040B
0808
0B0B
0201
0204
0707
0503
0C03
0906
0308
0A03
010A
0705
000D
0B0A
0902
080E
0A01
020B
0102
070C
0A04
0B09
0C02
0D09
0D05
0C0B
0D03
0A08
0A04
0804
0A08
0A0C
020E
0304
0005
0C06
0406
0308
0B06
0C0B
0803
0701
0007
0601
0E02
0A03
090B
0306
0908
050E
0007
0401
0D05
040A
0C05
0C01
0E05
0206
0704
0006
0003
0608
060D
040C
050D
0302
0A01
0105
0004
0803
0B0B
0901
0B04
0205
030D
0000
0C0D
0B05
0700
0902
0A06
0E00
0705
0E06
0707
0D03
080B
0702
0603
0003
0C09
0A09
0809
0B0C
0B0A
0409
0708
0C08
080C
0009
0005
0703
0B08
0608
000B
0802
0A00
020B
0304
070C
080B
030E
0005
010C
0C05
070C
0E03
080E
0901
040B
0D0D
0700
070E
0A00
0C07
0E05
0603
060E
0100
0601
050B
000C
0903
0309
0304
0D05
050E
0704
0608
0905
0D02
0D0C
0D0B
080E
0C00
0A09
0501
0206
070A
0E0B
0001
0B00
0E02
090D
0307
040D
020B
0000
0A01
0205
0B09
0A09
080A
0D02
0509
0C0A
0503
0D0D
0201
0001
0308
0E03
0B01
030E
0003
0104
0306
0801
0005
0B04
010E
070C
0004
020E
0205
0D08
0201
000B
0A07
0B0A
0701
0D0D
000A
0700
0A0A
0B0D
0307
0603
020B
0800
050B
0A0E
0A09
070B
040E
0008
0D03
0407
0D0D
0205
0407
0B00
0106
0204
000A
0104
0903
0C07
0D0C
0705
0901
0D0D
0602
040C
0B09
0706
0E04
0D0A
0609
0605
0D05
0900
0203
000A
0207
0C02
050A
0101
0004
0904
0508
0A0D
0C0D
0200
0D03
0B05
030C
010E
0B09
0208
0008
010B
0104
0A04
020B
0606
0A04
080D
0403
090A
070E
040C
0001
0D04
080E
0B05
0C05
0308
0805
0305
0404
0E08
0B01
080E
0D07
0E07
0606
0908
070A
0202
0D0C
0B0D
070B
0D0E
0A09
0C07
050A
0607
0C04
0E02
0B0C
0E0A
0107
0505
0306
0E0D
0609
0102
0404
080B
0509
0106
030C
0E03
0608
0B00
0205
0007
0D02
060D
0A0E
0D04
0E04
0300
070D
070B
0D0E
090C
0704
090E
0C05
000E
060E
0C01
0006
090D
000A
0C01
0707
0C04
0901
0209
0E00
0D0A
0205
0802
0403
0E0B
090D
090E
070E
0C06
0C03
0E08
0A05
0301
0D02
0E04
0006
0502
0E03
080B
0E02
0E02
0302
0003
010D
0108
0609
0103
0604
0506
0E01
0108
0400
080A
0309
0C0D
0604
0A06
0100
0B01
0C0D
070A
0303
0B05
080B
060E
0703
0B0D
020C
0B03
060E
0701
0A01
090E
0B04
0802
0C07
0306
000D
0300
0D03
0300
0406
0A06
020D
040A
0507
010C
0504
090A
0A09
0307
0D00
0203
0808
050D
070B
0900
0C06
0A09
0208
0B01
0C08
0203
0108
0604
0209
050E
000E
0702
0C03
090A
0B0A
050D
0E0A
0B06
0E08
0403
0707
0105
0A0A
0E0E
030C
000A
0E09
0702
0502
0508
060D
090B
0304
0E0C
030E
0A0A
0E00
0C00
0206
0002
0A08
0104
0106
0400
0009
040C
0009
0D0D
0405
0701
090A
0A01
0703
050B
0B0E
080D
0E09
0200
0B01
0203
0009
0C0D
0102
0E0A
0108
010D
0802
0102
0106
0905
020D
0B01
0303
0A0C
000B
050C
0500
0108
0609
0407
0D03
0D00
070D
0E0D
0B09
0701
0A0A
0C0C
0A05
090C
0605
0000
0706
000A
0A00
0A06
010D
000A
070A
0300
0900
0A0D
0701
0D0B
0505
0002
0A07
0200
0D06
0B02
0A08
0E06
0A0E
090C
0907
0A0E
0E07
0A0D
010A
0707
0A00
0807
020D
030A
0902
0907
0809
0502
0305
000B
0904
0006
0500
020C
0706
0703
0604
0003
080E
0103
070A
0A0C
0202
0503
0001
0D03
0408
0A05
0305
0102
0002
040D
0E0E
060D
0804
0D01
0603
0A06
0404
0D0B
0308
0D03
0800
090E
0C06
0505
0D03
0604
0308
030B
0E00
0B0A
090C
0E0A
0E05
0408
0E0E
0308
010B
060C
070A
0A01
010B
0E07
0801
0201
0D0E
0401
0001
0B04
0501
0302
0402
060B
0009
020D
0C05
060D
0C00
0602
010A
0E0E
0704
0D07
0100
0B05
090E
0406
0300
0506
0601
0E02
0904
0300
0B03
0607
0906
0900
080B
0E08
070E
040A
0307
0109
0D0C
0300
080B
0605
0405
0D09
040E
0B0D
0907
060A
0008
0B09
0108
0E0E
0E07
0B04
0502
0503
050A
0D05
0104
080C
020B
0E0B
0D03
0D0B
0C02
0C0E
0808
030C
090D
0007
0100
0C0D
0507
0101
030C
0A08
000C
0A0C
030A
0D08
0306
000D
000A
0A0E
0D02
0501
0E0B
0409
0D00
0902
0902
0404
0A0E
010D
0C08
020B
000A
0909
020A
0707
0309
060E
0B0A
0909
0906
0A05
0807
0204
0602
0D0A
0907
090C
0106
0506
0804
0D05
070B
090A
0107
0A09
0907
040D
0D0E
010A
0909
0607
0404
090C
0001
0102
0301
020E
0804
0301
0506
0004
0B07
0908
0D0C
0A09
0300
0A08
050C
0401
0409
000D
0708
0C06
0B0C
040B
0E02
0803
0102
0B00
0708
060E
000A
0706
0E08
0C00
080C
0C03
0604
0108
0305
090D
0404
0D0E
0200
0C0A
0D09
0A0D
0902
0C04
0E0D
0207
0106
0008
0A09
0800
030E
0D09
0706
0D08
0300
050A
000C
0600
0000
030A
0109
0001
0706
0A0C
0B08
0E0B
0108
080A
0A05
0505
0000
060A
0705
0A09
020B
0303
0B08
0300
0C0E
0D02
0D00
0C06
0305
0203
0805
040A
0D0B
0302
0D0A
0504
0308
0400
0202
0905
0704
0E0C
0401
0204
070E
0803
0A06
050A
0108
0503
0C03
090E
0E00
0304
030B
0800
000D
0C01
0E0B
0E0A
070E
0A03
010D
0604
020B
0400
0300
0E0C
0D0C
060C
0E02
0403
0401
030A
0709
0A06
0C0D
0D01
020C
030C
0603
0C0D
0003
0701
0A07
0D0B
080A
0E07
0003
0904
0A08
040A
0008
0E0D
0907
0402
0E00
0006
0C0A
0306
0C07
0403
0A07
0E00
0709
0906
0B01
0E03
0508
0003
0A03
0001
0703
0E04
0201
0C06
0D0C
0104
0701
000D
030E
0101
000E
0105
0409
0002
0D02
0D08
0900
0607
0907
0B04
0700
0B0B
0E0E
0E00
0C02
070C
020E
0706
0B02
090C
0C06
090A
0105
0308
0909
0707
0802
0307
0E0A
0E09
0E05
0E04
0D0A
0E0E
0401
0A0E
040A
0108
020C
0D0C
0805
0609
0303
0E00
000C
040A
060A
060A
0706
0B06
0009
0C04
0105
0B01
0605
0507
020E
0100
0B0C
070D
0C05
0002
0D09
0C0C
0B08
0A0C
0C0A
080C
0D0D
0A05
0A0C
0103
090B
000E
0200
080B
070B
0B0D
0406
0805
0C05
0700
0304
0807
0A0A
0402
0005
0903
0A01
0107
0703
0607
060E
0302
0208
0C09
020B
0703
0B0C
0201
0608
0205
0A01
0D08
0C0B
010B
0205
0B06
0E02
0B02
0A07
020C
0A07
0003
050D
0002
090A
0D0A
0205
0D04
080B
0406
040E
0504
090E
0C09
0C07
0E07
010E
0807
060C
020A
0209
060E
0800
0806
0E01
0501
0405
0E08
0002
0309
0009
080A
080E
0404
0602
0607
0C0B
0900
0300
0908
0A03
0006
040A
0601
0A05
0E0C
0807
0B0D
0C0A
0009
0B03
040B
0403
0A0D
0403
0806
0A02
0B0B
0E04
0603
0A0A
0900
0408
0B0B
090D
050E
0400
0602
0902
0D0B
0307
0B05
0D02
020C
0B0E
0E05
0E03
0D0B
0502
050E
0109
0A00
0505
0304
090A
0402
080B
0805
0D0B
0A0D
0501
0C07
030B
0601
0409
000B
0303
0308
0E04
0006
050D
090D
0808
0D04
0302
040D
0906
0601
0500
060B
0100
0409
060E
0205
0A01
0900
030C
0104
0806
0E00
0806
0407
0B08
0007
0908
0101
0D05
0A01
0905
0D0C
040B
0E0A
0107
080B
0102
090D
0804
0A06
0E0D
0802
0D06
0904
0107
0306
0306
0B05
0505
0804
0503
0401
0A01
0A06
020E
040C
0803
0700
0101
0604
0E04
0009
0A02
0E09
0707
040E
0505
060C
0905
040B
040C
0402
0C0A
0B02
0307
050B
030C
0C0E
060E
0D0C
050A
080B
0300
0206
0E06
0006
070D
0406
0B00
060D
0805
0C09
0A0D
040E
0000
080E
080E
010E
0901
020A
080C
0D0C
040C
060A
0701
0207
0108
0202
0D0B
0E0D
020A
0502
0D05
020A
0308
0C01
0203
0D07
0E08
0107
0800
0304
0507
0704
0808
040C
0E06
030D
090A
0C02
0906
0009
0605
040A
0102
0604
0C08
0702
0C0B
0D00
0C01
0C01
0C08
0804
080B
0D00
040B
060A
0103
050E
0B0D
050E
0B05
0B0C
0A0C
0D0B
0700
0E07
0608
030C
0100
010B
0002
0007
0409
0E0C
0004
0005
0E07
0205
0C06
040B
0806
050B
000E
0602
020C
0508
0500
0600
0A02
010B
0202
0E08
0E05
0103
0C0D
0D06
0706
0001
0008
060E
0709
0304
0306
070A
030D
0100
0803
0D01
0201
0D08
0A0A
0D08
090B
0D01
040B
0900
0C0C
0702
0906
0402
040D
070C
0B0E
0C07
0E0B
0208
0D05
010E
0A00
0004
0307
0E0D
050D
0703
020A
030D
0C08
070A
0202
0503
030C
0203
0C09
050D
0509
0C07
070D
0205
0C00
0B09
0807
010A
0A04
0208
0A0A
020B
0800
0600
0403
080C
0C08
0308
040E
0B01
0B0D
090B
0A04
0D03
0C06
070E
0D0D
0B00
0800
020A
0007
0009
040B
0A07
0E0A
0206
0B03
0505
0804
0206
0209
0B0C
0809
0107
0808
0800
0208
0E00
020C
0B01
0509
040C
090B
060E
0601
0B01
0400
030C
0209
0B05
0506
020A
0E08
0303
030E
0003
0A04
0E08
0B0D
0C03
010D
0109
0709
040B
0708
0702
0603
0102
030B
0E04
0201
010B
0C0D
030E
0103
0C0B
0806
0C02
0E0E
070B
0C04
0A05
0404
0C01
0809
0806
0002
030A
0A03
0A09
0B08
060D
0D0C
0009
0E0E
0A09
0009
0601
0E08
0906
0B07
0500
0601
040A
0B00
0A0D
0506
090B
020E
0E05
090C
0408
0E00
040D
0602
070A
0405
0E0A
0603
0A0D
020C
0C07
0D03
0B09
0E00
0D06
0E09
0300
000E
0905
0D05
0005
0E0C
020E
0106
0503
0B0D
0C09
0809
0001
0A04
0307
0B0C
070C
080C
0905
0605
010A
0E0C
0400
0C0B
0B0E
0103
0909
0C0A
0702
0907
0805
0001
0102
0700
020E
090D
060C
0E05
0404
0205
0709
0709
0504
0501
0C0E
0503
050E
0A00
0A05
060C
0007
0507
090B
090E
0903
0D0A
040B
0C02
060A
0204
0400
090A
0B0E
0201
0206
0B06
030B
030A
0C0B
0000
0D09
0C07
0508
0304
010A
0608
080D
090C
0E04
0404
020E
060B
0B09
0C07
0400
0800
0C0D
0A0B
0C00
0605
0907
0305
0B08
0A05
0303
0509
0B0A
0408
080A
0D02
000C
0300
0C06
0E06
0E09
090C
0500
090D
070A
0E01
0904
0E08
0E02
0609
020B
0605
0A01
0E05
0506
0C0B
0305
060C
0403
030E
0D00
0705
0C03
0603
0308
0C0E
0107
0002
0305
0D0E
070A
0706
0603
0A00
0E07
0507
040E
0E06
0105
040D
0908
050B
0500
050B
0704
0409
0E05
000B
0200
0E05
0D0A
0003
0507
0709
070A
0808
0904
0B0C
070E
0707
0702
0804
0D07
0C0B
0006
0907
030A
0E00
0C04
0502
0706
0604
0101
0004
030E
0B0C
050C
0601
0C04
0009
0900
050C
0D08
0508
090C
0C09
0801
070C
0709
040B
0D01
0806
050B
0200
0D0D
0108
070C
0501
0902
0802
060A
0505
0700
0C0A
0300
0005
0709
0808
0901
0107
040C
0000
0A05
0704
0204
0207
0A02
0003
0203
0705
0E06
0706
000B
0801
080B
0D0D
0404
0805
0D08
0804
010C
0802
020D
0805
0300
0E01
0205
0306
050E
080E
0B0C
0002
0804
0501
0500
0304
0005
0108
0D04
0407
000B
0401
0001
0C06
0101
080E
0D0C
0C0A
010E
0906
0400
0E08
0D09
080C
0A03
0307
0502
0509
0703
0C09
0901
0007
0B03
0402
0A0D
0405
0C06
000C
080A
0A01
040E
010E
000E
0105
0503
0E02
0C0E
0307
0102
0D08
040C
0402
0908
000C
030C
0906
040D
040A
0B08
0406
050D
0706
0303
080B
0E0A
0304
0804
0507
0505
0E0A
0C01
0C03
010C
0301
0B04
040C
0306
080B
0406
0302
0705
010A
0E07
0104
0905
090D
0E01
0800
0502
0202
0702
0D02
0509
0A0D
000D
0807
090E
040C
0C00
0805
0900
0D0A
040D
0309
0805
030B
0501
0C0D
070C
0802
0808
0803
0106
0604
0C0E
060E
080D
020D
0005
040D
0806
040E
0902
050A
0802
0006
0100
0002
0C03
000E
0100
0903
0C0D
0B0A
0D04
0A0A
0407
0908
0C0C
0D0C
0C0D
0C08
0D07
0B03
0D03
030C
0B0C
0002
0402
0D0D
000D
0C02
0502
0509
0109
0A08
080A
0006
0D0A
0901
0B06
0804
0905
070C
0C0C
0A0A
0208
0E0A
0808
040A
080C
0C00
0B08
0808
000E
0406
0B04
040A
0B0A
0802
0D0E
0208
010C
0A02
0E09
0805
0707
0E04
0E01
0204
000A
0502
0B06
040A
0805
0E03
0407
0202
0505
0008
060B
0401
0006
0A0C
0B0D
0306
0C02
0B0C
060E
0E0A
040A
0E05
0703
0E07
0000
0D0C
030C
0D09
0903
0604
0708
0201
060B
0609
0900
0C0A
0A0D
0C09
010D
0607
0108
0B0B
0A08
0907
0503
0A08
090B
0B07
0000
0207
0A0B
0500
0006
0907
030E
0A06
020A
0503
0104
090B
000A
0401
0605
010E
0908
0A0C
0308
0701
020D
0603
0407
050B
0107
0307
0E0E
0805
0605
0E01
030A
0908
0807
0404
0501
0907
0202
0A0C
0C0C
0705
0B0D
0B00
0909
0404
040C
060D
0C02
0603
0401
0009
0A08
0702
0902
0B03
050D
0C00
070D
0A01
010E
0809
0C0B
0401
0A0C
090D
0407
0D0C
060D
0001
0404
0504
080D
010A
080B
040A
0B07
0A05
0E0C
0507
0402
010E
0805
0801
0108
0802
0307
090B
0007
060B
0800
0605
040D
0E04
0601
0101
0A0B
040E
0A0C
0806
0B07
0106
000B
010B
020A
030A
090C
070B
0E05
0504
0D06
090E
0302
0800
0002
0B08
0705
070E
0700
0206
0603
000E
0207
0B07
090D
0303
030A
0609
0405
0208
030B
0300
0604
050B
0D0C
0702
0C01
0B0E
0E08
0102
030E
0102
0804
0602
0209
0A09
0A08
0B0C
010D
0801
0608
0C02
0209
0903
050C
0808
0703
0A00
0E0E
0700
0C04
0C0A
0906
0206
0A0E
0E0E
0903
0306
070E
0601
0402
0C0C
0E05
0206
0604
0407
0209
0C0A
0D06
0A0D
0501
0409
0707
0406
010C
0006
0803
0B08
0700
0D05
0A08
0C04
0E01
0D02
0304
0C09
0506
0D09
0208
0E02
0301
0E09
0C00
0B0C
020C
040E
0307
0B09
0C0B
0102
0801
0A03
0308
0300
050C
0009
0900
0706
0B05
070C
0600
0309
0B0B
0206
0307
0904
000A
0608
0908
0009
020C
0705
000A
0900
020B
060E
0A07
0802
0B0D
080D
0E06
0003
0E02
0007
0707
0300
000D
0200
0C0B
0E02
0A0C
090A
0903
0D08
090E
0208
0006
010A
0C04
0A06
050A
0E01
0905
0202
070C
0400
0909
0D0B
0207
0302
090E
0203
0203
0C03
0908
0102
0C0B
0B01
0D02
0904
0B03
010C
020A
0C08
0408
0B0E
070B
070A
020D
0C0D
050B
0409
030E
0B08
0B03
0D06
0C0A
0C05
0004
0305
0C02
0D01
0900
090B
0205
080B
0701
0B08
0205
0A04
0B0E
0806
0D09
010E
0608
0A00
0500
040D
000A
0307
0805
010C
0606
040D
020A
0301
0A07
0B01
020E
0A05
030B
0A0A
030D
0E0C
0701
0D01
0506
0603
0509
050B
030E
0908
0903
0101
020B
000D
0002
0C04
0D03
0909
080B
0009
0E09
0206
0205
0801
040C
060B
0001
0507
0004
0703
0A0A
020D
0B07
0805
0807
050A
0505
0808
0601
000E
0B07
0A07
0B0D
0A07
0807
0C0D
0705
0404
0500
0908
0001
0308
0D03
0A06
0203
050C
080B
0D02
010E
0909
0D07
0D02
0805
0807
040A
0A05
0D0E
0100
000C
0601
070D
0103
0A06
0203
0C02
0E0A
0305
0406
0E08
0607
0808
0D06
0D0B
0108
0202
020E
0405
0400
0608
0D0E
060A
0102
0E03
0A00
0B0D
0C0D
0D0E
040E
090E
0E07
0E05
0007
0C09
0D0A
0D0E
0803
040C
0905
010C
0A0C
0E02
0603
0708
0405
0306
030E
0403
0C04
080B
0B09
0E0A
0703
050C
0E0C
0704
0806
0B0D
0B0D
040D
0B03
0606
0C07
060C
0003
060C
0208
0108
0E02
0A0B
0909
0B0B
0D00
080C
0501
0508
0A01
0206
0E0D
0506
0704
070C
0B08
0D06
000D
060B
0B06
0E04
0B0D
0B0C
0109
090B
0901
0B01
0A07
0A06
0D06
0203
0305
010C
0B03
0C07
0E0E
0C05
090D
0E05
0C02
0607
020B
060D
0402
0B06
050A
0604
0509
080C
0A00
000D
0503
0D04
0907
0802
0201
0B00
0404
090B
0306
0902
0E01
020B
0002
090C
070D
0203
0800
0D04
0305
080D
0908
0C0C
010E
0A05
0005
070D
0902
0409
0808
000A
0906
0E04
0107
040D
0809
0807
0805
0403
0900
040C
0801
0703
0C00
0B05
0403
020D
0900
0301
0D0E
0906
030E
0200
000D
0006
0A00
0D0E
0C06
0409
0D0B
030B
0A06
090A
0C00
0003
010B
0A05
090A
020D
0509
030C
0C00
0D06
010A
0B0C
070A
0205
0C05
0005
050C
010D
0204
0C05
0A08
0100
070A
0606
0B03
0405
0D09
0E02
0D08
0D03
0902
0801
070C
0706
050A
0C08
0705
0703
0D0C
0C07
0207
090E
0C0D
0702
0D0D
0609
0802
0009
0700
0408
030E
0508
0D02
0E0E
0301
0A09
0101
0D01
0609
0708
0405
000E
0905
0D03
0706
0703
0804
0D00
0905
0C0E
0001
0707
0509
0006
0A0B
0B09
0207
0A06
0E02
0002
0E05
0B0A
0902
0303
0A0A
0A06
070E
0706
080B
0003
0900
0B00
0A0D
050C
0D09
0609
0707
0C08
0D00
060D
0007
070E
0E03
010B
0C00
040A
0A01
0B0A
0601
000E
000D
0A07
0504
0B06
030C
0B08
0401
0A00
0A0C
0A06
0308
0B0D
0401
0701
030C
090A
0E08
0008
0A06
080B
0801
0002
0D0A
0708
0507
0106
0107
010E
010C
0C07
0C06
0404
030C
0A0E
0C0C
0C05
0E0C
0900
050A
0C0D
0A05
0D00
0508
0202
0805
0306
0507
0900
0E0E
0C0A
0503
0A04
0405
0C09
040E
0C02
080D
0309
0403
0205
090C
0608
090C
0105
0304
0109
0903
080D
0704
0309
0B0B
0B02
040D
0801
050C
010B
0005
0005
0105
0C08
0D07
0108
040E
0A04
0A06
0C06
090D
0507
0C06
020B
060A
0E0E
0000
0802
0408
0706
0D01
000D
0508
050D
0607
0507
0808
0C00
0D09
000B
0402
0D0E
080E
0E0A
0D0D
0907
0001
060B
0605
020C
0A04
0407
0E03
0E03
0005
0908
0A0B
0300
0501
0D0A
0003
090A
0D04
0508
0D0D
0B09
0607
080A
0305
0B0A
030C
0E0D
0509
0C08
0008
0E0C
040C
0601
0902
0402
0E01
0D0A
0903
0607
090A
0302
0705
070D
0B09
0A01
0D0A
0D01
0702
0006
0009
0E04
0A07
0A0E
0E09
0608
0602
0B04
0B03
0303
0209
0005
080E
0D05
0C0D
0A09
0704
0306
050B
0A03
0902
0C0E
0603
0B0A
0B06
0E09
0705
0008
0D0A
000E
0A05
0A02
0906
0303
0801
0B08
0B04
0C0E
0B05
0102
0502
0701
0808
0408
0401
0708
090D
0909
010B
0C0C
0C09
0D0D
070E
0D07
0701
050A
0601
0905
090C
0E08
0D03
0301
0100
0108
0E02
0408
0007
0E07
0302
0103
0607
0809
090E
0705
0405
040B
030B
0704
0303
0C0B
050C
0300
070C
0D08
040A
0D0B
040B
030D
0D0D
0B07
0E0D
000A
0C0E
0B08
070D
0B00
070D
0203
020C
060D
0609
070C
0603
010D
0706
0708
0105
0C07
0106
020C
030D
0701
0905
0B04
080B
0700
0C07
0C06
080B
0C07
0203
040A
0809
000D
090C
0808
060D
0E08
0400
050E
0C02
0E07
0A00
0805
050E
0E0A
0B0B
050B
0804
0904
010D
0303
0201
0D01
080C
0103
0100
0A09
0C00
0C00
0801
0802
0607
0006
0401
0E03
060C
0B04
0A0B
0E01
0109
0407
0C0C
030C
090B
0803
0408
0507
0A0E
0106
030C
090B
0201
0701
0004
0804
0C03
0506
0B05
0105
0903
0102
0901
070A
040A
050B
0A0B
0703
0202
0105
050E
0403
010B
0303
0B0C
0006
0805
0B0A
0A02
090D
020C
060D
0B07
040B
0A0E
0409
0E0E
0C06
000C
0300
0A08
0B04
020E
0009
090D
0C02
0101
0D0A
090D
0805
040A
0505
0709
0E0E
0A09
0608
0903
0D09
0505
0402
0C09
0609
0704
0108
0E01
020B
0306
060C
0102
0508
0209
0D0C
050D
0103
0409
0C07
0806
0B00
020E
0601
0205
0A06
0E08
010E
0404
0601
0701
0109
030D
0A07
0D09
0903
0900
0607
090D
030C
0C09
0009
0802
0903
080C
0309
0B09
0608
0600
0D0D
0500
0D02
0604
0C07
0402
090C
0701
0B07
0B0B
0C03
0E0A
0B04
0204
0A00
0502
0308
0B0A
0E0C
0200
030A
0A00
070C
060E
0B07
0503
0E0D
0201
0C00
0908
0803
0202
0E06
0D00
0109
0503
0708
0C00
0505
0502
0A0E
0C09
0B05
030A
000B
0303
020C
080A
060B
0704
0A06
0D0B
0708
0E0D
0403
010C
050E
0305
0C0D
0C03
0603
0D04
030C
0208
0806
0C00
0E03
090D
0409
0D0E
0901
0903
0D04
0504
070A
0D07
0507
0301
0B07
0D06
0E07
0E04
080B
0C04
0704
030A
0606
060B
0D05
050B
0503
030B
090A
0B09
0106
0703
0900
0506
0D00
0102
0109
0103
0A0A
090B
0B02
0608
0E07
0603
0B05
0D00
080A
0605
0202
0105
0804
010C
020D
0901
030A
0603
0002
0E09
0A00
0B05
0803
0602
0001
0704
000C
0B00
0D06
0406
0603
0B0C
0E04
090B
0605
0101
0702
0606
0009
0C06
0A0E
0909
0A0B
0C08
0808
0A04
0C03
0505
030C
0503
0208
0D0B
0809
050C
0209
0C07
0A08
0D06
050C
0108
0C0C
0209
0D09
030C
0B09
0305
0908
0C03
0807
0001
0604
0000
0004
090E
0301
0D04
0702
0900
0100
0506
070B
010C
030C
0902
0D0C
0B0C
030B
0404
0D02
090C
0C01
0C00
0801
0506
0701
0A06
0C0D
0A01
0001
0A05
0B0C
0608
0B0D
0307
0D02
000E
060D
0002
070C
0C02
0E01
0000
0404
0D06
0308
010D
0102
0D08
0902
0A0E
0009
000B
0C0C
0007
0E0C
070C
0207
070D
0A0D
0709
0309
020A
0E09
050A
0B0E
0302
0002
0801
0408
0502
0508
010B
0C0B
030A
0605
0803
0406
080C
0D08
0A05
0006
0408
0A0C
0400
0103
0105
040E
000A
0D0D
0406
0409
0806
0909
0802
0100
0200
0404
0806
0C00
0B07
0608
0401
0A06
0004
0809
0E07
0A07
0201
0D05
0C0E
0E04
0B07
0C04
0D09
0C02
0C0C
0605
0505
0D07
0306
080D
0E02
030E
0404
0E06
0906
0704
0003
0008
0804
0308
0504
0204
0601
030E
090C
0906
0C07
0C0A
0506
0500
0B0E
030A
0201
0702
0E09
010A
080C
0608
0D0D
0009
0306
0802
0401
0E02
0505
060A
0B0D
0E0E
040A
070A
0B04
0107
0407
040C
0C05
0805
0302
010E
0800
0306
090D
0600
010A
0D06
0702
0206
0802
0803
0A0E
0400
0D07
0005
0D04
0900
0009
0D0B
0B0A
0A02
0804
060E
0307
0E00
0B0A
0203
0301
0B09
0408
0B06
0D05
000B
0104
0508
0807
0902
0402
0709
0B09
0302
0D09
060D
0108
0007
0709
040C
0308
0902
090C
0908
0C0D
0309
0C07
0C03
040B
040E
070C
0809
0A04
0501
0005
0D06
0D03
0607
0908
0905
040D
0A07
010C
0D0B
070B
0609
0802
0A0E
010C
050E
0900
0A04
0D0B
0909
050B
0509
0A07
070D
0907
050B
0C00
0B08
0706
0A08
090C
0E07
0A00
0105
0702
030B
0909
0A03
0401
0400
010A
0D03
0705
030D
010C
020C
0804
030A
0407
0507
080C
0401
0907
070C
0308
080A
0A02
0107
080E
070B
040E
0406
0607
090B
0304
0500
040E
0806
0101
0308
0D02
0A03
0E0E
0B08
0E08
020A
0305
0A08
040B
0C03
0D0E
0405
0705
040E
0A02
080C
0708
0A0C
0C03
0C0B
0C0E
030E
0902
0D0C
0303
060E
0809
0209
0A0B
0A00
0104
0706
0902
0206
0E09
0202
040B
0D03
030C
020A
0701
020E
0804
0500
030C
060D
0103
0805
010D
0304
0B05
0E09
0806
0308
030C
0D0B
010C
0405
0C05
0904
0B02
0504
0508
0008
0D09
0B08
0B04
0001
0002
0C06
010B
0003
0008
0608
0C01
0B08
090E
0905
0808
0700
0E0C
0205
060D
0B0E
0C0E
0703
0A01
0006
0E0E
0B06
060C
020B
0C01
0C0C
0A07
0C04
0005
0208
0B08
090C
0E09
0B03
0C04
040D
0807
0408
020A
0805
0700
0A0B
0103
0B07
0E03
0C03
0509
050E
0B0B
0B03
0702
0D04
0103
0A02
0608
0703
0300
0300
0403
0505
0105
040A
0001
0B0A
0C07
0E0E
0D05
0708
0D0C
0A0E
090B
070E
0E0C
0800
0C01
0507
0B0C
0607
0603
0C02
0904
0E0E
0509
020E
0A00
0C0C
000D
0C0A
0108
0500
0B07
0D07
040B
010B
0C02
0E05
0503
0A04
020B
0D00
0E0A
0006
010E
0C0E
0A0E
040C
0B01
0E09
0504
020D
0C0B
000E
0708
020D
0705
0701
0B04
0101
0306
0C05
0602
0302
010D
0E0B
0E04
0307
080E
0806
0602
0504
0907
0E09
0108
090E
0400
000C
0E0A
0509
0901
020C
0B05
060E
0300
0200
0A0B
0A0A
0602
0405
0405
0A0B
0B03
0A07
030C
0106
0B06
0203
000E
0C05
0003
0000
0803
0E0B
020D
0C0A
0A0E
0308
080C
070E
0D0B
0D0B
0C01
060A
0D0B
0502
090C
0303
0806
0109
0401
0A01
0E0A
0606
020E
0D0C
0703
0A0B
0108
0E0C
0702
0607
0301
0907
0300
0504
0A02
0B08
090A
0706
0601
0406
0D0A
0E0A
0409
0209
050D
0A03
0D0C
080B
0604
0D00
080A
0B03
0908
0D02
0A01
070C
040A
0905
0B08
0305
0C08
0B00
0A03
0707
0906
0201
0E07
0708
0C03
0E00
0308
0302
0E0A
0501
0C00
0B02
0E00
020E
020A
060A
0C0A
0D0A
0B0E
050D
0900
090E
0C0A
0E02
0005
0504
000C
000A
0B08
0D0C
0A01
0002
0B08
0D0E
0C0A
0105
090C
0904
0D03
050B
0104
0D00
020D
0003
0D0C
0608
0B09
0E05
040E
0801
070A
090E
0A0D
0609
0408
090C
040B
0B0A
0C00
0304
0206
0702
0600
0803
0407
0D07
0B05
0106
0A0B
0904
0C00
0C0D
0307
0807
0C0D
030A
0607
020A
0A0D
0709
0303
080A
080D
0B05
0505
0B01
0C06
0A0B
0404
0C05
0B00
0505
0004
0E0D
0E07
0A04
0405
0A0C
0B07
0B00
0609
060C
000B
040E
0E06
0204
0B06
0009
0403
0008
0C0B
0901
0B06
0D01
0E0E
0702
0D05
0D04
0A06
040E
080D
0006
0E05
0702
0605
0B08
0D0C
0A05
020B
0C08
0300
0E0C
010C
0603
0B0D
0108
0709
0200
0E01
0408
0105
0800
0104
0905
0907
0302
0907
0303
0600
0C04
0102
0D01
0505
0C00
0009
080A
0205
040E
0800
0A02
070C
030D
0102
0904
0D00
0B0A
0E00
040B
0500
070C
0B08
0405
0604
040C
0808
0005
0307
070B
0D02
0E01
0206
0C0E
0005
0502
0C0A
0807
0100
040C
0000
0900
080E
0E05
0507
0D02
020A
090C
0509
0D02
0E00
0E0E
0205
0302
040A
0B0B
010A
0805
0E04
050C
0D0D
040D
0A0A
0108
0E03
000D
0003
0503
000C
0808
0609
0406
0D0C
040E
0D04
0709
0E0E
0306
0004
0B04
040B
0B0B
020D
0D06
0708
0808
0C0E
0802
0D0E
0E0D
0A08
050C
0806
0306
0E0C
0D0C
030D
0102
0901
0D01
060D
0E0E
0B00
0302
0103
070D
090A
0807
0C06
040A
020C
070C
0E09
000E
0003
0D03
060B
090E
0906
0908
0B0C
0009
030A
0005
0506
0405
050D
0808
0009
0409
0B07
0609
0C08
0804
0901
020C
0C06
0805
0309
0602
0C0D
0E07
0A06
080B
0106
0003
0205
050B
0E02
030D
0D05
0407
0E0D
0009
080C
0A00
0804
0B0A
0C0C
000A
0509
0909
0601
0208
0500
0208
030C
0606
0603
0705
0200
0802
0706
050E
0B04
0304
0205
0E04
0809
0005
0903
0802
0B08
0202
050D
030D
0D01
0A05
0603
0E04
0903
0B09
0007
0A00
0703
040A
050B
0204
0D0A
0B09
0906
0809
000B
0602
0109
0D06
0209
0106
0B01
0A07
0805
0A0A
000C
0300
060C
0E00
0506
0606
0903
090B
050B
0805
000D
0A06
080A
0301
0C0D
010D
090A
0104
0B01
030E
0602
0B00
0402
0300
0508
0D01
0B05
0000
0905
020C
0606
050B
0906
0A0E
0B0C
030C
0B01
0301
0B00
0103
090D
0109
080D
0105
090C
0504
010A
0905
0901
0B07
0B0E
0C0E
0D05
0509
0702
0701
0603
0E01
0609
0B07
0003
0304
0600
0D03
0C00
0B08
0904
0004
0900
0005
0B03
0306
0708
030D
060B
0D05
0104
0D01
0309
0109
0404
0A0D
080D
070A
0C0B
0A0D
0A0C
0500
0D04
0400
0E09
0305
0706
010B
0408
0002
0B0C
020C
0D0C
030D
0500
0D0C
000B
0508
0205
050D
0409
0407
070A
0606
0D03
060B
050A
090C
0405
0A0E
0C05
0D0B
0D01
0D0E
0E0B
0409
0B09
0309
0303
0407
0301
0A01
0005
040B
0004
0B08
0D07
0B09
0708
0409
0E0E
0E06
0205
0606
0005
0506
030A
0502
0E04
0A03
0906
0B04
0802
0401
0504
0B0B
050D
0600
0B00
0801
0D00
020D
0007
030E
060C
0C0E
070E
010C
060A
0805
0A01
0102
0605
0208
050D
030D
070A
0D03
0E04
0A0C
0906
0D0B
0403
0203
0C07
0800
0D06
0B04
0B06
0E0A
0C0C
020C
0407
0D0A
0704
0509
0002
030A
0402
0B06
030B
0B0B
0C07
0802
0A06
0605
0E03
0907
0901
0705
0E00
0201
0401
0706
0B00
0600
080E
030B
0B05
0803
080E
0E02
0A06
0606
0B0D
0A0C
080D
0101
0108
0304
0208
0809
0B0E
0E04
0506
070E
0707
0A0D
000B
0B06
0E04
030C
0C07
0902
0003
0D05
0E0D
0D01
0D0B
0308
0401
0103
0100
0B09
0C09
0108
0102
0B04
0C02
090A
0D00
0206
0206
050B
0A0A
040D
0005
0A06
050B
0109
0E00
0A01
0508
0804
0204
0706
0107
0C01
0209
0704
0A03
0600
0B03
0302
0205
0407
080C
0C05
010B
0005
0407
0100
050E
0000
0303
050D
090B
0300
0E05
0708
0809
0103
0B08
0102
0607
0108
0809
0608
0D02
0806
0705
0509
0C03
0905
0706
0005
0C03
0E01
0405
050C
080D
0808
0A0C
0C0E
0A00
030B
0A05
0401
0301
040B
000A
0108
0B02
0506
0906
0E0D
040A
0A0C
0705
0004
0E02
050E
0504
0A02
0C0E
0E00
0E09
0302
0B09
0207
0A05
0102
0C0E
0E00
0808
030A
0500
050E
0502
060B
010B
0509
0E06
0109
0306
020D
0707
090C
0A01
090D
0D0A
0C0D
0C0C
000C
0102
0809
0102
0C0B
000A
0003
0406
0106
0409
070D
060A
0009
0B02
0105
090A
010B
0C04
0203
0E00
0206
0102
0E01
060E
010E
0000
0E0D
0005
040D
0B0D
060E
0306
0E0A
0700
0203
0909
0308
0208
020D
0A08
0B00
0907
0107
010A
040D
0601
0903
0E04
0008
0D09
0D02
0D05
0305
0C05
0505
0109
0103
0109
0809
0802
080D
0D0A
0209
050A
0A02
0E0A
0C06
0D08
0707
0608
0205
0B01
0206
0E0A
090C
0A06
0305
0D07
0D07
0500
0405
010E
0C09
0600
020B
0906
0C0B
0805
0A08
0209
0208
080B
010C
0608
0C0A
0A08
0C06
0208
0900
0A02
0603
0009
0809
0C07
0D0D
0B01
0C09
0B06
0309
0707
0C03
0601
0001
030C
0807
0A04
0C0C
000D
0B09
030B
0201
0103
0703
0401
0C05
0804
0303
090B
0C06
0D0A
0004
0203
030E
0303
0009
0C0C
040D
0B09
0B06
0804
030B
0902
0D06
000E
000E
0C04
0B09
0106
0A05
0C02
010D
0601
030C
0E0D
0E0B
010A
0605
0E05
0301
0509
0400
0302
020D
020C
0607
0709
0107
0B01
040C
0D0C
0B08
0601
0009
0103
0A01
0E03
0B0E
050A
0B0B
080D
0806
0307
0D0B
080C
050A
0A07
0802
0B04
0200
0700
0E02
040B
0801
0903
0A07
0606
0E0B
0E03
0407
0101
0A0E
0C08
0A0D
0809
060A
0700
0805
0D02
0907
0E07
0107
0103
0404
0D06
0C02
0B02
0D08
0803
0B01
0505
030E
0709
0E07
0A0E
0C07
0C0C
010D
0308
0609
0E0B
050A
0C05
0803
0A0D
0C07
0A09
0401
0E05
0501
0508
070E
0E01
080C
050C
0808
0D09
0701
0C04
0D04
000D
0A0B
0B06
0B04
0102
0D08
0D0D
0A04
0001
0405
0B09
0906
0409
0408
0B0E
0D0C
0205
0407
0B0E
0500
0602
0004
010D
090E
0509
040D
0500
0509
0B0C
0600
0406
0E09
0E02
010B
0000
040C
030C
050A
0C05
0106
0E05
0600
050C
0102
0C04
0501
030C
0804
0909
0B02
020A
0A0B
0B06
0706
0401
0703
0D07
0204
0908
0408
0E01
0B08
0002
0B0B
0C0D
040D
0502
070B
0C08
0102
010B
0700
0D0A
0904
0500
060C
040B
0A04
0506
060B
010E
0509
0901
010B
0308
0B00
0902
0C01
0902
0A06
0D0B
0801
0400
0104
0907
030B
0C03
040C
030D
070D
0A09
0504
0307
0D0E
080A
080B
020A
0D02
0103
0103
0E0A
0403
0D08
0700
0A01
0906
0502
0803
0705
020A
030A
000A
0907
0A09
0805
0702
0407
0001
0602
0801
070D
0102
0C00
0C0A
070D
0D08
0602
0B0C
0B0C
080B
0601
0D08
0202
0C0C
0C0B
0D0D
0B0C
0D07
040A
0702
0D0D
0400
0C06
010E
000C
0103
0D08
0A09
0105
0B04
0C05
0203
0B09
0704
0405
040A
0707
080B
0100
0809
0308
0201
050E
030C
0803
0B0E
0303
0E03
020C
0400
0008
030C
070E
090D
0401
0C0A
000D
0304
0908
0E08
0E0A
0C0B
0309
0008
0D00
090B
0A0E
0B0C
080B
000A
080C
0909
070C
0904
0807
0E09
0903
090D
0903
000E
0605
0B03
0E01
0006
0802
010C
0606
0709
0506
0308
070C
0305
0C07
010D
0100
0409
0306
0304
0901
0A0D
0809
0A05
0901
0205
090B
0A03
0B0B
0A01
010E
0E0E
0E04
0E0A
0303
0607
0702
0806
0104
0209
070E
0C00
0E09
0608
0904
0D05
020E
0C0B
0D0E
0200
0B0E
080A
060C
0204
010D
0704
070C
0309
090B
0103
0C02
010B
0408
0A0B
0906
0C0D
0300
0D06
0B03
0406
0E01
0A09
0E06
040C
0908
0904
000D
0607
0B07
0A0E
0509
0A06
0900
0C02
0B0B
0508
0A00
020A
0909
090B
0809
0300
0704
0C08
0900
0608
0905
0003
0105
0809
0D01
0B01
0D04
0602
0500
0802
0008
000A
0A0C
0807
0B0B
0106
0D01
070B
0803
0107
0D03
0403
0605
0806
010A
0E0D
0101
0800
0C04
080C
020C
030D
0005
000A
000C
0D0B
0209
0C0A
0708
0B02
0D0E
0A02
0308
0806
0502
0E02
0601
0B0C
0504
0D08
000B
0206
0B00
0A08
030C
050C
0D02
0300
070E
0D0E
0007
0E02
0003
0A03
0D0A
0A0B
0603
0106
0A06
0C0E
0808
010A
050A
0304
060A
0408
020A
0104
020B
030C
0300
0701
0501
0102
040C
0C01
030D
0C0B
0106
0803
0300
0700
0302
050D
0C08
0A03
010D
0408
0400
0B05
0202
020A
0D0D
0A0A
0C06
0502
0704
0D0C
0E05
0C05
090B
070C
0603
0708
0E08
0C0C
050C
0700
0A08
0E01
050E
0802
0101
0706
0C07
0D07
0001
0A00
0E04
010E
0204
0205
000B
0406
0004
0405
0E09
0407
0605
020C
0B05
060C
0700
0706
0307
0D05
0D01
030D
090B
080C
040B
040B
0B01
0E00
090B
0105
000D
0905
0703
0D0A
000D
060B
0700
090D
0801
0A03
0B07
0607
0C03
0208
0E05
0E08
020B
0102
0C0D
0B06
0901
0806
080E
0A0D
0800
0002
0C05
0703
0B0D
0806
0C05
0C0D
0300
0705
0B0D
0106
0508
0A07
0D0B
0301
0B0C
020D
0C05
030E
0503
0605
0304
0608
0707
0B02
0008
0200
020A
0401
000E
0403
030C
0404
0D0E
0D03
020B
0805
0B03
060D
0707
0509
0C0E
040D
060D
0109
060D
0808
0209
0A0C
050A
0709
030A
0E0C
0C0D
010E
0903
060E
0101
010A
0D09
0B08
030E
0C0C
0C03
0D0B
020A
0C09
0500
0C0A
0C02
090B
0B09
0A0B
0D04
060D
060B
020D
060E
0B00
000D
0206
0E04
0B08
0A09
060B
0906
000D
0E0E
0408
0103
0602
0D0E
0606
0407
0E01
0C02
050C
060C
0D07
0C0E
0A09
0C06
070B
030B
0609
010A
0709
0B01
0106
0100
0704
0B08
0B01
0209
0A04
0D08
0303
0600
030E
0409
030A
0302
080C
020C
0C08
010A
0B0E
0302
0D04
0700
0504
0D03
0207
0B08
050E
0804
0D03
0D09
0201
020C
0103
0900
0509
060E
0809
0B07
0102
0101
0802
0206
010E
040B
0405
0A01
0C03
0209
0000
0205
0301
0107
0803
0C04
0A0C
0D00
0507
0900
0B02
0C01
0208
0C0B
0A03
040D
0400
050C
000A
0C03
050D
0808
0B00
0903
0809
0C07
0307
0602
0808
010B
010C
0C05
0B04
000D
0105
0908
0702
0806
0C03
040A
0A04
0307
0D01
0902
020C
0A04
0C0D
0E02
0507
0301
0B01
070E
0C06
0E09
0102
0301
0101
0E05
0A00
0805
010B
000D
0B0E
0805
0106
0501
020E
070C
070D
0B06
030B
0E00
0807
0100
070C
0B0A
0D02
0007
010B
0C08
0206
0603
0702
0007
040B
0808
0D02
0C0C
040C
0A06
0100
0E0D
090C
0906
0207
0104
090B
0706
0C03
010B
0006
0C04
0E0A
060B
0106
0705
020B
0E07
040A
0004
010D
030E
0B07
0A0B
000D
0707
0A09
070E
0E02
0C0D
0009
0003
0000
0A03
0A0A
0002
0E0E
0303
0B0C
0D09
0C0C
0602
0102
0A0C
0005
0B04
0805
0806
0801
0E00
0D0D
0608
0307
0008
0C05
0306
0407
0B0B
010A
0705
080B
0E01
0907
0D07
070B
0709
0C00
0306
0000
0000
0300
040A
0C08
0301
0C04
0303
0006
0302
0702
040C
0108
070E
0900
010A
090C
0508
0509
0503
0D08
0809
0402
090D
0903
0A00
0903
0502
0D09
080D
0A02
0B07
000B
0E06
0C0D
0909
0D06
0B0C
050A
0E09
0304
0A0C
0409
0B07
000C
0002
010A
0006
0B0C
0701
0403
0604
0108
0B04
0E0C
0701
080E
0205
0A04
0406
040E
0704
0308
0400
0000
0606
0304
0602
0402
0807
0905
0D09
070D
0907
0201
0609
0105
0A07
0204
0701
0208
0007
0105
060C
070B
0D09
0707
010B
0105
030B
0108
0C06
0C03
010B
0A09
0D01
090A
0D06
0705
0808
0C04
070C
0305
060D
0C03
0107
0407
0104
060A
0707
0904
0002
0A01
090A
0204
0408
0E03
0002
0D07
0107
0208
0D03
0107
0D05
0600
0906
0B02
0701
0604
050E
0D03
0001
0502
0D0E
0D02
0607
0B09
010C
0500
0A06
0802
0E04
0405
0A0D
0B09
0C08
0C0D
060B
000B
0206
0E07
0505
0503
0C0C
0200
0B06
060B
0505
0704
0609
020D
0E02
0503
0E07
0905
0402
0B0A
0B06
0B08
0B04
0B07
090B
0D0D
0E0E
0104
0B0E
0903
0E04
0707
0A09
0704
040E
0509
0908
0009
0206
0A04
0D0D
0E07
0E01
060D
000B
010C
0609
080D
0102
0001
0704
0503
0203
080D
0905
040D
0B0B
0C04
0600
0E03
0104
0402
0E00
0B0E
0603
0B02
0904
0D00
0707
0B0B
0302
020E
0606
070D
0402
040E
0703
0907
040B
070A
0D0D
0600
0600
060A
0A07
0E04
0809
060B
000A
0E0E
0A0B
0209
010B
0B03
060E
0504
0A02
060D
0C0D
0A0C
0C0A
0402
0E0A
0A01
0103
030A
0C0A
0A09
080D
0E0C
0209
0308
0301
080E
0B06
0702
0B06
000A
050C
0A0E
020A
020E
0D04
060E
0B09
0904
0605
0C05
030B
0E09
090E
0A0B
0109
0603
0E01
0306
0C04
0D06
0703
0B09
0909
0A0A
0C0B
0A0D
0701
0E07
000B
0A09
0807
0A09
070A
0009
0701
060E
0A08
010C
0206
060D
0001
060E
050E
010D
0A04
020D
0707
0A03
010B
0C07
040B
0D00
0C00
0008
0501
060A
0305
0307
0802
0B0B
0903
0209
0909
0606
0E00
020A
060D
060B
0904
0C09
090D
090D
0002
0E00
0D09
0200
0A01
0806
0D0B
0309
0001
0505
080E
0C09
0500
010C
0206
0E05
000A
070E
0E08
0205
0301
0B06
0601
0109
0107
080E
0807
0401
020D
000C
0D06
0402
050A
0C03
010B
0008
000C
0C0E
070B
0A08
0A04
0D0C
0303
080D
0804
0809
000E
0A05
0E0C
0C05
0700
0E08
0E0A
000E
080E
0A0A
070B
0301
0302
0E06
080D
0A0C
0704
040A
0C0D
0004
0606
0103
0706
0D07
050C
0400
010E
070B
0209
0603
0009
0100
0C07
0404
0E04
050B
0E08
0802
030E
0C05
0509
0D04
090C
0D06
0B0B
0A04
0E06
0807
0605
050E
020E
0801
0B03
0604
0B0B
0304
0A00
0200
050D
0D04
0108
0407
0E06
0A09
0005
0608
090D
0E05
0204
0306
0C0C
0800
0D0E
0D0E
050D
090A
0B01
0005
0003
0704
0D0C
060E
0D03
0C0A
0D09
0B08
0509
0101
0806
0708
0400
040D
0602
010C
0B0B
0406
0909
090D
0E0C
0606
0705
0D0D
0908
0503
0E09
070C
0708
010C
040E
070A
0306
0E02
0A08
0906
0606
0201
0100
0407
0E0E
0008
0D04
0808
0807
0807
0901
0606
0708
0B0B
0502
0902
0D00
0804
0C0B
0802
060A
0A00
0301
0C01
0B04
0E0D
070B
0803
0C00
0004
0907
080A
050C
070E
030C
0202
0701
0605
0D0C
0802
0A06
040C
0604
0604
0B01
030B
060A
0201
0808
0303
0900
0A0D
0E0B
080B
0504
010C
0A00
050D
0103
0806
0401
0E06
0C07
0400
0908
0501
0004
0305
0209
0906
0B07
0E0C
0B0D
0206
0207
0B04
0B00
0E0D
0701
0605
0A06
0103
0C08
0408
0604
0C0D
0C05
0202
0505
0506
0208
0B09
0A08
0C02
0805
0907
070E
0D08
0609
0A09
0500
0109
0003
040E
060A
0E0B
0E0A
010C
0008
0700
0001
0504
0C00
0800
0608
0304
0507
0D08
0C09
080B
0B07
0C07
0604
0009
0405
0306
0902
070E
0306
0A09
0E0A
0002
0B06
0405
040B
0309
010E
040D
0307
0005
010E
0709
0B0A
0D0A
0904
030E
0B07
0005
0601
0E04
0403
0609
0404
0004
0008
0602
0D03
0D06
040E
0001
0800
0302
090B
060C
0200
0C08
0D06
0607
0106
070D
060E
0504
0B02
040B
0D0E
0C06
0D09
0C03
0705
0B07
080C
0B07
0A0A
0508
0107
0D0C
0200
0104
060B
0E09
0C01
0306
0B02
060E
040B
0706
0C00
0D09
0505
080A
0000
0104
0106
0304
0002
0509
0E00
0D09
0A0B
020D
0408
0A01
0301
0107
0709
0709
0400
0C0A
030A
0304
010C
0105
0406
000B
0C0B
0706
0306
0008
0305
020E
010A
0D0B
0908
030C
0002
0A07
0E07
0409
0406
0309
0E02
0C07
0002
0C0E
0107
0D0D
0403
0C00
0C0C
0306
040B
0203
000C
0100
010A
0A0E
0807
0D08
0309
0E0B
0801
010D
0008
0305
0001
0C03
0105
0908
0D06
0900
030D
070B
010A
0A09
0703
0E09
0A00
0502
0A09
0100
000A
0E0C
020D
0B0A
0D05
0902
040B
0605
0A01
0100
0503
0205
0309
0102
030A
0007
050D
0305
080C
0E00
090D
0A03
0906
0106
0307
000B
0E01
080C
0007
0807
0006
0D04
0D06
0009
0E05
090A
0B0E
0201
0C08
0806
0A07
0105
0E0D
0305
030B
0B07
0E07
0300
0A0D
0308
0C0B
0A09
0508
0708
0607
0605
0D07
0D04
030A
0303
080A
050E
070C
0705
020E
0204
0907
0701
0003
0C04
080A
0104
0D0D
0409
0A04
0808
0401
0E0E
040A
0E0A
060B
0E04
0008
0B0E
0006
0303
0902
0803
