0018
0045
0039
0077
00DD
00B4
0042
00EA
00E2
00BE
00C5
0017
0075
0033
008C
001D
000A
0012
007A
001E
0019
0010
009C
00E7
00E6
003D
004E
00A0
00A1
0073
0034
0009
0008
002C
002C
003D
0030
0047
0055
00B3
0074
00AD
0015
008E
0058
006A
00D2
0065
00C9
0024
0021
00D3
0045
00A7
007E
00E6
00CB
0073
0044
0020
0046
0099
0010
0043
0038
00EB
0000
00C1
00D4
00A5
0002
00AB
0010
0086
002A
004D
00E9
000D
008D
0090
00CC
0047
0018
0076
00C0
0063
009E
0084
00C2
0088
0075
005B
0056
0016
0076
0023
003A
0064
00C9
0086
0055
00B0
00AC
003D
0087
00AD
000D
002A
001A
0008
00D2
0055
006E
0088
00E2
0007
00C5
00E3
0083
0047
0003
006E
0010
00B9
0039
0026
0053
0072
0008
0065
00C7
009C
007D
0033
0092
0003
00B3
00B3
003E
000D
00A3
0001
0053
00BE
00B8
0080
0035
00C7
0076
00AC
0046
00BD
00DC
007A
0073
00BE
0009
003D
0079
0008
00E6
0052
00D6
002A
0033
00BD
0024
0095
0017
004D
00E8
00C4
0002
00C4
0008
0083
0007
0072
0043
0099
006D
0019
0045
005B
0069
0027
00C4
00A8
00DC
00CD
0065
0053
001C
0067
0009
0073
0075
0002
0002
00A4
00D4
0023
008B
00B4
0019
00BE
00AC
0000
005B
0095
0067
0041
002E
005D
0044
001B
00D7
008C
0059
0059
001A
008D
00DB
009C
0088
009C
00DA
006D
0097
00B3
00D1
0050
0037
004D
009D
0087
002B
0057
006A
008E
007E
00C0
00B5
008B
0083
0006
0007
00D6
00B2
008C
0026
000A
0002
00E6
00A8
003E
0096
007B
00B5
00C4
003E
003E
0039
0073
0088
00C1
00BE
005D
0027
0049
0032
000B
0046
00E2
00D6
0061
0034
00BA
00D5
003E
004D
0055
0029
008D
0095
0015
0011
005A
0096
00AA
0053
0057
006B
006B
004A
009A
0047
00C8
00A5
0037
0095
0006
001C
00EA
0046
0061
006D
00E3
0086
0060
0060
007A
00D5
0054
0094
005B
0018
008B
00D3
0026
0099
00A9
005E
007D
0078
00CD
0062
0071
00BD
005D
0017
0048
0060
002E
0077
00A2
0024
0065
0045
0080
00CE
00DE
007B
00ED
00C7
0035
0021
00C8
0055
00B4
00B9
006C
0091
0065
0091
00E4
0001
00DB
0057
0034
00E9
009D
0080
0085
008D
00EC
004D
007E
00DC
000D
002A
00B2
00DB
002E
0089
007C
0029
0093
00C6
00C2
0098
0064
00B7
003A
00A1
0068
001E
00A9
0043
005C
00D0
0029
0010
0028
0085
004D
000A
00AC
0053
00EE
009D
004E
00D6
0013
0012
0002
00B5
0008
0005
0076
0006
0091
00C2
000D
0018
00E1
0050
0032
007E
0036
007A
00D7
00ED
0096
0045
0000
0038
0067
00D4
0045
00CB
0089
00AC
006C
00DD
0055
003D
00E3
0040
00AB
0027
0069
0071
0020
005D
0053
0004
007C
0022
00E5
00E4
0060
0008
0074
00CA
0064
00BC
00E1
0050
00B6
0084
00C9
00A6
0011
0052
00CC
005D
00EA
0044
00BE
0017
0019
006E
008B
00BC
00CC
00E2
0098
0099
001C
0051
00AA
00E8
0062
00D9
00ED
0022
002E
0011
0066
0051
00E6
00B2
0005
00AB
009E
0074
0034
008B
00D3
0075
002E
005B
00AB
0001
00C5
0028
0086
00BE
00B2
0051
00A4
00D5
002B
002A
0028
0000
0029
00C6
0007
00D5
00EB
006A
00EB
0048
0058
003A
005B
00AA
0011
002B
00A1
0037
0093
00C1
0004
00B0
00BC
0061
0056
008A
000D
00C1
003C
00CB
0015
00C3
00BE
0020
000C
005B
002B
0020
0060
0069
0094
00B0
00BB
0045
001D
008B
00D0
00D7
0050
00A0
005B
00EE
007C
0001
00E0
0029
0089
002B
0075
0096
00D0
0014
00C0
00C1
0079
0081
0096
0062
00B3
0059
0077
0077
0085
0044
0083
003E
001D
008D
0064
0050
000E
00D4
0062
0052
004D
0056
0047
0029
001E
0002
00DA
0057
004E
005C
003C
0054
0065
000D
0045
004E
00B6
00DD
00A3
0089
00DC
0093
001A
00E7
00B6
002D
0070
00ED
00E3
0050
00A6
004B
0048
0076
00A4
00D7
0026
0092
00D0
0004
0073
0012
007B
0052
0050
00A1
006A
00BB
008D
0043
00BE
00A5
0099
0076
0015
0038
00E5
001D
0010
008B
0046
00E5
0072
00D4
0005
0076
00B9
00C8
00E5
0042
0072
007E
0073
00E3
006D
0057
00B5
00CE
000C
00E2
0093
0087
003B
00DB
0018
0098
005E
005D
0092
0068
00D0
00ED
0094
0067
0085
00ED
00E2
001B
001D
004E
00A6
0069
0043
00C9
0029
0019
00B8
0095
000D
0026
0097
00D8
0078
008D
00E6
0048
00AA
00BE
00C3
00B7
009E
004C
0044
00A9
0015
003E
0030
007E
0063
001A
00DB
00CE
00B7
0075
0002
00DB
0047
009B
005D
00B4
000B
00C2
0065
00C7
00AA
00B7
002A
0022
005D
00C1
0074
0069
00BC
00E3
0042
0068
00C0
00E3
0085
006D
00A4
00C5
00D3
0076
0040
00CC
00A4
003B
006D
00DC
0019
0017
0062
008D
006C
00D6
00A2
0043
0047
0005
003C
0078
0057
00DC
00A9
00C8
0064
008D
00C1
000B
00A1
00C6
00E1
0034
0085
0025
00C1
00B1
003D
00CA
0065
006C
004E
004E
00D5
0093
0067
00CE
0008
00C4
00E6
0033
004C
00D1
0032
0061
003C
002D
0078
001A
0081
0024
00A4
0099
0060
004C
0096
00D4
00B7
0046
00C2
0018
007B
0090
0000
003C
0066
0078
008E
00EC
0040
0018
001B
00AC
0062
0047
006A
0011
0069
0086
0013
00C9
004C
00B9
0015
000E
0099
00E0
0043
00B2
00E9
00E9
001E
0094
0017
00AE
0057
00D3
008D
00B2
008C
00D5
001C
00C0
0070
0075
0062
0054
0009
00A8
0014
00AE
00EC
0075
005A
002B
00BE
0078
0022
00BA
003A
0065
006D
00DC
0038
0024
006D
0093
0003
0049
0079
00E1
007B
000C
00B3
0099
0049
001E
008B
00B6
00A4
0018
00D6
00C3
008D
008E
006B
0007
002A
007B
0006
0010
0097
0091
0053
00A8
00B4
0076
00CA
00CD
00C0
0067
006A
00E5
00B4
006A
0033
0007
00CB
00EB
00E3
0068
0056
00EC
00AD
002D
0060
00C7
0090
0050
00D0
002C
001E
00C0
002C
00DA
00B8
00D5
00C5
008B
006A
004C
000D
003C
00D4
0003
00A9
002D
0059
0081
00A5
0075
0095
0077
0050
001D
00A2
00B4
00AD
001D
007C
00DA
0063
00CB
0000
0035
0003
00CC
0088
00B9
00DB
0033
0001
0080
0083
00B2
007C
001B
0071
0062
0047
0093
004B
0001
0049
0017
002C
0007
0044
0001
00C3
0076
00D6
0023
0073
007D
0030
0047
0025
0076
0096
0067
002E
0019
00B4
0060
0051
0040
0044
00E2
004C
00E5
00D7
0009
0034
0065
00E0
0049
0001
0013
00AE
008D
0081
009E
00C2
004C
001C
00EA
00EA
00D2
0083
0006
00D5
0002
00EC
0062
0041
00A0
00A0
0034
0045
004C
00A4
00B2
0005
0030
007C
0012
003E
0008
0015
009C
0016
00A5
004A
0062
0077
00CE
00D5
0034
0073
000C
001B
007B
003D
0093
00DB
0055
00EA
00C7
0066
0078
002B
003D
0024
0068
009D
0070
0098
0036
0066
00D3
0064
00AB
006D
0066
009C
0012
0051
0053
0033
0057
0070
00B5
0061
0089
00D0
00E4
009A
0069
0076
0080
0056
0082
00A0
0027
00D9
0038
00B2
00EB
0017
0051
005A
005C
0062
002A
006D
00C2
0030
0044
00C0
00C2
0069
0035
0001
00EE
00B1
0090
0010
0006
003D
00C8
008E
0081
00B9
0073
005A
0087
003C
0034
00C0
00E7
0059
00AB
0074
0079
008C
00AD
004D
0066
0047
0053
0077
008E
00DE
0040
007E
0029
0066
00AD
0074
0008
0026
00D8
0015
00A4
00E2
0087
0021
0011
0030
0095
00D0
00A5
00E6
0026
00B0
00BA
0095
0052
0082
00C7
008D
0093
006A
009D
007D
0037
0074
006D
0000
0047
00E3
0081
0034
0008
0018
00E3
00B5
00B3
0022
00B3
00C3
0041
007A
007D
0027
00E8
00E2
000A
00D6
003E
0085
0072
00E9
001A
007E
00B2
0066
009D
0071
0007
00E7
0022
0000
008B
003E
00CD
008A
0007
00C1
0018
0074
0067
00EB
003B
00D5
0028
00EE
0039
008B
005B
008C
00D0
0013
0058
0047
00C9
0085
0033
0012
0079
00E2
0002
0043
0072
000C
0064
00BE
00CB
0033
00AC
0064
004D
0004
00E4
008A
0035
00B2
0079
0024
001B
00EE
0087
00B1
00B9
008A
00CD
004E
005A
00B9
00E7
0017
0077
0049
0048
005E
00C7
00D0
00BA
0035
0041
003D
0032
0027
009D
006D
00B2
00AC
00D9
0006
004A
00E6
0033
00DD
009D
0090
00D5
00EB
0026
002A
00CE
00BA
006C
0049
009D
0063
005E
002E
0000
00B6
00AA
0077
002C
0050
00B1
00EB
00AB
00E4
009C
0018
0014
00C3
0080
00B5
00C3
0063
005D
009D
0075
0090
00CA
0030
0079
0065
00BB
001D
0033
00E0
0028
0044
00E0
00A5
0030
0011
0065
0034
001C
00AA
0054
001B
0015
0030
0028
00BB
0052
003A
0089
00EB
00BD
002C
0067
0015
00BD
0042
009C
0078
00B1
00BC
000B
0005
001E
00C5
004E
0047
0067
001D
00E4
0091
0001
00E3
00CC
0008
0000
009E
0033
005A
00E5
0023
000D
00D6
0022
00B8
00D8
0069
00DA
0040
00B4
0092
0055
0039
00DA
00E4
003E
0023
003C
00C2
0072
005E
0045
0022
00EE
002B
0024
00E1
00CD
0013
00D9
0056
0069
00E7
00D3
0071
0095
00B9
003C
0017
0082
0067
0085
0008
00C5
0005
0016
0091
0098
0051
008C
0047
0064
001A
0004
006C
0099
0072
0088
0037
0071
00B3
00EC
0032
0083
00CC
00D2
00C1
0043
0045
009D
00C5
00DC
006D
0057
0006
0025
0008
0010
0091
00CD
0022
0080
00BE
00CC
0015
00E4
0003
002C
00E5
003A
00AB
0084
0086
00DC
00C5
00D4
0023
0036
004A
0033
0070
002B
00E5
00A9
0080
0034
00C9
00BD
00C9
0015
0065
005C
00C8
0042
00D8
00B0
0029
006B
009C
0004
0039
00EB
0069
0066
0060
00D4
00EB
008A
0039
0001
0075
0057
00E0
0017
000D
0006
007D
00D2
000E
00EC
0057
0026
0094
0049
006A
005D
0073
0086
00DE
00BC
0076
00DD
0037
0051
0071
0035
008D
002E
00A8
0037
000D
00BD
0017
0066
005D
0000
0047
0016
0037
00A1
00C7
00DE
003C
001A
00D2
0095
0015
0028
0046
0021
00B5
002D
00A0
00C3
0030
0052
0046
0098
0065
00AB
0001
009E
000D
0039
0095
00D8
0058
00B9
0076
0079
0098
00A9
0092
0097
0012
0004
002C
0067
00C0
007C
00BB
0030
0086
00E6
0033
00D2
003E
0064
0095
0039
007A
00C5
00EE
0064
00A2
005A
003E
0010
0047
004A
008E
0031
00A3
000E
00DE
00C3
0047
00BA
00EC
001B
00A5
000E
0011
00B7
00E6
006B
009C
0030
00CC
00BC
00DB
0001
0025
0053
00EC
003D
0057
0007
00A1
0011
003D
00C8
0010
001C
00B6
00A5
004B
009D
008C
0047
009A
004E
00E3
0008
0032
00EC
0036
0052
00B7
0053
0084
00BD
003A
0088
00B6
005C
0024
00E5
00DD
0034
0012
00D6
00A8
0004
005E
0087
00E4
0096
0089
0003
00A1
0007
0003
008B
00A5
0012
0004
00AC
000A
0067
0084
0049
0094
0044
00E8
0061
00DC
00E3
0048
00B6
00DA
00C0
0005
0073
004D
0015
0081
0099
006B
0082
00B4
00E8
00A3
002E
001E
008E
009A
007E
0083
00E2
0051
0030
008E
00D2
0046
004E
002D
0084
00B3
00C2
003C
00E9
00C6
0057
0022
0055
0080
003A
0097
0094
006C
0087
0025
0073
00BB
0087
003E
0032
003E
004A
00D4
00A3
0097
00B3
00A0
00C2
0079
00C0
003E
00B7
0027
0013
0082
00A4
00A3
00B9
007D
00EA
0092
00D7
0004
00DA
00D1
0030
00D0
0070
0076
00DE
0039
0040
0075
0019
0078
0058
0088
0033
0067
00CE
0002
009E
0052
0068
00C9
008E
0077
0008
0023
0024
00E2
0044
0077
008E
00BA
005B
001B
0049
000C
00BD
0039
0066
0043
0082
001B
00CD
00A4
0099
00AB
0021
007C
0098
00BD
00C3
009C
0004
0064
0018
0030
0017
0000
000E
000E
0067
004E
0062
00D3
0081
0055
00D4
006A
00E9
00D6
0048
0032
00DD
0095
00D5
005E
0085
000A
00E3
00DB
0094
0096
00ED
00DB
0015
001C
005D
0042
004B
00EE
00EE
004B
00DC
0021
0058
0033
00E0
0077
0015
008E
00C6
00E9
0046
005A
00BE
0000
0020
004A
0094
00B1
007E
009E
00B1
0033
000A
00A9
00DB
0087
004D
003C
00D9
0043
003D
00E9
00B4
00BE
006C
006C
0044
009B
00E7
002C
00AA
000A
00D7
0017
00E7
00E5
008E
0091
0017
0022
00BA
0000
0074
00BA
002C
009A
005E
003D
0093
001A
0005
00C6
0071
00AC
00AD
006D
00E1
004A
00D6
0026
0085
001B
0053
00E1
0051
0092
001B
00A5
00A0
006E
000D
0027
001B
00BA
000C
00E3
0049
00CA
00A3
00A0
0079
002B
00AC
004D
0003
0047
0085
0055
00E0
001D
009A
0024
002E
009C
0013
0096
006C
000A
009C
00A4
0094
001B
000C
0028
0038
00BC
004C
0010
008D
005B
001E
00DC
003D
0077
0006
0011
00C0
0044
00AA
007B
0039
004A
0070
00C4
00C0
0087
0077
00DB
0053
0018
00D1
007A
0023
0047
0028
0092
0071
0052
0064
004B
00A9
00DA
0074
0025
0022
00CA
0019
006C
0021
009C
0094
006C
0080
008D
004A
007E
000A
009D
00D2
001D
0012
0084
0067
003D
007A
0015
0065
00D6
0026
00D8
00C8
0029
00B3
0000
003B
0036
006B
0008
00A6
0048
0018
0052
0002
0049
0028
00EB
0041
006B
008E
0047
0030
00AD
00E1
0066
0013
0002
00E0
00A2
0042
00C6
0048
00DE
0025
00B6
00B4
0099
00A6
005E
00E3
00DE
0032
0088
0044
007E
0058
00B1
000A
0099
0028
00EE
0096
0092
00ED
0009
0060
009B
00D8
0079
00AA
003B
00CE
0025
00CC
00C7
00BA
00DA
002A
00B6
00A1
00A0
0009
0041
001B
004C
008E
002E
0032
0027
008E
0042
0067
00B2
0002
0050
0001
00E0
00A2
00E1
0012
00A8
0099
0069
0083
00B2
00A4
00C9
00AD
0068
00E9
0079
00B5
0088
00B4
00D6
0039
0053
00D9
0065
0061
00AA
00D5
00AE
0063
002D
0064
0085
007D
0032
0045
005B
0000
0037
0032
0022
002A
00DE
0050
0025
00BA
000C
003E
002C
0026
0077
00DB
00CA
0007
005D
009B
0069
005D
006A
0037
00D8
0051
00E8
00E2
00AE
00A8
00AC
00C2
00C3
0031
0043
00A3
0072
00E5
0064
0047
00D4
00DB
0031
00C4
00C3
00D3
0061
00A9
0017
00E6
003C
00CE
00D8
00D2
0053
0022
0084
0023
0047
004A
00D6
006B
008C
0098
003C
00BE
0060
0052
00AE
0081
004D
0086
00B2
0076
0032
0086
003C
0054
0021
0016
00C6
003E
00E9
00B6
0096
0095
0046
0016
008C
0068
0015
0009
0026
0050
0002
006B
0018
0074
0043
0010
00C6
001E
0070
0030
0084
00A0
006E
0005
0091
0058
0000
00B8
00ED
0039
0042
0043
0086
009B
009D
00B4
0055
00D0
005D
00DB
00BD
008D
00EA
0015
0047
00A5
0031
00D5
00CC
008D
0052
0028
0043
003E
0089
002A
00B9
00A7
0004
004D
002C
00EB
0095
0038
004A
00D9
00A0
006D
00B1
0096
00E1
008D
0090
008A
000C
0061
000D
00EB
0050
0042
001A
00E8
0021
00CE
00ED
00B9
0021
0041
00C0
00C4
004A
00DD
0062
0008
0001
0055
00D8
006B
00BE
0087
0088
0093
0010
0034
0057
009B
0037
00A4
00A5
00B0
00C8
0088
00A7
00BA
0015
00E7
001A
0037
008D
00AC
009B
005C
0047
0065
00A5
00D3
0038
0010
001A
005D
002D
00DA
002E
00C0
0090
00CB
00E6
0000
00A4
0043
0020
008D
003A
00BB
0093
00B4
0039
002B
00C0
00E7
00AA
00AA
0055
004E
001B
00C8
000A
00C5
004B
00E2
00AB
0005
005A
00C1
0090
0054
00E4
0070
00EA
0069
0049
0064
00E1
0028
0004
0049
00B5
0080
0023
0068
00AC
0082
00C9
000D
002C
0082
00D5
0057
00B1
004A
0023
0075
00B3
0065
0040
00BD
0078
0062
00CE
00C0
005D
00A0
00D7
00A7
009E
0053
0025
00C7
00B7
0081
006E
005D
0022
00A5
0059
0065
006E
0049
00A1
0093
00A9
0079
0057
0011
003B
0062
005A
00B4
0055
00E9
0038
0031
00B8
00B2
0030
0005
00D8
00D0
00B1
0019
00B6
00AC
0092
0004
005C
004E
000C
00A7
008D
0015
0031
0004
002B
00C1
0099
0057
00A1
005B
0031
0024
00D5
004D
00BC
0035
0042
0022
000E
00BC
0043
0050
000D
00AD
0025
0083
0093
00A2
003A
00BB
0086
0001
00E4
00CE
0017
0048
0021
0018
00B9
0039
0054
00B3
00AA
0027
0012
007E
0080
00A2
007E
00E0
0089
00B3
003E
0098
00DE
0011
0045
006E
00E2
00AC
00D5
004D
00C5
0004
0030
0036
0020
00B4
00A8
0026
00A0
00D2
0021
0018
0032
0056
0001
0027
0054
0082
0048
0065
00E9
00A8
006C
00DA
00BE
0028
0035
00A3
00DA
004B
0067
002C
00A6
00A5
00AA
0043
005A
0009
006D
0044
00BC
00E6
0035
007B
0066
00DC
002C
00EA
004D
001C
001C
00C8
0033
008E
0003
0032
001E
00D9
0035
0086
0091
000A
00E0
00A7
00E2
00CE
0032
006E
00BC
006A
0075
00E7
0001
00E6
00B8
00A4
00E5
0010
00C1
00D2
00AA
00AC
00B6
003C
0056
0062
00A4
0084
0033
008C
001C
00A1
007A
006D
004A
00BC
00B9
005C
0068
003A
0092
004E
00B2
003A
00E7
0050
0040
0097
0076
00A5
0057
00E9
00A9
00DB
0093
0003
0060
0014
00E1
004A
005C
00A2
0010
00D6
0093
000D
0067
005A
0039
00A2
0071
0030
0059
006B
0091
00A5
0000
0024
0094
0074
00B8
0027
00E3
000E
0058
0070
00CE
0058
00D1
0024
00EE
00EB
00C2
00E9
0083
0081
00AA
0096
0053
00CE
0094
00A7
007E
00E5
0076
0074
0090
0049
00B3
0070
00E7
00D9
0013
006A
001E
006E
00E1
0044
00B9
0089
009C
0023
0087
0009
0071
0028
0084
0070
0015
0022
00D3
0090
000D
00CE
0016
00A5
0011
004A
006A
0000
00BC
0015
00E2
009C
0002
0053
00D0
00D0
002E
008E
00A8
0090
00CB
0067
00D9
00AB
0044
002E
00BA
000D
0014
00EC
0092
0060
0023
0027
0046
0012
0050
002E
001E
00CE
006B
0007
00CD
0079
003C
0091
00A7
0028
0062
00B0
0042
00CB
0078
0090
0037
00B0
001E
00BB
00A6
0030
00CD
00C1
00D2
001B
000C
0043
001E
00CE
00BC
00B0
003C
00ED
001A
003E
00CA
0066
0014
00B3
0050
0028
0082
0047
00C8
0093
00B6
006C
0046
00B8
0075
0090
0028
00BA
00B9
00A1
0074
0009
00D6
0045
003D
001E
00A4
002D
003B
000D
0083
008A
00AB
0084
00C7
0093
0024
001A
00C3
00DC
0042
0034
0096
0033
00D9
0077
0093
0021
006A
0026
00A8
007B
00A8
003C
000B
00BB
009D
0008
00D9
0085
0066
0049
004A
0087
0012
00B2
00C3
005E
0087
002B
00BE
002B
0058
0085
002A
0087
0053
0009
001B
0038
009B
00A4
0070
0022
004C
0087
000C
004B
00A2
00C3
006C
0006
003E
00B0
0059
0049
0005
00AC
007B
001E
002B
00DA
001D
0055
0052
008B
0012
0079
00DB
00A0
00DB
0083
008A
0039
0010
0075
00B6
00A3
005E
005B
0002
00D3
005C
005C
007D
0050
00EC
0031
0026
0096
0027
00CC
0055
00B7
00E3
00B5
00E6
0030
0029
0060
00C4
0021
009B
00D3
0007
0099
0046
0094
00A0
00BD
00A9
0038
0086
0022
0063
00A6
0076
00EA
00CC
0079
007A
00AE
009D
00B2
00DC
00BD
0026
00C7
0099
00BA
0026
0093
005A
00DD
0048
00A7
0070
00A5
001C
00C3
0003
0052
004C
00E3
0054
0054
0074
00D7
0092
0041
0086
00B8
007E
0045
00E6
0017
00B0
0097
00B2
0027
0053
0099
0025
00EC
0000
007D
00E3
008C
00B2
0012
004B
0093
0020
004C
00E5
0044
00DA
007E
001A
0013
0036
00A9
00B0
00D0
00A1
001D
0045
0093
00D3
0099
000A
006E
0090
0080
00CB
00EB
009E
0082
00E4
0080
009A
00C5
0075
0059
004C
00AB
006D
00ED
0026
0069
00EE
0054
008A
00C3
0067
0030
00C5
00DE
008A
0090
0035
00E9
0079
000D
00B6
00C7
006D
0009
0092
00DA
0081
00A9
00E0
00A4
001C
0046
00B0
009D
00C9
00DE
0037
00E0
00CA
002B
0030
00E8
0097
0036
009E
0000
0082
00A0
0017
0031
00D8
0058
0009
0081
0042
00A4
0076
00D8
0099
0081
0090
00A5
00BC
0014
005D
00BA
0001
0032
0077
004D
0090
0075
0094
00A6
00D2
00E9
00C4
0078
00D6
005E
00A6
0096
00BC
00E2
0048
009C
0073
00A9
0076
003E
00AC
005B
00C9
0067
000D
0071
00B3
00EC
001D
00AE
0070
00DA
00BA
0097
0019
00D7
0011
00E4
00D5
009A
0082
0038
00EC
0059
002E
0027
0016
00E9
00DB
0030
00C2
00E6
0061
00EB
005B
00AE
00E5
0096
0039
0004
00A1
007D
008A
00B3
00D5
0048
0091
000C
001D
0046
00D8
003A
0058
0052
002B
0037
001A
00AD
0080
002C
0054
00BD
0023
0074
0096
003C
0068
006B
00C1
0092
0048
000C
0037
0030
00D3
0076
002E
00A7
00A3
000A
009D
00E1
004B
00C2
00B3
00B9
0026
0078
00D5
00DA
0061
00B3
003B
00D9
00A7
00C7
0037
007E
00D5
0019
00E3
00C7
0099
0019
00ED
0010
0044
000C
0004
000D
0052
0018
00D6
0025
0060
004D
006C
0081
007B
0094
0010
00EC
00A1
006B
003E
0046
0071
0063
008B
0039
0092
000E
0053
0021
0020
0093
0054
0073
005B
0033
0023
00D7
005D
0027
0060
008B
006B
0066
004E
0077
0024
00CA
001A
0040
0017
0010
002A
00D4
009E
0019
00DC
000E
0049
00C5
003D
0077
0053
0058
002C
00A5
00B9
0057
0052
0053
003E
0004
00E6
00B3
0098
0067
00CE
000E
0091
000E
0092
00E3
009E
006B
00BA
009B
005A
00A3
003E
0042
00E9
000E
0092
00AC
00AA
006E
0081
00E9
002E
0092
0011
00AA
0084
007B
007E
0002
000E
0095
0071
0022
00C1
0094
00B8
0086
00CC
007E
00C9
0078
0008
008E
0024
008D
0009
002B
0081
00B8
00A1
00A2
0055
00DC
006C
0015
0032
00CC
00C1
0007
0089
0018
0046
0078
00CE
00CD
0009
0000
0019
00C4
0005
00CA
000E
008C
000D
0058
00C9
00B2
0033
006A
00A0
005E
0009
0072
00D5
003C
0039
00D7
0045
0081
007D
0012
0081
00E6
0005
0021
0046
00C2
00B8
0030
0076
0081
0033
001E
0041
0019
00D4
00DE
0083
008E
00B4
0017
0073
002D
0013
0069
009B
005A
00D9
00D6
002A
0059
008B
003D
00E6
0012
00C0
0063
00A2
00EC
00DB
00AE
0072
001C
00B9
005B
00CE
001A
0058
0043
002B
005B
001D
005B
00D5
0091
0027
00ED
0083
0086
00E6
0024
0018
0028
0071
0089
0094
0038
0019
001A
0034
00A7
0000
0099
00EE
00C5
00BA
00DC
00EB
0098
00A7
00A8
006A
00A3
0011
007B
0042
0046
0066
0069
00DC
0025
0076
00E1
00AE
007C
003B
0092
00AA
003D
007E
0015
0051
0026
002E
00BA
00CA
009E
00A4
00B2
0022
00C2
00E6
008B
0060
00A6
0054
00A3
0049
00D1
006C
00E5
004B
0002
0040
00EC
0006
0021
001B
00B1
0020
00BC
0040
0009
00A4
0074
005E
0030
00E9
003B
0021
0091
008E
0025
00E1
00E1
00D7
0041
00DE
007E
0055
007E
000D
0006
0045
00D1
001E
00C3
009B
00E3
00E9
0069
00E0
005A
0061
0018
00B1
0043
0000
003E
0032
00A7
00CC
0035
00A5
0066
007E
0054
0007
0029
00D2
0087
00B5
0036
00E2
001E
00ED
005B
004D
0027
00B0
00DC
0018
007A
002D
0088
004B
0056
0000
0018
0033
0074
005D
0054
005D
00A1
00D3
0017
0074
005D
0055
0083
0083
002E
004E
0077
009D
0048
00A6
0030
00D4
00C2
00A6
005E
00AC
00E5
00BC
008B
0097
006E
00E0
0099
0009
0027
003E
0017
00D6
0050
006B
0075
00AE
00A5
0003
00B5
00E5
0054
00E3
008B
007E
00C1
0031
0017
0041
00B2
0066
004A
00E2
00D1
0010
0009
0085
008B
0033
00A1
00EC
00EC
0074
00A9
009A
0003
0083
0075
0019
0098
003C
0093
00C9
0062
005C
005D
0057
0035
0054
0090
00C7
00E5
0020
0038
00AB
00CE
004A
00D0
0010
00BD
000D
0003
0003
007B
0092
0007
00D2
0017
008A
007C
00A2
00BB
0018
00E3
00C3
00E7
0095
0030
00ED
00AD
0042
005C
000D
0070
007B
00E6
00C3
0059
0052
0031
0013
0095
0090
0092
00CC
0023
0025
00C5
0027
0047
0002
00D0
0031
0096
006D
0064
004B
0027
00C7
00A0
00B9
00B3
0020
00C4
002E
00E7
00E4
0021
007C
0015
006D
0025
0048
0006
005D
000E
00A3
0016
005A
0095
005C
0053
006E
0024
0058
0033
00A9
0033
009C
00D5
005E
003B
0009
00E3
0072
0029
00C6
0084
00A5
00ED
0002
006B
00D9
0079
009D
0084
0002
0092
0001
001C
0087
0060
0056
0010
00D2
000C
0018
00B1
0095
00AC
00E0
007A
00C9
00D2
0014
00CB
0078
00CD
0072
001C
00AC
0099
000A
008D
00A7
004A
0076
00DD
00B5
0053
00EC
001D
0066
001E
0089
00E6
008A
001E
0082
00B4
000D
000B
007A
00C4
0056
00D5
001A
006C
007B
00AC
006E
007E
00A9
00A4
00E5
00AE
0023
0044
0043
00ED
00B8
0058
0029
001B
00B4
0080
0006
001D
0098
0059
0008
00A0
0025
00CA
0071
00B0
00AD
0051
00B6
00BC
0022
006E
0036
00C6
00C3
0020
003D
0070
00CC
0037
001E
00B2
0093
00A4
00A7
001D
006E
0029
0071
0007
0052
00A6
0068
0061
0010
008B
0011
004D
0030
0090
0021
002A
0094
0026
0027
00EB
0087
0052
003D
00B5
00A7
0002
00DA
008B
009D
009A
0047
00E4
00DC
005B
00A4
0008
0089
0067
0082
00D8
001B
0029
007A
00E4
0092
00B0
002E
0096
008A
002D
0060
0015
0098
0032
0002
00E5
003D
0057
00A3
00EA
0095
001D
00D9
00D5
000B
0068
004E
00A5
006A
0087
0004
005B
00ED
00DC
0081
00D1
0089
00ED
0053
003B
0029
0015
00D2
0088
00C1
0097
0089
0090
0070
0053
008D
0091
0044
0086
006D
00A2
0023
0047
0057
0040
00B4
0081
00E4
0039
0067
0086
00C7
0021
00B1
0073
005C
009C
00D7
00C6
007A
0067
00B7
0019
008B
00CC
0019
0027
00EC
006D
0050
00A0
00C9
00A2
00AB
00B6
007A
001C
004A
0008
001D
0077
001A
0095
0038
00E8
0036
00E7
0082
002A
0080
00D1
006E
0077
0060
00B2
0074
002C
00A8
00A8
0024
0070
003C
0021
0013
00C4
0004
0041
000A
00E9
000D
0018
0054
00A3
00A0
00CC
0025
00C7
0036
00A0
0041
0057
0030
000C
0013
0054
0020
0045
00C6
0040
0042
0019
00B7
0086
0051
00D8
00DB
0034
0009
00BD
0028
0003
007C
00C9
0083
00B2
00B7
00A6
005E
0045
0047
006C
004D
0064
00AB
00E6
008E
0056
008D
0031
004A
0048
00E8
009A
00CB
0055
00C8
0020
00DD
00C5
007D
0097
009A
006D
0087
0030
0057
00C7
00E0
00A2
001E
0022
00E8
00C1
0066
0059
003D
0029
00CA
005A
0096
000E
0077
00E4
0083
0004
00EE
009B
008C
00B6
0027
0030
00A3
00D1
00A4
0074
0068
00EE
0099
0056
00C4
00E7
0088
0073
0098
00B2
00A6
00AB
0018
00A3
00E4
0084
0008
0038
00AC
00C8
00A9
00E6
00E2
0062
0069
00B6
00A0
00B2
0014
00DD
00AE
0094
0066
00C6
00AC
00E7
0058
0096
00C9
0027
00E9
0072
0053
0062
0066
0072
00C8
0054
00C7
00E3
0042
00D9
0076
0092
000C
0006
00B3
005D
0041
00EE
0066
00E6
0061
0086
00AC
003D
00B0
00D6
00C5
0061
0088
009C
00C0
00E8
001C
001E
006D
003C
00DB
002E
00C0
001A
0028
00E9
0054
004D
00AB
00E8
004B
00C4
003A
001A
0021
0058
0024
00D3
00D2
0054
0059
0034
0023
00CB
00E5
0098
0088
008A
0029
0086
006C
0034
004E
00B9
00AA
007A
007B
0060
00BD
0088
00AC
00DC
0075
00D3
0071
00C9
0027
001D
00E2
0005
009C
00BE
0047
0052
003B
001B
007E
00EA
0073
00A1
00D1
00DA
000D
008A
000B
005C
004D
00C7
0079
00AA
0025
00DB
0004
009E
006E
0073
0009
0067
0071
005E
001E
008D
0085
00C1
00ED
00E4
0012
00D9
0001
00D5
0076
009C
0010
0090
001D
00D6
0011
0012
00D3
0066
00B3
000A
0093
00B0
001D
008A
003E
009B
00E1
00AC
0078
00A9
00AB
0062
00BD
009B
0085
0017
0011
0076
004C
00A6
007C
0047
00D1
0098
00AA
0051
008A
0085
0046
0005
00CE
00B0
00EA
0047
00C3
0015
005E
00C4
005D
00CE
0078
00C7
008A
00C2
0027
0028
002B
002A
0062
0022
0023
0041
0000
0080
008C
0042
0021
00C3
0057
00E0
00CA
0020
005A
0028
00C1
00D5
0087
008B
0051
0022
0065
002B
003C
0083
0050
0041
0035
0016
000C
00E2
0008
00D6
0092
0059
000D
004C
0058
0040
0064
005C
005E
005A
0035
0011
003B
00B9
0004
0074
000D
0075
00E6
0078
0001
0081
008C
000E
00E3
0065
009D
000A
006E
0004
00DE
00DA
00B1
007D
00E9
0016
0011
00B6
0042
0089
0077
0021
0086
0033
003D
0077
00A1
00C7
00CD
0046
005E
0026
0020
005A
0050
0049
00E7
00C6
00B1
0075
00E9
006D
0099
00E7
00BC
00DA
000C
0026
0099
00E3
0041
006B
0023
005E
0077
00BA
0093
003C
0042
0005
0051
0045
0090
005A
00A5
0061
0061
0013
00D9
0024
004D
0066
00E4
0062
005B
00C9
0090
00A7
0074
00D4
008D
00DA
00EB
0058
000A
00E6
00A5
0023
009A
0039
0055
002D
0057
00C6
0080
007D
00C9
001E
006E
0088
00DB
00D7
0080
00A7
008E
00DD
0037
0032
0051
004E
0090
00AA
00DB
00A4
00A1
009D
009A
0047
0039
0024
006A
0093
007B
0016
0043
00B5
0072
00DD
0016
00B0
004C
0034
0093
001E
00AE
00DC
0082
0058
0060
00B3
005C
007E
0025
004E
0033
000B
0008
00CA
0037
00CC
00A9
00D7
0087
008B
00B0
007E
008C
0072
00CA
005A
00C9
0059
0020
00DE
00AB
00B7
0084
0072
00B4
0023
0000
0008
0066
0066
00A6
0020
0094
00C9
007A
00C5
00C7
004E
004B
0037
0016
0002
0010
00E6
00B2
00B6
0035
0039
00D8
0083
0073
0034
00C5
002B
00DA
007B
00D9
004B
0041
0066
007E
0063
003A
00B7
00AA
0051
00E3
00DE
00B0
0076
0088
00DE
006B
000B
0066
008B
002E
00A5
0041
0020
007D
00A3
0037
000C
0034
002C
00A3
0019
0046
0033
00A6
009D
0058
0023
0039
0058
0022
00D2
0053
0067
0013
0028
00E7
0044
003B
0009
0031
00BB
0070
006A
003C
0060
0062
002B
0085
0014
0098
0050
00AA
00B2
0095
0059
006D
0009
0073
0092
00B0
0051
0046
009D
0095
0006
00BC
0024
00D0
00B0
00A2
0084
0013
0038
0035
0011
00D1
0098
00B5
002E
0080
002C
0034
00E8
00A3
00DB
0075
0071
0040
00EB
0050
004E
0098
00C0
0002
004B
0056
005E
002E
009C
004B
007E
00C6
0054
0069
0037
0017
004A
001B
003C
0009
00BB
00C2
00AE
00CC
004A
00CC
001E
009A
0055
0048
0023
00AE
006D
0019
004B
00A6
0071
0087
00E4
002A
0073
0093
00D0
00B2
0083
00C8
004B
00C1
0062
005C
00D6
007D
00BE
00B5
00A8
0081
0011
00EE
00EB
0081
00AD
0029
00D0
006E
0030
00B5
00D5
0011
0045
0008
00BB
0048
00E6
00C2
0033
0080
006B
004A
00A4
00AD
003E
0037
005B
0024
001D
007E
0096
0058
0013
004B
005A
00B1
0009
006B
0039
007C
0015
0031
00A7
0074
0035
0055
005C
0035
006C
0074
00A3
0057
00E5
004D
0038
007D
0017
004D
0031
0038
0067
0059
00E5
00D4
0045
00AA
0047
00D7
00AC
00DE
007D
00CC
0066
001B
0078
00C6
0033
008E
0007
00A1
0038
0027
0018
00A4
00C0
00C9
005A
00DE
0044
002A
0052
00D9
0008
00B1
0013
0031
0037
0040
0022
0092
00A3
0097
0089
002C
0027
00D3
0003
00EE
00AC
0098
008B
0053
0059
0066
00AA
004B
00DD
001C
00B3
00BD
00CC
00AE
0082
00D2
00DA
00BC
00A9
0049
00D2
00A6
00AC
0040
000C
00D2
003D
00CA
00DD
00D6
009A
00C3
0099
00EA
00E1
00D3
007A
00E1
0017
0086
005E
00AC
00B7
0042
0066
00B2
00A9
00BD
0034
00A2
0013
00EC
007A
00C2
0001
000A
0037
00A7
0013
0010
009B
0088
0028
0036
00E3
0071
003D
0070
0070
0026
0075
001B
00DC
0056
00AC
0033
0048
00EB
0054
000E
0029
0061
0040
009A
007B
007C
000D
00BE
0087
0043
0006
006D
0074
005A
005C
00EE
00D7
00CE
0090
00B8
00A2
0019
005B
0037
00D7
00CA
000D
006A
001B
00CE
0075
0030
006E
0008
00C0
000E
00D9
0016
00B2
00C7
00C5
0065
0005
0009
00CC
0058
0019
0000
00B1
00AB
00A1
0029
006A
00BD
0098
0007
0024
00ED
006E
00CA
0005
0068
0055
0025
0017
00C8
00AE
001B
00B5
0077
0052
0051
00B1
00A2
0026
007A
00B8
0063
0063
0049
0096
00B7
0065
0039
0074
0008
002D
007B
001B
00DE
007B
001C
0080
00A5
00D1
00D5
008D
00D0
00DA
00CE
00EE
00E6
0001
0010
004B
00B8
00BB
0077
0002
009B
008E
003D
0030
0078
0077
008C
0009
000C
0088
0056
0029
0082
0005
0048
002A
0043
0002
0030
002D
007C
0004
0056
00E2
00CE
00B2
0069
0012
00EE
00A8
00A6
0047
00E4
005C
0077
0013
0079
000C
0014
0081
00C0
000D
0041
0083
00AE
0012
005A
0008
003B
00E6
00EB
0041
0065
00B3
00E8
00DD
00AD
00B4
0084
0084
00E0
0088
0040
004B
00DD
0039
00B9
00A1
0047
00E3
0082
00E6
0023
0048
00C7
0006
00D5
000D
00AC
0059
00B0
0023
0018
009B
00E7
0083
004E
0040
00ED
00BA
00ED
0025
00D6
00D9
00CE
0004
0024
0039
0048
0050
0027
00AE
0084
007A
00ED
00E7
0057
00C3
006E
00BA
001E
0057
00CE
0096
00A7
00C9
00CB
004B
0097
00A3
0003
008B
0085
0035
008A
002B
0019
0058
009D
006B
00C6
0027
00CA
00A8
0049
008A
0061
0029
004D
0058
0096
0072
007B
00AB
00E1
0029
0062
000E
006E
009A
00B2
00C4
00E5
0065
0015
00C3
0049
0033
00C3
0078
000C
0056
0078
0052
009D
0076
0028
0067
0082
00C0
009B
0059
00CA
0050
00B7
0082
0005
0003
00E6
0055
00B8
0005
0073
0083
001E
007B
0023
00D8
003C
00C7
0004
0036
000B
00DB
009D
0032
00D0
00C0
007C
0018
0074
009D
00CD
000B
00CC
0028
00A5
0030
00D6
0079
00E8
0060
0055
0057
0053
00CC
000D
008D
000E
00C2
008A
005D
00DB
007C
0027
0040
00A3
004E
009D
006A
00AE
0017
0070
0026
0053
0081
005C
0094
00E5
00B8
00A5
001D
00A7
0078
00A7
004C
008E
0036
0026
0078
0063
0012
0013
001E
006B
0009
00A0
00A4
00CA
003B
0074
00D8
002C
000E
00D1
0017
00CA
00E0
0042
00BC
00CC
0058
00A2
0018
00A2
00BA
0045
00DD
0056
007E
0012
00E1
0035
007A
001D
0036
0066
0042
009C
0076
000B
00E6
0019
00E5
004A
004D
003C
0016
007C
009C
0024
0082
0016
0076
00AC
00DE
00B5
0048
0059
000B
0084
00BC
0088
0023
005D
0078
0052
0043
009E
0068
0031
00C8
00E6
00AC
0090
00C6
00CE
00A1
008C
0028
00BB
00B2
0012
0053
00D4
008B
00E6
0064
006A
008B
0015
0052
0050
0008
00A3
003C
00A1
0040
0044
00A1
0054
0046
00BB
0061
001D
0004
0049
0065
0063
00D1
0032
0031
006A
0033
0038
00AE
00C6
009D
00A9
00AD
00BD
0084
0093
00C7
009A
0028
00A5
0019
00ED
00BD
0068
0080
0021
00C4
0044
00C1
003B
0024
004E
00D9
0064
0087
007A
00E0
0098
0028
0018
005E
002A
0000
00A2
00E9
00D2
0048
0031
008C
00E9
00D0
00C0
003D
0081
0031
008B
005A
0080
00EA
00D9
0071
0026
006A
0032
0094
00B9
00D4
0032
003D
0041
00A5
004D
0042
0046
0073
00D0
000D
0090
00C4
003D
0013
005E
001A
00B5
0070
00BD
0071
00EC
00C6
0091
0012
006C
0005
0048
00B1
009B
00C3
0088
001D
00E1
00DC
0096
0091
009D
0009
00CB
00A9
006B
00C9
009E
0000
00E8
0008
0038
002D
0085
0098
0083
0034
00AB
0088
0033
0059
0016
0050
00E5
0042
0008
00A8
00A0
0043
0077
0054
000C
008A
005D
000A
00D9
00AE
0079
003A
00CE
0063
0093
00EC
00C1
00DA
00A8
006C
00EB
008B
0045
0081
00D0
0065
004E
0097
00E8
00CD
0051
0015
00E5
002C
0095
00E6
00AD
0031
00B4
007E
00CE
009A
0047
00DD
0034
001A
00C1
00C3
00B0
0056
000A
0020
0042
00A1
00CE
00D5
0084
00E5
00C5
002D
00A6
0038
0094
00EE
0063
008C
0081
001A
003D
003B
0034
0058
0037
0025
006D
0086
00A5
0019
002C
0020
000D
0086
003E
0018
006B
0010
00B0
003D
0048
00B9
00C9
0049
0050
00B7
0082
00BD
007D
0027
00AD
0052
0056
001B
0015
008D
00A6
0099
0022
0094
006C
0053
0078
0039
00C6
001D
0037
00E2
001C
002E
00BE
00E1
0089
00B6
00DB
0068
006C
0089
0055
00C0
0068
0002
0015
003A
007A
007E
0028
00E0
0019
0061
001B
0064
0024
0094
001E
00AA
002E
0002
00E6
003A
00E1
0065
00C0
0080
00E4
00C1
006C
006D
0086
00DD
003E
007A
00AE
0003
00EE
00D2
00BD
0045
0033
00A1
0001
0028
00C3
0096
0069
00A4
0033
005E
009E
000C
00BA
00E2
0011
00B9
007B
00B0
00EB
00CE
0097
00EE
001E
00E4
0049
00E7
00C6
0019
0011
004A
0094
00B7
0043
00E6
009C
00AE
005A
0077
00A6
0017
004C
0023
001A
0043
0019
0001
0024
0043
0008
003E
001D
006C
00A1
00A4
0066
00ED
0087
0076
0035
0076
0090
00C6
004A
0079
000E
0046
00C6
00CE
00E8
0045
002C
00BA
00A1
004D
003B
009E
0026
0013
00A9
00BB
00B6
0065
0013
001B
0087
0001
0013
0037
0031
0045
0006
00ED
002D
00A4
0045
0055
00AC
0098
009D
003C
00A9
00D8
0043
0010
00BA
00B4
00D0
00B6
00EC
0081
0049
0093
00DC
00DD
00C2
00E5
00B0
009C
0038
00C2
004C
00CC
00DD
0078
0037
008D
0037
0070
00E6
00DE
0035
0085
0043
0027
0049
00E9
0024
007D
008E
00E7
005B
00AA
001A
0065
0099
0090
0062
00BC
0094
0081
0092
0058
0066
00D5
005C
00B1
00D6
00D2
00DB
005A
00B2
005A
00D4
00E3
006A
0088
0047
0080
0074
0053
0004
00E1
0002
00D8
00E7
0074
0058
00A4
00A9
00D7
0052
007D
0076
005D
00CC
00B9
0062
008C
0076
0079
0030
0007
00A4
001A
0097
00CB
00EB
006C
0098
0097
00A7
0022
0023
0004
0093
0003
00A8
001B
00EB
00D9
00D8
0016
000A
00D4
00D3
0056
004E
002C
007C
00DE
00DA
00E5
00CC
0073
008D
0066
00DA
001B
00D4
0031
00E3
00CA
0081
00D2
0062
006D
0066
0074
0057
00DC
00E4
0069
004C
00AC
0089
00C0
00B1
00CE
0031
0045
0096
005E
0069
0048
000D
00C5
004A
0064
008B
007A
0009
0017
0001
00C6
0048
0019
0074
00D2
0037
0028
00A6
006A
0012
0018
00A9
0030
00D2
003A
00D0
00CD
008A
0057
0002
008D
00D1
0049
0064
00E0
0057
0025
00C3
0034
0062
00D7
0019
00DE
0050
00C5
0031
0021
00A4
00B3
0090
00E2
0037
0008
0072
0088
00CC
0014
00EC
00D3
0086
00CB
0013
00C8
009B
007E
00C3
0073
0038
00B1
00C8
0029
0036
00E4
00B7
0003
0025
0083
00B3
00EC
0037
0051
005D
009C
004E
00CA
00D4
00DD
00EE
0076
0044
001C
0053
0051
001B
0006
0084
009C
008C
007B
00B6
0061
004C
0065
00A1
00D4
0055
0081
00B9
00BC
0046
0033
007B
00B3
0000
0000
00D2
00C1
00A1
0001
0051
002A
0061
003E
0008
00BC
003E
00A5
00B9
0040
006D
00A3
0068
0089
0081
0066
00A7
0046
0005
0088
000A
006E
0091
00A0
0072
0062
00DE
0058
0021
0071
0061
005D
000D
00DB
007D
006A
00E7
0097
006C
0077
0090
0089
00B8
000A
0005
0073
00CB
00DD
00E5
00C7
00E8
0011
00B7
0082
00B0
00B8
004D
00A8
005B
002B
000C
00D4
0038
00DE
009D
005E
0064
0081
0098
0059
00DC
0082
007A
00BC
00C4
0086
0003
00B1
00C1
0007
005E
0041
008B
0069
002D
0069
004B
00E8
00E9
0013
008C
0026
0020
00E3
00A5
000A
00BE
008C
0049
00DA
0055
0077
0029
0073
00E8
00CE
00AB
0021
003E
009D
00E8
006D
00E2
00A4
0061
00D4
0043
00B4
001C
0019
001D
004B
00AE
00D6
0021
0035
00E6
009B
003D
006C
0063
00AE
00E1
00BA
00C6
0011
0087
00AD
00C6
0064
0017
00AE
0079
0037
0087
005B
009A
00BB
00BD
00E8
0014
003D
00D7
0025
006E
0070
00BB
0000
00D6
00AD
0034
00ED
00A0
002C
006E
00E0
00CC
00C4
0030
00CE
0021
00C0
0061
00D8
000E
008B
0064
0033
00B4
0038
0089
00A3
009D
0027
0049
00ED
006C
0012
001E
00B0
0001
00C2
00BA
00A8
00C2
0064
0011
0063
0005
006E
0000
00A5
0067
00A2
0073
0035
00C8
001B
001B
008A
00EE
0060
00C0
0061
0071
0076
0099
0046
0040
0003
0097
00C2
0052
0090
008E
009B
00B1
001E
0002
0045
00C7
0030
008A
0096
006A
0092
002C
0045
0012
00C5
00A4
0090
0006
0023
0048
00ED
000E
0005
00CB
005B
00C7
00EB
0001
0027
0015
00BB
00C6
005E
0053
0027
00CB
0069
00C7
009E
005A
0057
00A0
00BD
0027
0034
00C9
00DD
0050
0064
0014
00BC
009E
0000
003E
0062
0022
00EB
0011
008C
0080
0043
00ED
00E5
003D
001A
0005
00A7
0057
0082
0024
0092
0006
00CD
006D
0017
0033
0059
000C
008B
0069
00A8
0046
0087
0037
007E
00A8
0055
00A9
002E
0093
0090
0005
006A
00E6
0028
0083
004A
0046
0055
005E
00E7
000E
0090
0090
0085
009D
00C0
00E7
0005
0021
001E
00B6
00B2
00CC
0054
0033
00EA
001D
0016
002B
0047
0084
0086
00AC
004D
00A6
00CB
00EA
0012
001B
002E
0040
0021
0085
00CE
0022
0071
00C7
00E8
0042
0031
0001
0024
0007
0042
0050
0042
005E
00A7
004B
0075
00DE
003B
00C0
0032
0053
006A
00A6
0075
005B
005E
00C7
00C2
00E8
0098
005B
0006
00B2
005C
0079
0024
009C
00C4
0099
00CD
0044
00AD
0047
0019
005B
00DD
0066
006E
0034
0069
002A
003E
0064
008B
0092
0084
0036
00E8
0098
0016
0009
0070
0087
002A
002B
0042
0038
0088
009C
00B0
0085
0097
0019
002C
00AC
00A2
0037
00CD
0048
00A4
00D9
008E
0081
00A6
00C8
0092
0058
00E8
00EC
0042
0004
00D0
0001
00E9
003A
002C
0064
0062
0097
005A
00B6
00A6
0002
00E6
006D
0014
00B4
00C0
0038
0061
00E7
0058
00DD
009C
008B
0085
00BD
00BE
0001
0077
008C
00A2
009A
0080
0090
005D
0095
0055
009A
00D3
005E
0064
002A
0064
00C0
0030
008D
00DB
0018
009D
0000
007D
00E0
0077
00DB
00AB
00D1
0029
0008
0067
0088
00A4
00E5
0013
0090
004E
00E0
005B
00BC
0079
0061
0031
004B
004E
0050
0068
00B7
0015
00CA
002E
0044
007C
00B0
0072
00B4
0038
00D5
0050
0012
0088
004B
0072
0050
0023
00B7
00D6
0029
0017
00B2
000D
00EA
0019
0062
0012
00C9
0025
009B
009C
0006
00B6
00CA
00A2
00B9
0096
00AB
0027
005D
00B4
006E
0089
00DE
00BD
0055
00DD
0093
0027
00AA
00C4
007A
0005
00D6
00C6
005E
00A2
00D1
0007
007E
00EB
00EC
0078
00A4
0057
0026
0089
00DE
0014
0033
004B
0061
0040
009D
0036
0036
00CC
00E7
00E3
007B
00BE
008C
0036
001D
0065
00E5
001C
0043
0069
00DB
0033
002E
00CA
003C
0083
0068
0061
0038
00CB
0044
0078
0085
002B
00E0
00E5
0007
009A
00D8
0093
0007
00E4
00A1
00EA
00DD
00D8
000D
00C1
00E6
00EE
0069
00C7
00B0
0008
0073
0060
008B
00D7
0096
009A
00D2
006A
0053
00A3
0049
0010
0028
004A
0081
0057
000C
0014
004D
0045
009A
005B
0041
005A
0006
00BE
0050
0035
00E9
0089
0071
00C8
00BA
0092
006C
00C9
0039
00C7
004D
0021
00D0
00CA
00C5
0031
0006
0077
0059
0097
005B
0086
005E
008E
00DC
00B1
0043
0027
00A3
004B
006C
00C6
0088
00BA
0085
00E0
004B
00D3
0077
0089
0057
0039
007D
0056
0022
0094
0047
00E7
0040
00D5
008C
0034
0054
0064
007B
0035
0080
009C
007D
0089
0059
00A6
00EA
008A
001A
00D3
008E
004A
0044
0061
003C
0054
008C
0073
0025
00DE
00CE
0025
0039
0069
0063
00BB
0006
00B6
00AA
00A2
007E
00CB
001B
0097
0037
0046
00D8
00C2
00E9
00A1
005C
0033
0040
009B
004D
0098
00ED
0077
0096
0011
0018
0021
00CD
00E7
004A
0038
00B9
0017
0067
0046
0073
002B
00C0
0070
000C
00D4
0078
0043
00BB
0010
0030
005A
0035
0069
0057
00C9
00DB
0087
0056
0007
00A4
001D
0091
0012
00E9
00C2
0094
00D2
00D8
0082
008C
0016
0022
00A1
006C
00BC
00C4
003E
0094
003C
0076
00D5
0062
005B
00CB
0060
0009
005B
0098
0064
0098
00B6
00BB
007B
0041
008B
0042
0093
001C
00CB
0078
0077
008C
008B
00C9
0084
0065
002E
002E
0031
00A2
00C5
0056
004C
00BB
0017
005B
007B
002C
001D
00C8
00D9
00B4
0067
0025
0045
004E
00BA
005C
007E
0019
00C1
009D
00BD
00BE
0081
00B3
0094
00A4
007D
005C
0030
0017
00C1
004E
00C9
0021
00AE
00B8
005C
0036
0009
00EE
00BC
009B
0067
009D
0023
00DE
005E
003B
0089
00A6
008D
00A1
00C3
0020
0036
005B
0062
007D
00B7
000A
0029
004C
0066
0081
00DA
0099
00C6
008D
00C2
0041
000C
009D
0082
00A1
0065
0041
00C4
00C4
006B
0044
002A
0006
00CA
002A
009C
001B
0077
00C9
00BD
0018
0059
004A
002E
00D7
0040
0023
0070
00D3
00D9
0049
0055
0016
0083
006E
00B7
008B
005E
00CD
0013
00B4
0098
0034
00A7
009A
0024
004C
005A
0086
008B
003C
0000
002E
006E
003C
00BD
0095
0066
00A1
002C
0004
0044
000A
0045
0092
0073
0080
0043
00C5
00E7
00CD
003E
0006
00D0
00C1
0012
0088
005C
006C
00A0
00BE
001C
00C3
0088
0064
0067
0088
000A
0014
0061
008E
004A
0061
00DB
00D0
00A9
008A
007D
0094
0048
00E8
0088
0024
00EE
00C9
0059
0060
000E
00D2
00E2
00ED
00A0
0039
007C
005C
0047
0011
005D
0059
00E0
002A
0075
0061
00A0
000D
00E1
0096
009E
0020
00CB
0036
00AB
00C3
00A9
007D
0066
00B7
0003
002C
0000
00CE
00EA
00C8
0019
0045
0044
00CC
0036
007E
00A7
0051
0047
0047
0050
00EB
00D9
009C
0001
00B2
0012
0019
0062
008B
00C5
007D
0088
0026
0041
00A1
0093
0007
0031
00EC
00E6
0050
00C1
004E
00EE
0035
0024
00DC
00C5
001D
003C
0049
007B
00C6
00A9
002A
0041
0032
00D1
00E2
00C8
00B8
005E
0060
006B
0023
008E
004C
0087
0027
0074
0008
0041
00A6
0083
0090
0025
0035
0042
0085
0051
0051
006B
00EA
00AC
00C5
00BC
0074
0094
002C
00E8
002E
006C
0023
002D
0039
00D2
00A8
0028
00AE
00A8
00A5
0018
00BA
009E
00DC
0071
00CA
0092
0017
0053
00C3
0024
0001
00E0
0091
0032
009D
0092
00DB
0055
0026
007C
006E
005A
0020
0051
00B5
006C
0029
0036
0037
00E1
0062
00EA
004E
00CD
00EA
0031
0095
00BB
0052
0014
0042
007A
00D8
0005
00D8
0074
000B
00CE
00B5
00EB
0075
000E
00B8
008D
00DE
0005
0087
0092
00B7
0098
00ED
00A7
003E
0038
000A
005D
00EC
0032
00D7
003C
0051
003A
0021
00C4
0053
0099
0099
002A
00E4
00AB
0013
0068
0034
00B8
00CE
00BE
0099
002E
0075
0069
003E
00B8
003A
000A
0007
00C6
0012
00DB
00D0
00A2
0081
0077
000C
0073
00E0
0035
0085
0067
0021
00D0
003A
004A
00C6
0097
0004
000B
0074
0077
0068
00A8
0021
002A
002B
009A
0095
00B5
005D
00CE
00B8
0024
0010
0083
0085
0087
007A
0024
0093
00D0
0096
0079
0084
0062
00B2
0002
00E7
00B9
00DD
007A
005A
00A5
00E0
0071
00AA
0021
0004
00CC
002A
0055
0030
0020
0090
00E7
00D5
00D5
0099
00CA
004D
0076
007C
007C
0003
003E
00E0
007D
00BE
00AB
005E
00E5
0046
007B
0004
00B9
00C0
0040
0019
002D
003B
0034
005D
004C
0036
0001
00A7
0035
008E
004C
004A
009E
006C
00CE
0030
00A3
0036
0088
0010
0020
00CD
0002
00A5
00D9
0065
0066
0059
00DC
009E
00A2
00EB
0043
008C
00C3
001E
0087
00EB
0015
00B3
006B
00D7
002E
00B6
00BA
0041
00AA
0076
006D
009C
0024
00DA
00D3
0041
00E6
0046
00E1
0002
0060
0015
009E
00C7
00C4
00C4
0027
0089
00A4
0009
0084
00E3
001E
0057
00AC
00C2
001C
00E0
0062
00E0
0092
0040
00B1
0048
004E
0017
00B5
0049
00A4
006D
00EA
0062
003C
00DD
00A6
00CE
007B
0084
0084
00EB
00AC
000D
0023
0098
0052
00E9
00CC
0003
0068
0024
001E
0054
009E
0024
00C3
0078
004A
0061
00B5
003B
0044
0051
0033
0026
00AA
007D
005A
00CA
00A0
0089
0013
00D0
0018
00AA
0068
0048
00CE
0062
0038
0074
00D6
009B
0035
0089
0009
0034
00AD
0067
0082
0051
0051
002A
0076
00EC
0018
0069
0051
0087
0041
00A7
0083
002D
00A6
001E
0036
0078
00E4
00D6
00B6
0093
007B
0016
0020
00A8
0098
005D
005D
002C
00B0
008B
003E
0034
00E1
00C7
0094
0020
00DC
002C
00C4
00C2
00D9
006B
00BE
001E
0096
00A9
00C6
00C6
0010
0017
0047
00EC
00DA
0086
008A
00CC
0030
0013
009E
00AB
00C6
0097
0038
0010
007A
0050
00CA
00BC
0043
006A
008B
00B7
00BB
0086
00EE
004D
00A5
006E
00E9
009A
0032
0039
0094
003E
0055
0062
006E
0024
00C5
00B3
005C
00CB
00C5
004E
00B9
0011
0045
00C3
003D
009E
0034
0018
002E
007A
005C
00B0
0081
0044
009A
00BB
00C4
00C0
00D5
00A1
0024
0056
0099
00B8
00E1
009C
0009
0036
00A7
0075
0093
005E
0078
00D2
00B4
0056
005E
0033
00A5
00E6
00BE
00A9
007B
0019
0006
000B
005A
008D
00BA
0093
0046
00DB
0008
00CA
00B8
0025
0028
0069
00C0
003C
00D6
00C8
001E
006D
0035
005D
0096
005B
00C5
007A
0002
0093
005A
0024
0065
0008
00D4
0095
002B
008A
00E7
0099
007E
0016
0011
0005
00B8
0071
0002
009A
0041
0090
0097
00B9
0023
001E
008D
00E5
0043
0057
0088
00B5
00E7
00CA
007C
006A
00E4
0024
00C8
00B5
0064
00BE
0035
00B9
00BD
0027
0083
0012
0068
002B
00CD
00EA
008D
00B3
0043
0082
0048
00C7
0009
00D1
003C
00EB
007B
00AB
0010
0045
0036
0028
00B6
0027
0017
00A5
0022
00A7
0045
00AE
00EE
00B4
00DE
002B
00E5
0046
00D2
0020
00BD
0034
00BE
0083
0052
00AD
0076
006B
00A4
008A
00BE
00BC
0020
00DE
00EE
00BC
00E4
0053
002C
00BB
00D9
0067
0084
002B
0095
00C3
0051
0032
005A
00B9
0018
0009
0035
0006
0070
0095
0017
00E4
00BE
0031
006C
0029
001E
00B1
00D0
0006
00BC
003D
00C2
0061
0037
007C
00E6
0041
00C9
0043
00CD
0017
00B7
001C
004D
0058
0038
003D
00CE
0075
00E6
0081
00A8
00E4
0042
007D
00DD
0086
0020
002E
009D
00CB
0024
00B8
0065
004C
0096
0035
00EC
00C5
002E
003D
0083
00CB
009B
0068
00D4
0099
00CD
00D8
0026
0034
000A
0082
0087
002C
004B
004B
00EC
008E
0074
004E
001B
00B8
00E7
0001
00EC
0003
00A7
003B
0087
00A1
0042
00D8
00DC
000A
005B
005A
0018
00DE
005C
007C
0040
000D
0087
0087
00BA
0028
0098
0030
004B
0040
0017
001D
0057
000C
0098
0071
00E7
009D
009A
0029
00CD
0034
009B
0039
00E2
00B2
005C
0075
0064
004E
0035
00BC
004B
0033
008D
0081
0077
00B5
0034
0078
000C
00C3
00E0
00DA
007E
00D3
00A0
001A
00BA
0018
0029
00C3
0061
009C
0020
006C
0040
00EA
0022
0063
005E
0003
007D
004A
0029
00B9
00E0
008D
003C
00C1
0004
005E
00DC
003B
0043
00E3
000D
00CA
0027
0031
0055
00A9
00AD
0093
00BD
0065
00D0
004E
00D7
00B2
00BB
008A
0040
004E
00ED
00EB
0073
0018
001D
001E
0081
008E
0066
0084
00C8
0052
0026
0085
009D
0026
005E
0040
0026
009C
0053
007E
0055
007C
004B
0022
0049
00C3
00BA
00D7
00C0
0039
0008
00E6
00B4
00ED
00DE
00E4
00E7
00A3
00A0
0083
00E4
00B3
