040E
0608
0008
030B
0303
0006
0805
0B0D
0B0D
0C00
0303
0301
0B0D
050A
0E0D
0803
0901
0C02
0203
0100
0A09
0D05
0403
0C06
020B
0408
0C07
0A01
0E0C
070A
0B0D
0E05
0A04
0107
0C0B
0908
0105
000D
030A
0203
090C
0B02
0A01
0B03
0506
0107
0602
0D0D
0205
0309
020A
0C0A
080E
010D
0509
0B0A
0104
0C05
0309
0704
0602
000D
010B
0605
0C0D
0805
0D04
0609
0200
0604
060A
0D08
020B
0600
0E04
0701
0703
0002
0C04
0009
0305
0006
0605
0902
0405
0909
0E0A
0603
0800
0E08
0102
020E
0503
0A0D
0C00
000A
0507
0404
0A00
0C02
0104
0202
0708
0E02
0600
0103
0909
0000
0308
0109
0000
0D00
030A
080E
0B05
0A07
0C04
0504
0107
0202
0B06
0B0A
050C
0108
0801
0803
0205
0103
090B
040C
0303
070B
050D
0904
0E07
0E09
0A0C
0E0B
0605
0305
0B07
0408
0804
000B
0609
0D05
0804
0300
0409
060D
0805
0B0A
0505
090E
0709
0C00
0909
0A04
0A0A
030A
0800
0807
0D00
0506
0D03
0102
0C0E
0701
020B
0800
0E03
0705
0D01
0C05
040B
0305
0103
0407
0801
0D09
0B08
060D
0304
0708
0403
080B
0C07
070C
000B
000D
0608
060A
0301
0405
0901
0A00
0901
0308
0905
0A09
0D02
0206
0D05
0706
0701
0D0D
0B07
0603
0E0C
0009
0202
0207
0D08
0000
0003
000A
0908
0208
0303
0702
0602
0B05
0704
010D
0A09
0E04
040D
0E06
010E
0700
0D05
040D
0309
0606
0803
040D
0609
090B
0E0E
0201
0802
0A05
0207
0D04
0E00
0003
0D0B
0700
0D0E
0C0E
070E
0606
0409
0A05
0909
030B
0A09
0506
0C0E
0603
0A06
0107
0A09
0B0C
0702
0A02
0802
000A
060C
0507
040D
0D0E
0E0D
020E
0C00
0808
0602
0102
0E05
0E09
0704
0306
000A
070D
0704
0905
0A01
050A
0006
010C
0D00
0E01
0407
0604
0501
0E0E
050B
040A
030A
0808
0D03
0E0A
0401
0205
030E
090D
0B0E
050E
0203
0306
0E09
020B
0000
0B0A
040B
0B0B
0804
010A
000B
0609
0D09
0302
0300
0D03
0607
0807
070A
0B0D
0103
0E09
0807
090C
0601
0809
090E
0B0B
0C07
020D
0C09
0D02
000E
0807
0C06
0105
0908
0903
0A01
0107
0A0C
0900
020C
0804
0B05
0507
0608
0101
0403
0208
0B01
0E0B
000D
0309
0406
0D05
0808
070B
0603
0202
0D02
000A
0E09
0E0A
0B05
0B09
0008
060A
0C03
060A
0000
020D
0700
020C
0D08
0602
0903
0806
0C03
0907
0B0D
0905
0901
0302
0C02
0100
0301
0D0A
000B
0A0A
080C
0109
0901
0204
0701
010D
040B
0205
0605
0703
000C
030B
0303
040D
0B0C
0903
0C06
0307
010E
0E05
0D01
0709
0D08
0A09
0003
0006
0008
0508
080C
030E
050E
0406
020B
000B
0B04
0000
0C08
0E09
090A
0304
0100
0404
0703
040A
0B0E
0D02
0400
020E
0802
0208
0302
0C09
0D0D
060C
0708
0303
0D05
0509
0B04
060E
090D
090A
0205
090D
0A05
0C04
0B03
0A09
0704
090C
0A07
040E
060D
0B0D
0409
0501
0407
0807
0007
0B0E
0509
090E
0B04
060A
0206
0602
0600
0A08
0B06
0E01
0C02
010A
0504
0A04
0704
0E09
0D0C
080C
0306
0D09
0503
0108
0607
0C0E
0D0C
0901
0707
0105
0703
0B05
0E0E
0506
0905
000A
090B
0700
0607
0109
030D
0C01
0C02
050B
0C0A
0E08
030C
0A0B
030A
0902
0C01
0D07
0907
0E00
0001
030E
0603
0D08
0100
0801
010D
030B
0A08
0603
0805
0609
0204
0500
0507
0A01
0203
0C0E
0B0B
0009
0B0E
0502
0109
090C
030B
0100
050A
0702
0B0D
0402
000E
0C0C
0406
070D
0904
0102
0A0A
010B
0202
050A
0B09
0804
0B0A
0C01
0304
0D00
080A
0D06
0108
010D
0009
0A09
070D
000A
0B05
0A02
0D04
0B0C
050A
0404
0208
080C
0D0D
0807
060A
030A
010B
090C
0708
090A
000D
0B09
0002
0300
0606
0207
0103
0E0A
080E
0004
0C0C
0E00
070E
0607
0206
050C
070D
0E08
060E
0A03
0309
0C09
0E0D
0C02
040C
0D0A
0C0C
0E0B
0206
020C
0007
0600
0600
0309
0400
060D
0B0D
0102
0B06
0E05
0408
0C04
0409
0209
030A
0007
0902
0B04
090E
0D03
0004
0502
0709
0706
0506
0508
0006
0D02
0001
0504
0409
0600
0004
0002
0B0E
0705
0007
0C0E
080B
020B
0602
0806
000D
0D08
0C08
0008
0D07
0405
060C
0904
0E04
0A04
0808
0300
0805
0207
0608
0800
0C06
030D
0102
0307
0A00
0600
0E01
0E05
0705
0B08
020C
0906
010B
040C
0A0B
0A0E
0B0E
0C02
0404
0B0A
060D
0E03
0B08
0B06
0406
0708
030A
0209
0A03
0109
0103
030E
0200
0406
0606
0506
0006
0609
0908
020D
0401
0204
060A
0102
0900
0000
0E05
0200
0B02
0C0B
0C0D
070C
0609
0906
0606
010C
0908
040B
060C
0404
0C0B
0C07
0E07
0A03
030B
0E07
0507
0508
0C04
0A03
080A
0407
0C0B
070C
0901
040E
0503
000A
0600
0107
0007
0206
0A06
0609
040C
070B
0209
0801
0D0C
0301
060E
0807
0907
0A09
0C05
0609
020D
0109
0A02
0708
0908
030A
0804
0B0E
000A
0E09
040C
090E
0604
0D09
0C04
0306
0107
070E
0A06
0409
000A
0705
0604
0204
0E0E
0809
0905
0301
010E
0B07
0806
0008
0D08
0309
0D00
000E
0E0A
0207
010D
0B08
0709
0E0B
020D
0E05
0407
0803
0E06
0D07
0705
050A
090C
0C00
0D05
0907
050B
0807
0C0C
0C0D
0005
0400
0000
0507
040B
0D05
0002
0A03
0403
0A0C
0B06
0A0B
0405
0C0D
0005
050A
0C04
020B
0409
050A
0D0B
0C0D
0805
0D05
0701
0808
0A00
0A00
0909
0B0D
0009
040A
0708
0A0C
0D0E
0808
0E0B
0104
0C00
0801
0407
0B0B
0D07
0A0C
0407
0001
0C05
080B
0202
0106
0304
0107
0307
0000
0406
0201
0106
0500
0905
0503
0E0C
0D09
0D0B
0402
080D
0E01
050A
0A06
0309
010E
0709
0D02
0E01
090C
010B
080B
000B
0105
000B
0300
0500
060A
0E0B
0806
0503
0B0E
0A04
070B
0D09
0609
020C
0304
0C01
0C01
0902
030D
0D08
030D
0902
0801
0C05
0B0D
0304
0701
0D07
0B01
0404
0101
0203
070D
0902
0507
0A0E
050E
0C0A
010E
0B04
0806
0D06
0104
0808
0D0B
0107
0000
0607
050A
0D09
0C01
030E
0A0C
000D
0606
0409
0404
0E04
0007
0703
0307
0500
0708
0003
060D
0A05
010D
0004
0803
0905
0204
0A08
0D00
0E0D
0B09
0202
080B
0007
0A00
0503
050E
0A03
0605
030E
0403
0708
0307
0603
0D05
0306
0E0E
0005
0904
010C
030A
0304
0007
0E07
050D
0D09
0A09
0208
0604
0304
0904
0908
0508
0E08
0001
0C0E
0607
0A02
0D0A
0C0A
0C09
0D0B
050A
0505
0C05
0206
0E09
080B
030E
0D0B
0E03
080E
0006
0200
000A
070D
0C03
030B
0C0A
0B06
0701
0806
0B0B
020D
0400
0601
0407
0E04
0E05
0D06
0D0B
020E
0A0A
0B0C
0101
0402
0307
0003
0501
050D
0802
0506
0C00
0404
020A
0409
0609
0405
0806
020E
0104
000D
030A
060E
0C0D
0D07
020C
0002
0704
0703
040E
0A0B
0407
090B
0A00
0A01
0B02
0406
0300
0607
010A
0803
050E
0C05
0B00
060D
0A0C
0307
0C05
0508
0E02
090B
0607
000C
010E
090D
0403
040B
070E
0C0B
0100
0101
0D0D
0702
0202
0C03
0D04
0B09
0303
0A03
0606
0E01
0807
0C04
000A
020D
0506
090C
0E02
0B09
0105
0B04
0201
0D04
0B04
0400
0E0C
0E04
040E
0D02
030E
0803
0209
0102
0C0E
0C01
0900
0808
0E05
000B
0A06
0401
0E00
0B03
0302
0607
030C
0108
0C06
0D0B
010E
0500
0A0E
0607
050D
0004
0602
0C0E
0A08
0307
0C0A
0903
0502
0E0B
0B0C
0508
0902
0005
030C
0100
0504
0504
0703
090C
0401
0A0E
0607
0E0A
0409
0807
0806
0201
0A0B
0702
0806
0701
0D09
060A
0904
0A01
0007
0509
060E
0003
0606
0C04
0D04
0B09
0A00
0D08
070B
010C
0906
0808
0C06
020E
080B
0905
0D00
070D
0D0A
0709
0000
0A02
060D
0404
080D
0D08
020E
0207
090D
0C07
0009
0C07
0808
080C
050E
0A06
0D02
0C05
040E
0D0A
0807
0803
0107
0405
0B08
0205
070D
0909
0700
0708
0608
0E05
0205
0B0A
0E00
0B0E
0A0A
080C
0700
0403
0701
040E
0C03
0203
030E
070E
0500
010A
020A
0002
0C01
0202
020E
0205
0505
0A06
0401
050C
0209
020C
0406
0903
0301
060B
0802
0305
0502
0E0D
0102
0B08
0A00
000B
0006
0701
0B00
0106
0405
0D07
0B08
0501
0709
020C
080B
0B0B
0007
0609
020D
020E
0C03
0B07
070E
0708
0A05
0004
0D00
0502
050E
0D00
0908
0900
0605
0607
0B05
0A01
0702
020B
040C
0707
0D0A
0B01
0702
020B
0004
0200
010D
0900
070A
0909
0A08
0B07
070E
0E0A
080E
0B0A
0D02
090C
0C08
020D
0407
0D06
0E06
0007
030D
020C
0303
0808
0609
0709
0E0D
0D05
0D07
0009
0C03
0D0C
040A
0803
0D01
0B09
0308
0800
0900
0604
0A01
0B0E
000C
0903
0108
0E0D
0800
0903
0501
0402
020A
0C0C
0B06
0A0B
0006
0602
0904
000B
0C07
0C01
0208
0300
0C08
0206
0A00
0C0B
0B08
070D
0C0A
0600
000D
0801
0708
0206
0108
0D07
0401
0E04
060E
0D07
020A
0E0E
0906
080A
0705
020A
000D
0406
0804
0105
0501
010B
0A0D
0B0D
0403
0307
0307
0907
0501
0C00
0808
0703
0602
0902
060A
0B0C
0E0C
0E04
0C09
0D03
0001
0302
040B
0C08
0C03
040B
0B0C
0609
0800
0203
0A06
0D01
0901
0A01
0E06
0E00
0D02
0009
0900
0E08
0507
0C07
0505
0003
0501
040D
0A00
0402
0B06
0601
050C
0A00
050C
0509
0A03
0A02
0303
0609
0606
0B0E
0006
0D0A
0B07
0E02
0E09
0C01
070E
0602
010A
070D
0C02
0E04
0800
060B
0902
060C
0B0D
0E09
0C00
0A05
0B08
0D0C
0504
0D07
070C
0605
0501
0104
0A06
0C08
070E
0A03
070E
080E
0A02
0A05
080B
010C
010E
020A
0906
0806
070A
0904
0604
0E0E
0107
0D04
0D00
0E0D
040B
0500
0004
0206
0E03
030C
000B
0703
090E
0506
010B
0505
0607
0607
0702
0601
0606
0501
0202
0D01
040A
0602
0A06
0E08
000A
0706
0604
0703
090D
0408
040A
0106
0102
020D
0202
0A01
0809
0A02
0401
0B0A
080B
0A08
080D
0D0E
0D02
0802
0E03
0E0D
070E
0900
0301
0208
0A0B
0102
030B
040E
0200
070D
030E
0D09
0C02
010D
0003
0501
0E09
0D02
0004
0A05
0D07
0209
0009
050E
0D00
0B0B
030A
0703
0000
0B09
0901
0707
0A0E
0501
0A06
0209
0701
0905
0806
0808
0602
0A0D
030A
040C
0703
070A
0D03
0D06
0C00
0E03
0903
040B
0606
0402
080D
0304
0000
0A01
0A08
0E09
0405
0E06
0801
0702
000A
0C06
0701
0607
0C0C
040E
080E
0E02
0007
0A00
0E0C
0607
0900
0005
0E0C
0B03
0B07
0D0C
0504
0900
0C0E
0E03
0B04
0301
010A
050C
0E09
070D
0807
0507
0407
0004
0A00
0608
0908
0D05
010A
000D
010E
0A03
040D
090B
090C
050C
000D
0204
000E
0501
0009
0005
0D06
030C
0802
0509
0A06
090B
0E0B
090A
0808
050B
060C
050D
0802
0A02
0507
0401
0D01
0903
0701
0901
010A
0D02
0801
0B0A
0E04
0C04
0104
0E05
010E
0B04
0103
0400
0B0D
040C
0000
090B
0606
0803
0C06
0709
0507
0604
070E
0B02
0C05
070E
0C08
0B0C
0407
0206
0809
0709
0208
0500
0508
0A0B
020C
0B07
080A
040B
0205
0E0D
0C0E
0A0A
0605
0808
0B0B
0D08
0E01
0808
0401
0505
0B03
0507
0801
050B
080E
0E0D
0905
0108
0808
0006
0A02
020D
0204
0103
080C
0D0B
0800
0105
050A
080B
0C0C
030A
0C0A
0208
0A0A
010E
090C
0503
0508
0705
050D
0906
0809
0106
070A
0E07
0C05
0D08
070D
0A07
0208
0104
0605
0E0B
0206
0006
0002
0101
0909
0E05
0507
0107
0601
0E06
0202
0B09
0C0E
0C09
0606
0C06
080A
050B
050E
0406
0E0E
070B
0D0C
0300
0007
0507
0907
0D04
0504
0101
0C08
030D
0503
0209
0C0D
0C07
0A0A
0005
040A
010A
0B01
0E02
0505
0604
020C
030B
0300
0707
0704
020C
0005
060B
010A
040E
0E03
0405
0B09
000D
030A
0E03
0107
0906
0405
0508
0C07
0001
0608
080C
0908
0101
0E03
0800
0402
040B
0E03
020C
0E07
0602
0608
040E
020D
0607
0D0D
0803
0006
0B0B
0008
0705
0203
0D0E
0205
0905
020C
0E09
0B07
0405
0B01
0806
0D02
0D05
0E05
0205
0C08
0C0A
0D01
090C
0500
020C
0901
0206
0900
090B
0805
070B
0606
0807
0903
0D09
040E
0207
0C03
0405
0D05
0808
0D05
0D04
0E02
0A0D
0807
080D
0403
070E
0B0B
0C0A
0304
0D0B
0C0C
0E07
0306
0909
060C
0007
0605
0900
0207
0B03
0C05
0600
0E0B
0703
0501
0904
0008
0401
0C09
0B01
0A04
0C01
0B0A
070E
0009
0800
0103
080D
0E0E
0D00
0203
0902
040C
070D
0007
0C03
020B
0901
0401
0E0C
0C04
0203
0605
0C0B
060A
0C00
0B01
080B
0002
0108
0A0D
090B
0C01
0E00
0E05
0101
0A0C
090C
0C00
0804
0E0B
0E06
000E
0607
0906
040D
0C00
0501
040D
020D
0B0D
060E
0805
020B
0602
0D07
0809
0509
070B
0E04
0109
0108
0704
070D
010E
0A00
0E0B
0204
080E
0A01
0304
0005
0700
0906
0606
0E0B
0A04
0104
0C05
050B
060A
0307
0E01
0003
0903
0103
0103
080A
0B0D
010C
0808
0C03
010B
0403
0704
0008
040A
0900
0803
0306
050B
0D05
000C
0305
0D02
0606
0100
000C
0907
0401
0B0D
0D0A
0B02
020A
0301
040A
0C0A
0208
0204
000C
0B0B
0E0B
0E09
0B01
0901
0C0B
040D
0E03
0B0E
050E
0308
050A
0009
0304
0C09
0707
000D
0E03
0B02
0006
0200
0806
0407
0005
0301
0406
0A03
0305
0B0D
0500
0700
0D00
0A04
0D05
0800
020E
0307
0C03
070E
0302
020C
0A06
030E
010A
080D
0B01
060C
040A
0D04
090D
0108
0805
0906
0E08
0A0C
0803
0906
0B05
0C05
0301
020B
0402
0404
070A
0C02
0600
0403
0301
0307
0A09
0907
080B
0401
0707
0100
0505
0B08
0700
0506
0806
0607
0508
0204
0B07
0409
0202
0005
0908
000D
0803
0D03
0C00
030D
0809
0E07
0003
050E
070B
0C03
0009
050A
0502
0C02
0808
0800
0B02
050A
0C07
080B
0B03
0703
0706
0E0D
0603
030D
0C09
030B
0609
0102
0C01
0301
0204
060A
0E09
0C09
0806
0E0E
0D0E
0000
0808
0A03
0500
040A
0B01
060B
040C
0A03
0303
050C
0A07
0A03
050A
0302
0004
0507
070B
0A06
0207
0804
0409
0701
0703
0A0D
0403
0C0A
060D
0409
0B02
0006
0403
0E06
0D0A
0703
0A0C
0E06
0903
0305
0107
0E04
0C09
040D
050D
070D
0B08
0B0A
0305
0007
0407
0504
050B
0C0B
0A09
0409
0A0A
0709
0101
010E
0B07
070B
0E08
0904
0B09
0601
0E01
040D
0B04
080E
0C05
000C
0906
0B03
060A
060C
0707
0601
0501
0208
0208
0009
0801
0200
0C0B
0008
0C09
090C
030E
0B0D
0C0B
0300
0308
0508
0B03
000A
0500
0009
0D00
0B08
0802
0C08
0B06
0C06
000E
0109
0E0E
0B0B
0C0B
070E
0708
0B05
0B0B
0D01
0808
0103
0306
0B06
060B
0003
0001
0A07
0406
0700
0002
0500
0B0D
0A01
0E00
020A
030A
080A
060B
0903
0109
0401
0E0E
0A07
090E
0D0E
0A0A
020E
0A04
070D
0B01
0A0C
0806
0E0C
020C
0B04
0500
0D07
090E
0007
070D
0507
0101
0100
010E
0009
0109
050C
0507
0206
0308
0C00
0208
0909
0B06
010A
0803
0108
0406
0D0A
0907
0E02
0004
0A0C
0901
0506
0706
0009
0B0A
0800
0B01
060C
0307
0401
0A01
0202
0000
0309
0C04
0E08
0C06
010C
0201
0A07
0507
0905
0707
070E
0E0A
0704
0109
0D09
0B0A
0D05
0B01
0B08
0D07
050D
0404
0901
0304
0E0A
060B
040C
0108
0905
0109
070C
030B
0102
010C
0107
0D0C
0E0C
0304
010D
0D07
0208
0605
0C0C
0303
0709
0B01
0D01
020B
0405
0706
0900
0208
0E01
080B
0806
0008
0A0B
070A
0204
0201
010D
0107
0705
0505
0708
0608
0205
0203
0900
0305
0B0C
0908
0B07
0802
0D01
0E02
050E
0107
0603
0603
0402
010C
0304
050E
0E09
0900
060D
0004
0509
030B
0202
030A
0A03
0A0C
0204
080C
0A0A
0901
0307
0E0D
0602
0D0C
0503
0B0E
0005
060C
0D05
0E04
090D
0208
0808
070E
0307
0203
020D
0908
0E03
0C00
0107
0205
0E03
0C06
0508
040E
0904
0902
0D0A
0E04
030C
0A06
0101
090C
0501
0603
040C
0505
0000
0702
000C
0904
0506
0608
0407
0409
0100
0800
0702
0A01
010A
090A
0C0E
0001
0205
0904
0108
0306
0D09
0900
0707
0308
0701
0D08
0700
0D09
0B04
0202
0306
0404
0303
080C
0B03
0301
0C0C
080B
020D
0804
020E
0D03
0701
0907
050A
0506
0708
0409
0700
0500
000B
0B05
0409
080A
0006
0402
0D03
0B02
0201
0D0C
0801
070D
0306
0303
0204
0407
0B00
0B09
090D
0704
0700
0807
0406
0B0D
0D0A
0E00
0C08
0B04
090D
0206
0502
0203
0E00
0206
0504
0602
0B02
0006
0203
0300
070B
0A09
000D
0405
0000
0C03
050A
0D0C
0604
0608
0101
0500
0B0D
0307
0402
0609
020B
0A03
0E04
0D07
0505
0C02
0E06
0101
0509
0706
0E01
0A04
070E
050B
0509
0306
0B07
0806
030B
0805
0506
0909
0408
0304
0E0A
0604
010A
0A0B
0E0B
060E
0604
0707
0702
0800
0B0B
030A
080C
010B
0401
0508
020E
000E
0C0A
0C02
0E0D
010C
000D
020D
050B
0704
0D0A
0E07
0D08
0E0E
0101
050D
0000
030C
0A07
0D03
010B
0301
0000
070A
0A00
0309
0101
0205
0A0A
0C08
0001
080B
0304
0905
0307
040B
070D
0309
0806
0208
0D00
0003
0802
0A02
0701
080D
0402
0D0A
0802
0802
0E07
060A
090B
0803
0E0D
0D08
0300
0D08
0703
0A09
0B03
060A
0602
0B01
0308
0A07
0202
0708
0409
0409
010C
0606
0301
0B05
0405
0905
0404
0904
0301
0B0D
090B
0D0E
0B0A
000D
0000
0709
0A09
0807
0A0D
090B
080E
070B
0907
0805
0E00
0C04
040D
0C05
0407
0600
0503
000A
0203
050A
0603
060C
0504
0A03
0D02
0607
0B05
070E
0C0B
020C
0706
080A
0A04
0B0C
0C08
0406
030C
020A
0608
0700
0D0D
0E03
0C08
0A02
0D0E
0C09
0105
090B
0A09
0B05
010B
0803
0C05
070B
0B0B
0A0B
010E
0D00
0705
0D0E
0301
0B09
060B
0C04
0D0D
0507
0D08
0B0C
0E06
080A
0602
0805
0706
010E
0500
0706
0304
0703
0C08
0603
0105
0402
0B0B
0800
0302
0105
0906
0108
070B
0C04
090B
010A
080A
0A06
0001
0B03
000C
010A
0506
0B0D
0C0D
050D
0C0B
0709
0904
0B02
030B
0D0C
0E04
0D09
0906
0405
060C
0A09
0607
070C
0D01
0003
0609
020B
0A0A
0201
080C
0D09
0206
030D
0609
0308
050E
070E
0B05
0405
0A0D
0802
0300
070A
0E01
020B
090A
0C00
090D
050A
0607
080B
0407
000B
080B
080C
050E
020C
0008
040B
0304
0308
0D01
0C04
0B05
0D0C
050A
050A
050B
0A06
010E
000C
0B02
000B
0B08
040B
0106
0405
0B04
0806
0A07
0500
0601
0A00
0107
0506
0E03
0B06
0004
0707
0E06
050C
0D07
080E
000B
0206
060B
0809
020C
090D
0C01
0E0A
010B
0A08
0102
070B
0C09
0904
030D
0803
040A
010A
0408
050A
0D05
0E05
0B0E
080A
0D0C
0408
0604
0B06
0C0A
0405
0E0E
0901
0B05
0608
0000
0506
0805
0302
0606
0D05
0D07
0A05
0001
0500
040B
060D
050A
060B
0406
0705
0A0C
0102
0300
000E
0D03
080B
0E0A
050C
0A0D
090B
0106
0E0C
030E
0605
0602
0D03
020B
0309
0D07
0C06
0D0A
0A04
0707
0400
0509
0109
0E08
0503
0802
0A08
0907
0E09
0E04
080B
0B04
0307
020C
080C
020D
0503
0808
0B0E
0B0D
0808
050A
0908
0303
070C
030A
0903
0102
050C
0C06
0A04
0A02
040E
0104
0700
0E0E
020C
0806
0D08
060C
0302
0409
0301
0E06
0304
040E
0709
0702
0801
0509
050A
0406
000C
030E
0E0C
0902
0A05
0202
0101
0A0A
0A00
0C0C
0A04
000A
0A09
040B
0001
0506
0407
0508
0009
0602
040D
0B09
0002
090C
090D
080A
0802
0007
090E
0100
0100
0C0A
040D
0007
090A
020D
0601
0E03
0409
0709
0D0B
0905
0502
0A0A
0B04
0505
0603
090B
0C05
0C01
0309
0C0A
090B
0D05
0505
0C08
0001
0B02
0808
0908
0308
070B
0706
0B00
030E
030D
0708
030A
0E09
0904
060A
0C0C
080A
0E0E
0505
0803
0A03
090C
0105
0103
0308
0403
0305
0405
0706
0209
070B
0E06
0407
0600
0C09
050C
000A
070D
0701
0503
040D
0E0B
0102
0306
0904
0B07
0907
0304
0D0E
0A0C
0C04
020D
0306
0B0B
0204
0D01
0C08
0606
0305
0802
0203
010C
000E
0708
050E
0B02
0600
050C
0001
0B0B
0306
0E05
0002
0508
0C0D
0C07
030E
0305
010D
030B
050E
0D09
0601
0C03
0500
040D
0304
0E05
0903
070A
090D
060E
0708
070E
0C05
0901
0704
0901
090A
0A03
0605
000D
0E0C
010E
0700
0202
0100
0101
0B0D
0701
0B08
0B0E
060B
080B
0900
0C0B
090C
0504
0201
0B0D
0B03
0702
0205
020A
0B05
010A
0908
040D
0503
0103
0800
030B
0C02
0103
040A
0E0B
000C
0C02
0C0B
0A04
0900
0D07
0E00
0C08
000B
030D
000E
0403
0E03
0602
0409
0E00
0307
0E03
0203
070A
070D
090E
020A
0C07
0709
010E
0108
0D06
0C0A
0200
0300
0503
0B0B
0907
040C
0207
0204
0B05
0C0C
0102
0807
0A0C
050D
0A0B
0604
0801
0708
0D00
0609
0A00
040E
0E07
0A09
0D00
0A0B
0709
000A
0C0D
0B0D
050B
070C
0B04
0A06
0305
0D04
0301
0907
0E03
030D
0B03
090C
020B
0E06
0802
050B
0703
0B00
020E
0003
0206
0203
0201
0806
0809
0A0B
0005
0A00
070E
020D
0A06
0204
0002
060C
0C03
030C
020A
0909
000B
0306
040C
0004
0409
090B
090C
0103
0A08
0E0B
0204
0204
060E
0107
000D
0C07
010D
0409
0904
0702
0E00
0904
0507
0905
0600
0307
0406
0900
0E0E
090C
050B
0804
0507
0A04
0D07
0A0A
0304
010E
010E
0B0A
0B04
0A04
0D03
040C
050A
0002
0708
0D09
0B09
0D09
0808
040B
020B
0E04
0E06
0C0C
0E03
0E02
030D
0501
010B
010B
0101
0707
090E
0102
0C0C
0603
0E07
0302
0C07
020E
0D02
0E01
010D
080B
040D
0506
0801
0708
0908
030C
050B
0C0B
0107
0D04
0C0C
0309
0403
010A
010E
070D
0C02
020B
0D02
0302
000D
040B
0E0E
0E0D
070A
0C01
0500
0B0B
0D01
0A08
0001
0D05
0604
0A0D
0107
0107
050A
0C0C
0D05
0005
0504
0902
0803
0206
020B
060A
0201
0806
0408
0D09
0D0E
000A
0C0D
000B
090A
010D
0B09
030D
010A
090E
0D00
0400
0803
0E0C
040D
050E
0709
0E02
000C
0506
0304
0708
030A
0307
070E
0D0B
0507
0900
0507
0D0E
0608
0508
060C
0601
0809
0907
030B
0C06
0B07
0C03
0804
0208
090B
0301
0100
0208
0200
0002
0100
030B
0B02
0D05
0000
0807
0206
0E00
090E
0D08
0300
040C
050D
0C0D
0B06
0E07
0A0E
0E0A
0204
020E
0502
0B08
0209
0207
0C09
0B0D
0E00
070A
0306
0A04
0500
0708
0504
0D0A
0C07
0C08
0002
0401
0203
0804
0501
0D05
0509
0C0E
0806
0202
0D0E
0801
0C0D
0D0A
0108
080D
0E02
0C0D
070E
0B0D
0B05
0407
0906
0705
0B0B
0803
0902
070D
0605
0308
0908
0900
0E04
0000
0708
0901
0E03
0A06
0009
050A
070D
070A
0A08
0600
0603
0307
000B
0703
0900
0106
0C0A
0201
0403
0803
0A09
0903
010E
0D07
0601
080D
0802
0709
010B
0205
000B
0408
0903
0509
0709
080C
0100
0C03
0B00
0A04
0505
0C04
050A
0705
0900
0705
060A
0504
0500
0905
0509
070C
0C0A
0406
0908
0001
000C
0D0B
0B00
0505
0902
0B0D
0807
0900
000B
0600
000D
050D
0D09
0B0B
090D
0D0E
0409
070B
0202
0804
0209
0D05
0E0C
0009
070A
0900
0506
030B
0409
0E08
0802
0202
0605
0709
0905
0008
0603
0602
0B02
0006
0300
0A09
080B
0408
0909
060B
0C0E
0C00
0506
0509
0904
0800
0707
0D04
0701
090E
0D02
0E06
0007
0105
0B0B
070B
0301
0905
0400
0302
0307
000D
0404
0B02
0704
0405
0C0C
0809
0D09
070A
040B
0E03
0903
040C
0501
050A
050A
0800
040C
0702
0602
0409
0102
0A0E
0E0A
0100
0703
0C0A
030E
0E07
0D07
000D
070D
020B
0609
0102
0B0D
0B03
0402
080E
0500
0201
0102
0A02
0900
0006
000B
0A01
0303
0705
070A
0C04
030E
0301
0B08
080D
0802
0407
0408
0802
0709
0502
000B
0E06
0401
0208
0C05
0400
020A
0D0C
020B
000E
000A
0C06
0C0C
070E
0506
0102
0B04
0709
0308
0803
0B0A
0B0C
0105
0903
0400
0808
0D0A
0501
020A
0609
0D07
0200
090B
0903
010C
010D
0E0D
0C07
0B03
0005
010B
0001
0906
0A08
040B
070B
0D08
0107
0A00
0D05
0D0D
0B06
0107
0502
0309
0402
0108
0601
0E0B
0B00
0C06
0800
0506
000D
0701
020C
0B0A
0500
0D01
0A04
0208
090B
0501
0E09
0209
0401
0A03
0D07
070C
070B
0104
0504
0008
0E07
0802
0604
0D08
0102
0706
0D0E
0002
0106
0408
0B0E
0C0C
0808
0902
0B0D
090E
0909
0C0B
080C
000B
0505
0B02
080E
060B
0809
0E0C
000C
0309
0B09
0000
0306
0E05
050A
0C0E
0508
0D0B
0900
0802
0304
0D09
0C0D
0203
0D0D
0001
0504
030D
0806
0309
0600
0D03
0206
0C0B
0906
060A
0708
020E
0A0E
0307
0E01
0107
0A09
0D05
0302
0D04
0903
0A0E
0A09
0D00
0300
0E04
0705
0803
0D0A
0509
0606
0006
0803
060C
0E08
0B0C
0800
030A
0104
0B08
040A
0D05
0803
0A07
020E
0408
040B
0B02
0504
0408
0A0C
0401
030A
070E
0A06
0600
0908
0A0E
0A00
0D08
0306
070A
0A0B
030C
040C
0503
0408
0908
0904
0D0E
010B
0103
0A08
0B0B
0605
000E
050E
0E0B
090C
020D
0A07
0302
0A03
0708
0B05
0508
0C04
000C
0709
010D
060A
080D
0402
040A
0803
0405
040A
0809
0C0D
0303
0E00
070A
0203
0407
0807
0908
0302
0906
0207
0C0D
0603
0207
0307
0902
0D09
0D09
0D0A
0103
0202
050C
0C0D
080E
0405
0100
0606
010C
0307
0D0D
0A09
0E05
0304
0006
0A06
0D09
0600
000B
0C05
0207
0000
0D02
0E00
0C03
0D02
0E03
000D
0508
0104
0C05
0B0D
040E
0B06
0D09
0608
0B04
0E01
0E03
0C02
000D
0B08
0106
0505
0206
0C02
0D0B
0B0D
000C
0E06
0B05
0705
0B04
0103
0100
0900
0E0A
010C
0C03
0006
0209
0600
010A
0901
0301
080A
040A
0200
070B
0402
0207
060E
0401
0A01
060D
080B
010D
0409
080C
0E0E
0905
000A
0306
0508
0B07
0D05
0109
020C
030B
0E0E
0706
0308
0505
0C0A
0803
0A09
0D04
0100
0A0D
0E06
0D0B
0109
0C06
040E
0601
0C08
020A
000D
0803
040B
0107
060A
0500
0608
0108
030A
040B
020A
0106
000C
0605
0E09
0A07
070D
0208
0B0B
0A01
0209
0D02
0504
0A0A
050E
060D
0C00
090A
0C04
0609
070D
0D05
0303
0900
0D0D
0206
0704
0206
0401
0905
0A0D
0A08
0108
0901
090A
000C
0609
000C
0103
0409
0A08
0606
0E03
030D
0207
0209
0A05
0A0A
0601
0A09
0400
0A07
0107
0309
0603
0D06
050C
080A
010B
0A0B
0A01
060E
0C02
0500
000E
0006
000E
0D0C
040B
0E0D
0508
0E0E
0607
0007
0005
010D
0B04
0508
060E
0009
0D01
030D
010A
0702
0D0B
020A
0603
060E
0702
0505
0C03
0E0A
0E0C
0A09
0B06
0D0D
0006
0B0D
0301
0207
0605
0B0B
0A02
0909
000D
0301
0808
0209
0708
020C
0B00
0A03
0901
0701
0309
0B00
0807
0A0B
080E
080B
0C0C
0407
040C
0202
0E05
0703
0603
0706
0907
0A05
0C0A
0407
010C
090D
090D
0B07
090A
0106
090D
0604
0000
0A01
0D0D
0E09
090E
0300
0309
0500
0B03
0C03
030C
0607
0905
0E0D
0000
0C0D
070D
0E03
0003
010C
0703
000B
0E03
0C06
0404
0903
0708
0707
090A
0309
0D01
0A0B
090D
010E
0D0E
000D
0402
080A
0306
0102
080B
010E
060D
0808
0904
0504
0001
0709
0E02
0C0B
0500
060B
0703
0906
0C0A
0603
0D00
0009
0509
0600
0C0E
0B07
0107
0003
060B
0E08
0409
0502
0207
060B
0C0E
0A0D
0009
0503
050C
0E04
070A
0C02
0109
0B08
090C
0803
0408
0D0B
0E0D
0E0D
0909
020C
000B
0D08
0000
0E0B
0A06
0E03
0108
0B0C
0B08
0409
0D03
0305
0A04
0C05
0C0C
0B05
0900
0B00
0A0E
090E
0209
0C0B
0C0C
0E03
0E0A
0208
0508
0006
0C0A
0A04
0303
0D08
0609
040C
0009
0404
0D08
0408
060C
0708
0504
0706
0C03
0903
0D07
0400
0B05
0905
0A0A
010C
0C05
050E
0809
0D06
0D0E
040A
0D0B
0D04
0E07
0B0C
0601
0A06
0900
020A
030A
0E01
0100
0205
010E
000D
0A08
0A0C
020E
0C05
010E
0B07
0007
0B0A
0005
0E02
0D02
0805
0C0A
0005
050E
0303
0906
0101
0105
050D
0107
0106
0E07
0A00
0200
0B0E
0C02
0106
0C0B
0707
040E
0003
0C02
0A09
0C0B
0E01
0203
0E03
0103
0409
0403
0B0C
0C0D
0109
010E
0C0C
0A07
0709
0B03
0509
0903
0007
0503
0D01
0A06
0A02
0102
0402
0600
0C09
0302
0B07
0007
0B0E
0908
0709
0A0B
0100
0C04
0800
0B0C
0502
020A
0606
0A0D
080B
0307
0900
080C
0106
010D
0806
0600
0B03
0B0B
0001
070A
0408
0404
0A0A
0C02
0607
080A
0D05
0308
0409
0A0D
0108
0506
0C09
0E00
040C
0508
0C0E
010A
0D0B
0009
0900
0D05
0406
090B
0700
0603
0107
0D07
050D
0408
0C06
0E0A
0508
000C
0703
0101
090D
0D01
060C
0E0D
0B08
010B
060E
0908
0306
0A0C
090D
040E
0B09
080E
050B
0A0A
0A0B
0002
0407
0003
0108
0607
0608
0701
090D
0807
050E
000E
000D
030C
0704
0C05
0103
0003
000C
000B
0E0C
0400
050D
0905
0403
0604
0E0C
030E
0C08
060E
040B
060C
0408
060A
0C02
0D0A
0E0D
0E01
0201
0204
030D
0E0A
0E09
0D00
090E
0508
0D06
0C09
0501
0E03
0706
0B0A
0907
0602
0E02
030C
0400
0409
0804
0406
0206
0D08
000C
0000
0502
080A
080D
0E01
0C06
0905
0603
030C
0A01
0001
0B00
0E02
0D00
0004
0A0D
0A0B
0206
0603
0A05
0009
0D0E
0502
0000
0201
0E05
0809
0501
080E
020E
0B0A
0E05
0E05
0D00
0E00
0A08
0A02
0D00
0608
080C
0B0C
0406
0D00
060E
0A05
0901
0209
0005
0E0B
0C02
0B0D
000E
0308
0905
0200
0903
0604
010D
030D
0C02
0104
0C07
0000
0A04
050E
0102
0A0C
0D01
0507
0607
000B
020B
0202
0604
0907
0904
0901
0405
020D
0104
080A
0E03
010A
0E0B
0B0E
010B
0505
040D
0207
0106
090D
0D02
0207
0E04
030C
080E
0B07
030C
0208
0D0A
010E
0303
030E
090D
0E09
0301
0608
0D0A
0B09
0A06
0908
0C00
0D06
010A
070E
0A06
0D05
080E
0D02
060D
0401
0A06
0608
060B
0A06
020C
0609
0804
0803
0001
0002
020B
0004
0302
070A
0009
040D
0402
0D08
0800
0101
0608
020B
0B0D
0E0B
0707
0506
0907
070B
0E0B
010C
070E
060E
0008
0B05
040B
0407
0700
0808
0109
0103
0E07
080B
0A05
0909
0707
010A
0301
0C0D
0A0A
0104
0A09
0A0B
0101
0807
0400
0B01
0A06
0A03
0D09
0200
0505
0D03
0E03
0E03
000A
0209
0805
0B03
0B0B
070A
050C
0200
030B
030E
030B
030B
030B
050E
0A03
050B
0906
0B04
0006
0501
0709
0D07
0107
0D03
040A
010B
0303
0C09
080A
040B
070E
0C00
0704
040D
0905
040A
0D0A
0404
0A07
0304
040A
0304
080E
0109
0A00
010C
0601
0906
0608
0708
030D
0D07
0702
020A
0805
070C
0B07
0008
0D0A
0100
0903
0D02
060B
0106
0C0A
0A06
070E
0601
0505
0005
0A06
0606
0E08
0505
0906
0B0E
0A08
0E07
0504
0E0E
070B
0A00
0B04
0B0E
0E03
080C
010B
0004
0C01
0002
0D0C
0105
040B
0204
0601
0E05
0A0C
0206
0E00
0008
010E
0D0B
000E
0502
0202
0D00
0103
0006
0207
0208
0204
0802
0502
0B0B
0202
070B
0E05
0604
0300
0202
0D00
0E01
030C
0E09
0205
0305
000C
0503
070A
0609
0906
010D
0806
0906
0D01
0D02
0103
0B04
0A0A
0D03
040C
0406
0706
0C02
0703
0906
010E
050D
0501
0902
0A09
070D
0002
0C05
0200
0101
0503
0500
0207
0901
0602
010C
0800
0D03
0D0C
0200
020E
0D01
0405
0E0A
080D
0A07
0507
0E0A
0709
0C08
0006
0807
0802
0A0C
0802
0B0E
0402
0107
0103
0D08
020C
0609
0D0C
0805
030B
020B
0204
0106
050B
0C06
0904
050C
050A
0A0D
0E09
070C
0D01
0D0B
0802
0202
0B01
0D0A
0102
0C0D
0B0C
060D
020B
060B
0800
050A
0200
020B
0B07
0E00
0E0B
000A
0609
0B0D
030D
0D08
0001
080D
0D0D
060A
0800
0401
080D
0100
0A09
0A09
0509
0001
0A04
080C
0E04
0804
0104
050E
0108
0700
0004
0406
0B06
0902
0102
0101
0808
0800
0709
0200
0106
0C0C
090B
040A
0202
0403
0406
040C
0109
0D0E
0201
0108
0405
040E
0A08
0603
0004
0A07
0906
0601
0908
0D07
0A0A
0D0D
0404
0D01
0001
010B
0707
090A
050E
0607
040B
010C
020E
0302
0A0B
0201
070B
0E0B
030C
0E06
0701
0303
0005
0607
0B03
0C0C
0A06
0804
080D
0104
0002
060D
0907
020A
0D02
000D
0C00
0C04
0B0E
0C0E
0806
0106
0703
0C0C
050D
0100
0405
0D0D
0400
0C0B
0706
0804
0708
0E06
0200
0602
0D07
0400
0E0E
070E
0D0E
0E01
0706
0109
0A0B
0203
0A09
0D08
0806
0A04
040A
0301
0807
0B0A
0201
0402
0D0B
0804
0003
050B
0C05
0406
090C
070A
0E0A
0701
0209
030A
0201
070E
0002
060C
040E
0507
0805
0603
000D
0409
0504
0100
0306
030B
0E01
080E
020C
000B
0206
0209
0D05
0E0A
0209
0E0A
0908
0505
0A00
040A
020C
0C00
0B00
0D07
0008
0C09
0601
0709
0A06
000E
0403
0B04
0C04
0504
0601
0008
0508
0E0A
0402
0306
000B
0400
0908
0806
0E01
0303
060B
0809
0D05
0B0D
0C07
0205
0001
0305
0B0A
060A
0203
0C0B
0503
0B00
0807
0800
0D0A
040A
060B
0801
0E0C
0B0B
0309
0A0D
040A
0608
0D08
0A00
020A
0E07
070C
010D
0103
0106
0A00
0805
0B05
050E
0806
0B04
0502
0803
080B
0A04
0E06
0607
0907
0209
0809
0808
0706
0E00
080B
0101
000E
0601
0709
0901
080C
0C0E
0909
0105
0A07
0E04
0A09
090C
0D05
0805
0E0E
0604
0201
0909
080D
0D07
0005
0700
0909
0509
0C00
0B08
0B06
0902
0502
0D09
020E
0903
0803
0B05
090A
0402
0404
0C07
040A
0D06
010D
0A0A
040A
0D03
0500
0C0B
0D07
010D
080C
0E05
0209
0309
080D
0801
0107
0101
0E02
010B
0007
050C
0509
0C0B
0208
0A0C
0006
0807
0D02
0508
080A
0806
0506
0004
0007
0602
0C05
0C0B
0D0B
0103
0908
0C09
0307
0D08
0D04
0405
0407
0C07
0A08
0D0E
0502
0B05
0A00
0404
0D0B
060A
000C
0201
0B00
0C08
0A05
0909
0D0B
040E
090C
090B
0D06
030B
0703
020E
0A00
0002
0903
0809
0502
080B
010D
0806
0A02
010B
0C04
0102
0A04
0A0D
0E02
0704
0102
0B08
0B09
0602
0A03
060D
0100
070E
0E00
020D
000C
040C
0507
0404
0E03
000D
0206
0904
0D02
0C07
0206
0908
060E
0404
0B0C
0B0D
050B
0B06
000B
0408
0507
0108
0509
0B09
070D
0404
0909
0208
0906
0400
060E
0D08
0002
0B0E
0C0C
0900
0107
0106
0909
0C06
0E03
0B03
0E05
0A0E
0C0D
0A08
000B
0D07
0D0C
0C08
0502
0102
0B09
0006
0904
0806
0200
0206
0002
0200
0900
0700
0100
020C
0C05
0C0D
0B0C
0E0C
0A08
0B03
0E04
050B
0A0D
0C0E
0703
0806
0101
0105
0A0A
0509
0C02
0A0E
0801
0008
0300
0708
0600
0107
0A08
0D04
0606
0A08
060D
0E06
0707
0207
0609
0C01
0805
0B07
0A08
0304
0905
0102
0805
010A
0807
0506
0306
0107
0209
0506
0C02
0504
0C01
0601
0001
070E
0B0D
0A05
0B0C
090C
0704
0A0A
0B0B
0C0C
070E
070C
0304
0209
060C
0A0C
0902
0901
0A06
080A
0A09
0006
0E01
030C
0504
0B0C
090D
030D
070A
0C0B
0103
020A
0208
0605
0409
0601
070A
0106
030D
0A0B
0D09
010E
0405
0E03
0201
0C07
0205
0307
0706
0301
0302
020C
080E
010E
080A
0601
030A
0507
0B06
0604
0807
090C
050E
0708
0A05
0301
0B05
010E
080B
0A05
0C0B
0802
0506
0D08
0D06
0303
080E
080E
0E04
0D09
0506
0A0A
0504
090C
0C05
0607
0107
0C07
0B0D
0702
0602
0704
0709
040B
0E06
080C
0A03
0B09
0901
0D07
0703
0602
0A0A
0801
0500
0706
0603
0E01
0D01
0A03
0C00
0109
080A
0A06
0C05
0E05
0004
0E0C
0A07
0A0B
060B
0A08
0502
0007
060D
0804
0A0B
0007
0C09
0408
010C
0609
0D03
0D01
0702
0309
0E0E
0C0E
0503
0800
0D0E
0508
0D07
0406
0405
0204
050E
0C09
090A
000C
0402
080E
0E03
070A
0502
0C02
0E0C
070B
0D00
0A02
010B
010C
0C03
0C0D
0B06
0207
080E
0C04
0400
000A
0602
0807
0800
0106
0C02
0B0B
0104
0604
0105
0004
0D07
0506
0B05
0309
060B
0809
0005
0B0E
0804
080D
090D
0C04
0A04
0100
0706
0E05
0502
0B0E
0C01
0307
0D01
0003
040D
080A
0804
0005
0705
0809
040C
0E03
0704
070A
090A
0507
0B04
0608
050A
0A0D
0A08
0704
040A
0807
0109
010A
000E
0007
0A0C
0507
080E
030D
0B03
030C
0008
0909
0506
0A01
0C0D
0904
0B03
0905
0103
0D0D
0107
0B0C
0007
0806
040C
0203
0B03
0C01
0300
0300
0D02
0A0C
0D00
0707
0705
090D
0802
0E07
030A
0708
0100
0C07
0905
0B08
050D
0A07
0C01
0503
090C
090A
0300
0A07
050D
040C
0B01
0E0E
0800
0D07
0303
0708
0B0E
0208
0207
0100
0C01
0C02
0B0D
000B
0B0C
0506
0709
000C
0B04
0C02
0B07
0B0D
0405
0A08
040D
0D0C
040E
080E
0802
0E09
060B
0809
0609
0C02
0E04
0302
0203
0A02
0E0D
0D0A
0801
0702
0807
0C05
060A
0707
0C01
0907
0401
0D0E
0A0C
0100
040C
0C00
0D04
0102
0805
0C06
0108
0B03
0005
0E06
0202
030C
050E
0903
000B
080A
0300
0405
050C
040C
020E
0B06
0408
0A0E
0704
0B06
0709
0904
0803
0E07
0E08
060E
0603
0D03
0704
030E
0D08
0005
0606
000B
0408
0601
0509
0E05
080C
0506
0806
0A00
0B09
000B
070B
0A08
0C0E
030A
0808
0005
0D0E
0E08
050B
0109
0709
0E0D
0005
0100
0E08
0B0D
000D
0B08
0900
0703
0205
0803
080A
0E07
0406
070D
0507
0403
0408
0803
090B
0D0A
0E0A
010A
0409
0500
060A
0B08
0908
0104
0402
0407
000A
020B
090B
0502
0402
0507
0904
090D
0A09
0606
0A0B
0C0E
080E
0501
0505
0409
000B
0E07
0305
0209
010D
0D07
0C09
0C07
040C
0705
0A09
050B
0200
0D09
0709
020E
0302
0802
0603
0A0D
0B09
0E04
0108
0D08
0904
0601
040B
040E
020A
0707
020D
0C0A
0B05
070E
0C02
0902
0407
0508
0C04
090A
0D08
0804
0807
030B
0404
010A
060B
0107
0B04
0900
060B
0A02
0208
0D0B
0902
0D09
0106
0C01
0205
0E09
040B
0D0B
0B08
0905
060B
0E04
0B09
0909
0E04
040B
0001
0D06
0D03
0A0C
0A0A
0303
010B
070A
0B04
050E
0305
0E0D
0D0B
0605
0D07
0404
030B
020B
0E02
020B
0704
0705
080D
0406
0806
030A
0E02
0201
090A
0E09
0908
0504
0D0A
0E05
0108
0D0A
0800
050C
0A0A
030B
0A02
0903
0401
030C
0004
0B08
0B08
0401
0405
0003
0309
090D
040A
060B
0107
0E08
0E04
0D0D
0303
0401
0C08
0D00
060A
010E
0C0B
0D00
0B04
0A05
0A0A
0509
0800
0604
060C
0C0D
0501
0B07
0B0E
050D
030E
0005
020D
0B05
0600
0804
0304
0301
0804
0E0A
0505
0C00
0503
0C08
0209
060D
0609
060C
060E
0B03
0E08
0102
0600
0905
020A
010D
0706
0903
0406
0C0C
0D02
0705
0308
0709
0104
0708
060E
0603
020B
070A
0D0A
020C
0E07
070C
0005
0A08
020D
0A02
0208
0E0C
0205
0200
0807
0701
0D0D
0D00
0704
0102
0805
0801
0706
0301
0B08
0007
030A
0301
0103
0200
0A08
060D
070B
0D08
010E
0009
020B
0C02
070A
0709
0A04
0806
0109
0D02
0B02
0C0B
0C03
0E0B
060B
0802
040C
0002
080C
0203
010B
0B08
0C04
0C0D
0E0A
0A04
0807
010E
0304
000A
0107
0205
050A
0301
0A0D
0607
0A08
0709
0201
0009
0005
0408
0700
0300
0C04
0600
0C08
0208
0801
0407
0902
0C05
0800
0007
0D07
0309
0007
0B05
000C
0301
0C02
0703
0008
0602
0C07
000B
0809
0902
070B
0002
050C
0703
0D06
010C
0708
0305
0B0C
000B
0003
0A0B
0B09
0207
0502
090C
080C
0D09
0A04
0C03
0708
070B
0305
0801
0209
0B0C
0804
070D
0703
070D
000A
0B0B
0304
0D0E
0508
0A04
0200
070D
0702
0809
0C06
0101
0D09
0E0C
0701
0301
0200
0C0A
0702
0208
080D
0D0D
020A
0206
0B09
040B
0906
0001
0D01
0106
0409
080C
050C
070B
030A
0100
0200
0606
080A
0008
0B06
0307
0D0A
0805
0407
0903
0B05
000D
0A05
0100
0C01
0400
050E
0701
0A0D
0508
0C05
0007
0202
0A02
0D08
0403
0A0A
070C
080A
0709
0602
050C
040A
0306
0701
0A05
0B0E
040E
060E
050A
090E
0E04
0007
0402
020B
0608
070E
0A0E
0301
0307
0404
060E
0D0B
0A00
030D
0E06
0702
0906
000B
0708
0E0E
0D01
0803
0601
0300
070E
0D00
040E
0B0E
0003
0E0D
0A05
0C07
0302
0606
070D
0C06
030A
0E0B
0302
0C08
0A03
0600
0A09
0707
0508
0E0D
0E06
0406
0502
0E02
0401
0D08
0508
090E
0A0E
0304
0C0D
060C
0503
0804
0E09
030B
0303
0708
0A08
0C01
050D
020D
0C00
0309
0401
0B0E
0301
0601
0407
030B
010C
0C00
0E0A
030D
0303
070E
0800
0D09
0101
0B01
0902
000C
0B0E
0904
0B09
0604
0804
0D06
0D0C
0609
0201
0104
0C09
0A00
0E02
0E05
050D
000D
0A02
070B
0E0D
0909
020A
0805
0600
0908
080C
0A0D
0005
0A04
0A07
0502
000D
0B02
0A0E
0603
070D
0B00
0404
0408
020C
0009
0E0A
060E
080E
0000
0000
060C
040A
0A0E
0C0E
070A
0703
0308
0C02
0201
0E0D
0006
0E06
0A0C
020D
0E09
060D
0E00
0709
0604
0A04
0301
0803
060D
060E
0805
090A
040A
0E04
0201
030B
0904
0306
0A00
0E01
0302
0B04
0602
0E0E
070A
0A03
0A0E
0A0E
020D
0700
0A00
0C05
0C07
0A07
0602
0107
0802
0006
0A06
070D
0301
0700
0306
0301
040C
0500
090C
0304
0E04
0204
0306
0707
030D
0109
0B01
0E03
0C08
0308
070B
0303
080C
020A
0605
030B
0208
0607
0607
0E01
0E08
0C01
090B
090A
0406
0C09
010E
0C04
0800
0201
0408
040E
0201
030C
0A03
0A01
0408
030C
080A
0A04
0405
0E0D
0408
060B
0108
0D08
0A0B
040A
0602
0B01
0E00
0D0A
030B
020C
0900
0500
0A03
0B07
0B06
0D09
0706
0908
0B02
0303
0201
0807
0B08
0E07
0609
050B
0808
0606
0906
0C03
0407
0809
0206
0C05
000A
0D09
0B00
0204
0907
0C0A
020C
0206
0A0C
0009
070E
070D
0405
0107
0A0E
0C06
0C00
0D01
0009
0002
0809
0504
010C
0B02
0805
050E
0406
0300
0805
0A0B
0C08
020A
0A05
0206
0E02
0C03
0E0C
0703
0A03
0804
0008
0404
0B0A
020C
0D04
0C09
0807
0708
0404
0505
0806
0A07
030C
070B
040A
000A
0D05
0308
0205
0109
0405
080E
0D0A
060E
0A00
0208
0B0A
0A09
070A
0802
0404
040C
0C0C
0A0A
0C03
0606
040D
0201
0006
040E
040A
0809
0C00
0303
0205
0905
030D
0204
020A
090E
0505
0106
0302
0401
040D
0B09
0606
0E0B
000A
0701
0909
0C05
010E
0804
0505
070B
0905
000E
0D03
030E
0D0B
0D07
0002
0602
0207
0801
0304
0909
0701
0B0D
0D0B
0907
040C
0D07
040D
0907
0B0E
0E07
090E
0001
0303
0001
030E
0E0B
0104
050C
0E0A
0804
010E
0602
090D
0100
0305
030B
020E
0903
0D04
0D01
0009
0B0B
0205
0C0A
030B
0703
0A08
0E09
0603
090B
090B
0B08
090E
070E
0302
0108
070D
080C
0A01
0404
0407
0200
0902
080B
0208
0A0C
0D02
0C03
0B07
0807
0B0A
0008
0809
0808
0702
070B
0A0B
0304
0D0C
0107
0101
000C
0109
040A
0A03
0300
0B00
0B05
0E07
0404
0E0A
0807
0509
0E03
0B06
0C02
0B06
0800
080C
0E00
0E08
0A0D
0D00
0807
0D04
0408
0B01
0800
0002
0B02
070D
0706
0E0E
0505
020B
0901
0606
0303
0507
040B
000A
0E08
0906
010B
0908
0D0D
0701
0505
040A
0C09
0707
0E07
0805
0809
0707
0C0B
090C
0304
0C05
0B03
020E
0101
0803
0B07
0007
0E0C
0D00
0004
0201
0D0D
0907
0805
0B03
0B0A
040B
000E
0C0B
060D
0604
0B06
0A04
040C
0806
0E0D
0404
0B04
0407
0109
030D
0105
0B06
0E03
010E
0305
0905
0704
0A09
0408
0809
0A03
090B
0608
0000
0808
0E01
0008
0C02
0E06
0800
0205
0407
0108
0C07
0203
0707
020D
0405
0C0C
0907
0502
0D02
0602
0106
0308
010A
0C03
060A
0E0A
0A09
0400
0304
0304
080A
0508
0E0E
0B02
0404
070A
0E0A
060B
060A
090C
0605
0B01
020E
090B
0E0E
0402
0505
0B04
050E
0E08
0D00
0706
0C0A
0801
0803
0B09
0D0C
0A04
0600
070A
0904
0402
090B
0908
0901
090D
0403
0507
030B
020C
0701
0D08
0808
0B07
0B0D
040B
080A
0B04
0D03
0C06
0D0D
0B0D
0E00
080B
0E0E
0A08
0503
0200
0709
0705
0C03
0203
020D
0D08
0A0B
0104
0300
0905
060B
090C
0E05
080B
0405
0408
0308
090C
0407
020E
0306
0B06
030D
0500
0302
0E06
0609
0A04
0509
0B0E
0804
0509
0909
0505
070A
0803
050E
080B
0605
040B
0502
0805
010A
0E06
0D04
0B0C
030B
0705
0A08
0901
0500
0409
050B
0006
0404
000B
0405
0508
0806
0E0E
0A02
0D0E
0001
0E0B
0C0A
010C
050E
0808
0800
0301
090D
0000
010C
0D0C
0203
040C
000B
0D01
000D
070C
0B0E
0209
0208
0C09
0908
040B
0B07
0A04
0D09
0B03
0100
0A00
0704
0502
0909
0B05
030B
030D
0E0D
090E
040D
060B
0607
0505
070D
0801
000E
020D
0308
0904
070C
0906
0508
0D0C
0D0B
0304
0E07
0609
0D05
0404
080B
0D01
0A09
0902
0305
0109
040D
060D
0A0E
0803
0807
0C08
0600
000D
0E06
0609
040C
0A05
080A
070D
0C0E
020E
0806
0605
010B
0E04
0C04
070D
0A09
0D0A
0C01
0106
060C
050C
0C03
0709
0C04
0C03
050C
0704
0E0B
0E06
0502
0103
080D
0104
0908
0604
0908
0A08
0E07
000B
0B0E
0207
0609
0E00
0E0C
0700
0E0C
0201
0400
0D07
0C04
080B
0703
0E0D
040C
0509
090D
0501
010D
0E00
0A01
0A06
0306
0A04
0E0E
0A06
0D00
0401
0701
0A0B
0B0C
030E
0606
0A06
0900
0A0B
0202
0307
0B0C
0B09
0800
0A0B
060E
0A0E
060C
010C
0004
0B07
0204
0006
0002
0003
0C05
0B05
0A05
070D
0B01
000A
0E03
0103
0009
0E0D
050A
0702
0C0D
020C
0D04
0D09
020A
0507
0D01
0708
0108
0C01
0E05
0C0D
0007
0D03
0003
030B
0B01
0809
0509
0003
030B
0703
0808
0C00
0403
060E
0D07
020A
0701
070A
0C08
0307
0C07
0907
0D05
0D07
0C08
0009
0C0E
020B
0100
0107
0D06
0B0E
0A0B
000D
0307
0A00
010B
0E01
040A
0B09
0B0A
030B
0309
0001
0D0E
0400
0406
0D0B
0604
0205
010D
080E
0A0D
0202
0506
0B0D
0400
070B
0C01
0708
0D03
0E0A
050D
0802
070A
0C0A
0309
0409
0107
060B
0603
0A05
0A08
0A09
0D04
090B
0302
010C
070B
0206
030A
0707
0301
0809
0007
0A0C
0708
0102
0B07
0D0D
0307
0B04
0D0D
0501
0907
0408
010A
0A0D
0004
0C0E
0605
030B
0603
0203
0A0D
0306
0E02
0D0B
0100
010B
040C
0D04
080D
070E
0005
0003
0109
010B
0907
0506
040E
0707
0402
0000
0605
0802
0008
0009
0B0A
0002
0208
0304
0D0C
040A
0703
0009
0B04
040D
030E
040D
0D03
0606
0909
0609
0303
0D06
0702
080B
0200
0808
0404
090E
0308
080A
0100
0200
0805
0405
0007
0904
000C
0D0B
0B06
0507
0006
0A01
020E
050D
0E0C
0507
0408
020D
0605
0200
0701
0802
0504
0E0E
0703
070C
010C
0601
0507
050C
080A
0208
0006
0807
0009
0606
010E
0E0E
0E04
0107
0C00
0206
0C06
020A
0808
0104
050A
000C
0902
0105
000E
0D02
0B0B
0207
0803
0504
0D09
090A
0701
060C
0C0A
060E
0D06
0404
070E
0703
0C0E
0404
0008
0C00
0400
0A02
0D03
0903
0E0B
0506
070C
070E
0E0E
0900
0E06
0A0C
0605
0303
0D00
080A
0C06
0E02
0C06
0A06
020A
0C06
0C00
040D
050B
090E
0C08
0C07
080D
0902
0A01
0601
0403
010C
0D03
070B
0D0E
0B0C
060E
000C
0909
0103
0509
0508
040A
090A
0701
0504
0301
0D07
0E03
080E
0709
0D08
0402
0D01
0409
0209
0A0D
000E
0704
030D
0B0C
0609
0307
0A0B
050E
0D00
000B
0D05
080E
0301
0402
0703
030C
0B00
0E0C
0500
0601
0D08
020C
0C0C
0E04
0206
0B01
0602
050E
0908
040E
0A01
010A
0006
0409
090A
0606
0C03
0A01
0200
0D08
0902
020C
0706
0C08
0802
0209
0803
0108
0406
0E0A
0A01
0405
0308
0C0C
090A
050E
0908
0200
0203
0800
0C0A
0D03
0200
0604
0B00
0B07
0200
010D
0B07
0702
0809
0108
0607
0A0E
0701
0B07
0E05
0D0A
0603
0004
0104
0A04
0708
0700
070D
090A
0902
0500
0905
040C
0A02
040C
0703
0804
0D05
030A
0909
0407
0E04
080D
0C0D
0C06
0A0D
0D0B
0201
0504
060A
070E
0004
0202
040C
070D
0609
0307
0204
0401
010A
0202
030D
0108
0E07
000E
0A09
0507
0B0B
0200
0C0D
0C03
0802
0206
060C
0E03
0003
050A
0807
0404
0C03
0D02
0A0B
0606
0407
0D06
0709
040A
0004
0D00
0405
0A0C
0209
0B0A
060E
0009
0C01
0302
0107
0905
0B02
0A0E
0E06
040A
060B
0608
0C02
0105
0503
0D0E
0303
0303
030D
0D06
0E00
000E
080E
0D06
0908
0006
0E0A
0A08
0901
0002
0D0B
0901
070A
0108
0109
090B
0901
040C
040B
0601
0005
0B0B
0302
0104
080C
030A
0501
0905
0501
0D0B
0A05
0503
0007
0207
0D05
0500
0309
0001
0005
040E
000D
0D07
030E
0905
080E
080C
0603
070D
050C
060E
0C01
0A0D
0002
0E0E
0505
0C05
050A
010D
0B03
020B
0A06
090B
0E0C
0803
0906
0802
010D
0C03
0A09
0C07
060C
0C03
0A00
0303
0508
0206
0601
0405
0B0C
0003
0800
010D
0505
060A
0506
0609
0B09
0C02
0604
090A
0903
0402
040D
0407
080D
0D0D
0909
0100
0105
050C
0E04
0709
0D0E
0C01
0008
0304
0B0C
0000
0305
0E04
0202
0801
0609
0601
0801
0707
020A
0807
0105
0206
040A
0006
0603
0804
0600
0809
0302
080D
0507
0207
040C
0308
0707
0E07
0902
0E0C
0E0C
0601
020E
040D
0D0A
0006
0C07
040E
020B
050D
080D
0E0D
080C
0305
0709
0206
0A07
040D
0B0C
0300
0807
0109
0506
060E
0C01
0E04
0A0C
0A0B
0604
0E08
0406
0204
0B0D
0B0E
0903
000E
0105
0706
0306
0E02
0105
0009
070E
0001
050A
0B07
0806
0007
0D01
040C
0305
0705
060D
0303
0402
060E
040E
0C01
0E02
0908
010E
0C07
0B03
0D0E
0A01
040E
0D0C
0A06
000D
090E
0508
0209
0101
0C04
0101
0D0C
090C
0101
0B09
060C
0C04
040A
0808
0602
0101
0509
0906
010E
0E06
040A
0708
0406
080C
0A00
0906
0502
0402
0209
0508
0709
0B03
0D0E
0102
0D08
0C0B
0003
010D
0704
060E
0D09
0409
0500
0C08
090A
0D01
0C09
0303
0406
0B07
0909
0A0A
070A
0808
0A06
0907
0804
010A
0400
040A
0606
0C0C
0C08
0E00
0B0E
0406
0D06
040E
0A02
0D07
0109
0907
0E0B
090C
0A06
0802
0800
080E
040D
020E
0C05
060C
0807
0A0D
0903
0205
030E
070B
0805
0E01
0104
0C0B
0909
0508
020C
0105
080A
0C0C
0B09
0605
0A01
0B00
0402
060C
0103
0A0C
080E
0201
0B00
0709
000C
0209
050A
0801
0504
0507
0B0A
0400
0107
0E0D
000A
0B0C
0407
0A0D
0305
0809
0E05
0400
0406
0501
0403
0E08
000C
0C08
0103
0C0D
0107
0301
0700
0007
0E06
010B
020B
0008
0605
0801
0805
0D0A
0807
0905
020D
0E06
0B0E
0C0A
0E0D
0609
0703
0200
0709
0A00
0C0D
0100
0204
0D03
0201
0B0A
0B06
090B
060B
090D
080E
0105
0E02
010A
0C02
0D00
0A04
0502
0D01
0D07
010E
0B03
010D
0906
0008
0105
0107
060C
0406
0A00
0002
0100
0906
0308
0309
0807
0000
0700
0304
0B00
070B
0C0A
050C
0A07
0C09
0104
0D0D
080C
0E0E
0900
0E06
0708
0609
040D
0200
0602
0D0D
0B03
040E
0E08
0007
