00ED
0072
00DC
00E0
005B
00C8
0015
0022
00A4
00BB
0058
00E1
00C3
00BA
0063
00CC
0084
0063
0052
0011
00EA
002D
00BA
00BB
0010
00CE
0050
00E4
00B1
0031
0099
0067
0071
0027
0097
00E2
003A
00E7
0056
0084
00E6
007B
00DD
0064
00EB
00E1
00D3
0088
008E
00D1
006E
0049
0075
000A
00A0
0076
001A
00AA
00E3
0048
0001
0068
003E
00E8
0087
0009
00B1
008E
0058
00C5
0059
0060
0031
0029
009A
00C3
00C4
00EA
005B
006E
00C8
0099
0068
001D
00B1
0033
004B
0004
0069
00B1
0072
0055
00C9
0074
0043
00E4
007B
00E7
0055
000A
0073
00E9
0034
000B
0076
0020
00B6
00A9
00EA
00D3
00D7
000C
004A
0026
00D4
0014
00DD
00A9
00CC
00A8
0009
00AE
0035
006E
003D
00A3
0000
0032
0014
0083
0057
00B8
009C
0010
0063
0051
0019
00CC
002E
004C
0087
00DC
00BA
0009
001A
00C4
007B
0047
0023
00A6
0068
00BA
0095
00B3
003A
00D6
0053
001C
0037
0010
00A7
0076
0013
00CC
0005
0083
008A
0078
0083
00D8
008B
00EC
0007
0040
000D
00E1
004E
00AB
0058
00C0
009C
0043
0085
00A0
00C7
0039
00E6
0003
0081
0031
0063
0048
00D2
0021
0046
00B9
00A3
00AE
0079
0036
0077
0034
0056
00BC
0027
0081
00E1
0047
00D6
00A7
002A
0033
0056
003D
0025
0035
00DB
005E
0041
0067
0099
0035
00A8
00CC
00E4
00DD
009E
00CA
006C
00AA
00B1
00D0
00EE
00E3
0084
0017
00C5
00E7
00C4
0047
0081
007E
005C
00E9
00B3
0040
0007
005C
00B3
0058
004C
0064
00BD
00AB
00CB
000C
003C
00C2
00D9
0056
00B5
00A9
00AB
00A2
00D9
009B
005E
0015
00BB
00BC
0094
00EA
00DB
0065
0012
00AE
002C
0021
0053
008D
0005
0073
00C9
0085
0032
0015
00C2
00E9
00EB
0078
0043
00A9
0079
000A
0007
00CB
0033
0025
0037
0026
00BA
00B7
0057
0087
0063
0077
005E
0056
0086
0002
00C1
00D3
003B
00C8
0035
0061
00BC
007D
0082
0000
007B
00D1
00AC
0032
00DD
00DB
0031
0063
00A8
0076
007B
0025
00D6
007B
0018
00B1
00EE
0069
0080
0055
0048
0091
00B6
00DD
00AA
004B
0037
0085
003D
0066
009B
0040
0048
00AA
00D3
0078
005C
002D
001A
0091
00B4
00E8
0032
0044
00D4
0076
0009
00DE
001E
0052
00E9
00AE
00D1
0028
0081
000C
0051
0094
0064
00C5
0044
0052
0094
00A5
00BC
0062
009A
004B
008E
00D8
009B
009C
00EB
00E2
00E4
0015
0005
00B2
0020
001D
000B
000C
00E4
0098
0085
0079
0074
0043
0088
005D
00D3
0047
0096
0069
00B4
00C7
0069
0020
0079
0094
0099
0002
003D
00DA
00E2
0042
0043
000C
00B9
009D
0006
001C
0011
007B
004B
0033
0051
00EB
0003
0042
0069
0032
0099
003A
00D0
005E
007E
009C
0015
0000
00E4
0005
0082
00E1
0072
0063
0060
00BB
00A1
0043
001E
0041
001A
00D5
00E4
00C3
0024
001E
0022
00AD
00DE
0024
005A
00BA
0071
0091
00CC
0073
0070
00B0
00D4
0002
0095
00ED
006A
00DA
000C
00C5
00EE
005E
004B
00BB
0051
0072
0005
00C7
0028
00C9
0046
000C
00CC
00C4
00C3
00E7
0032
0088
0092
0027
0035
0094
009E
0047
00B3
00C9
0010
0021
00B4
0023
008B
00BD
006E
003E
00D4
00DA
0021
0060
0005
0093
00BE
00A2
005B
00C0
0028
00E2
005E
00C4
009D
0048
0072
0063
00A6
0063
0015
00E0
0067
00D3
0056
0044
002B
00D5
00A8
0046
008A
0010
0037
00C4
00BB
0068
00A7
0023
0068
008A
00EC
0096
0022
00A3
003C
0087
000A
004A
003E
00AA
0040
0093
0022
0097
00A0
004A
00D0
0079
0019
00B4
0043
0046
000C
00DB
0082
00E9
003E
00A4
0003
0066
005A
0080
002E
009A
007B
009C
0049
000C
00BC
0035
0050
00A7
0012
00B6
0032
00D0
00D5
0033
0097
0035
0074
00D3
00D8
002E
009E
0039
00DA
00EA
006E
00E9
0057
001C
0008
00CC
0031
0033
00BC
0036
0049
0039
005C
0040
001E
00E9
0014
00DE
00B0
0046
00B2
007B
0009
003A
002A
00C4
0074
0036
0093
0015
0034
0050
000C
0050
0044
00B0
00AB
0079
0051
00C3
0071
007D
0065
009A
0036
0059
004E
0037
0017
0005
0017
009B
006C
0083
0062
009C
0045
0056
0085
0001
0037
00E1
00D7
0022
00DE
000A
0004
0019
0031
00D3
00D4
00B8
00A6
0075
00B6
000C
00B5
00C7
00C0
00D1
0033
0019
00BB
006D
00AD
0044
0018
0044
004E
0004
0069
0077
0020
0078
00E1
00CE
0099
002D
0007
00B6
00A1
0043
0022
0078
000A
0068
0039
0090
0013
00B0
00D3
004B
000E
009D
0059
006D
0034
0036
004A
0058
0009
0010
008A
00E5
008E
000D
0084
0069
00C2
0078
0055
00E7
00E8
00D0
00B3
0052
0066
00CA
006B
00EC
001A
00CC
00D0
00D7
003E
0076
00E0
0039
0039
00C3
0023
006C
0003
007C
0066
002E
0032
005C
005B
0020
00B0
007E
0096
0099
0080
005B
0000
00E9
00C1
00B2
0066
0095
003C
0055
0099
00C8
0023
00D1
001A
00DD
0018
0042
00AB
0088
00B6
0068
007B
00B5
0023
0014
0006
003A
0011
008B
00D8
0019
0056
00DA
00A1
008D
00C0
00A8
00E3
0043
00DA
0059
002A
00E2
00AA
0034
0099
00D8
00B0
00E8
0076
0026
0049
0020
0007
0033
00A4
0087
00C5
0044
0030
0035
00E5
0038
005D
009C
009E
00D3
003C
0029
006C
0065
0066
0031
008B
009A
00B7
0001
00DA
0069
00AA
003C
0071
003D
0016
004D
001D
007E
0032
001B
009C
000B
004A
005B
0071
00B0
0097
0027
0096
0080
00A2
004E
00E7
0071
006E
00BC
0032
0044
00DB
00AA
000A
00D1
00D4
003B
0082
0006
00E1
000E
00BC
00B6
0053
00B3
00A4
004D
0043
00CB
0008
00ED
00EC
00BA
0003
0039
0006
00D1
0083
0053
00A8
0093
0074
003E
002A
00D2
0074
0098
000E
00A5
0089
008A
0036
0029
0034
0074
00C3
0014
00B7
0069
00E3
0026
009B
008C
0030
00D6
0036
001A
0034
0002
0079
0091
0070
00A7
003D
0081
0003
0070
00DD
00D3
00AC
00BA
0028
0018
00DD
0071
00A3
00BC
0060
008B
0077
00BB
00A9
00AC
0016
0018
0007
0015
0046
0038
0094
006B
00E6
0097
0021
000C
002E
0025
0039
00AD
0085
00E0
0093
0032
00EB
0054
0077
0034
0014
0047
00C7
0089
0060
0081
0030
005C
0050
00B9
00A2
009A
0081
009E
0010
0064
0070
0072
0056
0000
0097
00C4
000C
00D2
0065
0062
00E1
0031
0066
0052
000C
0028
0077
0030
008C
0085
0083
005B
006B
0016
004E
0026
0023
009B
0013
00CE
0069
008B
00E1
0082
0081
00C6
004D
0050
005E
00A2
0060
0039
00BE
0072
006A
0057
00A6
008E
0091
0013
00EA
00C4
00C6
00B3
0073
00D2
009B
00C4
0012
0002
00A4
0007
00E7
00C9
00C4
00A9
005D
004E
0031
003C
0060
001E
0004
0083
000C
00D7
0062
00D8
00D0
0084
00D8
0007
0017
0086
003B
001C
00DC
00B0
009C
007C
00E4
006C
00D1
000C
0041
00E2
00B0
0051
0010
0013
00CB
009D
001C
0051
00EC
0081
00B2
00C5
0004
00E2
0062
0065
009E
0080
00C8
000A
0098
0058
00D3
00CE
0072
0065
0029
00A9
001E
00C5
0017
00BB
00D4
00BC
00B3
0073
0058
0064
0018
00BA
0004
0078
00CB
00DB
0008
0062
0088
0032
002D
00CB
0088
0031
0040
00A4
00C0
0021
00A7
002A
0059
00B9
00D2
0028
00EB
00DA
00CA
0066
0045
000A
0004
0044
001D
0001
003E
0053
008C
00B4
00BC
002A
0043
00D7
00A5
0072
00E4
00A3
0023
00B3
00DE
0082
00ED
0029
0028
000D
00D3
0086
0048
001B
006D
00B1
0087
004A
005D
0092
008E
0005
00D9
0073
0066
0074
0059
0026
0061
00C9
002B
0033
00BB
00AD
00C2
0083
0019
0018
0098
0037
00E4
0088
00C8
0012
001E
0015
0003
00BD
0020
006A
0071
00B6
00EE
0061
0067
000D
0035
0049
0049
00C3
0080
0083
00A9
00D9
006C
00D8
0043
0002
0007
003B
0054
0050
0003
00EA
00A1
00C6
00A5
00B5
0012
000C
004A
00B4
007E
004A
0042
008B
001B
00CA
0080
001E
00EA
0076
0006
00B6
00A1
004B
0040
0049
0062
0056
0030
00CB
00DE
00ED
006D
001B
0065
0075
0021
00EE
0003
0021
0096
00A5
0079
0041
0044
0088
0034
00C9
002C
0065
0004
00A7
002A
0097
003D
0015
0001
005D
0067
00A8
00E3
0029
0051
0010
00C5
0090
0089
00C0
007C
008E
00A1
0050
00E6
0071
000A
0073
00D7
0060
003C
00D0
007A
00B3
00C0
0003
0039
006E
00EA
00AA
000C
00E8
00BD
003E
00D6
00CA
00D2
00E3
0057
000E
0027
00B9
004C
0051
0048
00ED
00D9
0041
001D
0048
005A
007C
0021
00CA
0064
0074
007B
0039
0006
0008
0098
0041
0084
0015
005B
009B
00EB
00EC
00E9
0054
00A3
00AA
0088
0031
004C
0002
0011
0027
0084
00D4
0045
00D6
007B
0061
006C
0021
0068
0024
00C6
00C4
0010
00AD
0054
0013
00D5
0089
00E4
00D4
0078
004D
00BA
008E
00AB
00EB
00E1
002D
0079
00A5
00A2
0065
00D3
003E
003D
0026
0042
0054
00A4
0030
0026
0067
00BE
0088
00B6
0000
004C
00E8
0073
00B7
00A5
0093
0001
00BA
0081
0066
00E0
0011
001E
00D6
0052
0041
001C
0013
00AC
0064
006A
0070
005A
008D
0089
0096
0013
0089
00A9
004B
0091
00AB
0000
005D
005C
00D9
00B6
004A
000A
00A5
00C9
0086
00C0
00A4
0052
00EE
004A
005C
0034
00E1
0087
003A
0049
0022
0009
00C1
0003
0019
00AA
005D
003D
004D
007A
00A4
00D6
006A
0008
00A8
007D
0008
00D5
001C
0048
0046
00B3
0013
007B
00AE
00C0
0035
004C
00CD
009B
00D6
00E8
00E1
002A
0003
00EA
00AC
005A
000D
0079
0006
00B1
00A9
001D
00C1
00A6
0025
0064
00C5
00C5
00B0
003C
00B0
002D
00C9
0034
00DC
005C
00E6
0030
0015
000E
0074
0095
0005
0010
0036
00B0
0098
004D
0087
0039
00A8
008E
007C
00B9
0028
0015
002B
0076
004C
00DC
001E
0094
001E
0071
0043
00E1
00A6
00BE
0010
005D
00D0
0047
0081
0024
00D8
0004
003C
00C7
0055
00C1
009A
00A9
0058
00B1
00B5
0003
0052
00CA
004E
00D7
00CD
0048
000B
00AA
00AE
009A
0025
00AA
0031
003C
00D8
0073
002B
003C
00A7
00C7
0023
0078
004E
00D3
00E4
0036
0049
00B6
00BC
0076
00A9
001D
0078
00AB
00B8
0070
0032
00D0
00C1
005E
00C1
0027
0079
0002
000C
0021
0071
00DC
00DE
00EC
0091
0014
0022
006D
0058
0075
005E
000B
00C0
00C9
007D
00D3
0098
0098
0061
004D
007E
0068
002A
0094
0035
00AB
00B4
00DA
0013
00D3
00CA
0018
0040
0072
003B
009B
006E
002D
0095
00B2
00CE
0079
0083
0016
0091
0032
0075
0030
00C2
0095
0051
00A5
0091
008E
00B6
002D
008A
009B
0025
00D2
0062
0080
0088
0069
0058
00DC
0011
00CD
0066
005A
00B8
004C
00C6
009B
0024
0006
0081
0010
002B
0004
0072
0058
0095
00B3
0012
0027
009C
0001
0077
00B9
0027
0096
0036
0040
00C9
0097
00D2
0016
0066
008D
007D
0086
00A8
00CE
0091
0017
00E0
00E6
009E
00AB
009A
00D8
00A3
003B
005A
00E9
00D9
00E9
003C
0095
00B2
00AC
001C
000E
00CD
00E1
0093
0047
00A4
005D
0024
00B5
00C7
0004
0089
0031
00D3
0020
009B
00A8
009B
00BB
0024
009A
003B
0053
00DA
00D1
0098
0092
003C
0007
0073
006B
005B
0054
001D
00BD
00E8
00D9
0010
00AA
003C
0010
0087
0078
0089
0042
00B4
0084
00E6
0048
005B
0096
005E
000B
005B
0036
00B0
0078
00D4
000A
003A
0069
0043
0079
0025
0073
00E8
00BC
0087
0090
00A1
0040
00D5
0049
0074
00EB
00C3
00DA
004D
0017
006D
00B8
0075
00E0
00A3
00CB
00A5
00EE
0078
00C1
0011
00E5
0062
00AA
007A
00C4
00AC
008A
0017
006E
006B
00A5
0040
0002
00EE
0014
00C2
000D
00B6
00A6
007D
00DB
007E
00D5
006E
0014
0079
0028
00EC
009E
00E5
00B8
00B9
007D
0057
0084
00A4
0059
0082
0026
00B5
0036
0025
00CB
00B6
002A
009A
0013
00B9
00A7
0019
0053
00BE
0060
0021
000C
001A
0054
0057
0059
009A
001C
00D2
00C5
0097
0038
00C8
00B8
0010
0041
0054
00A2
0049
009A
002B
003A
0028
005D
00C2
00B2
0014
0045
004D
00DA
00D8
009B
00D2
002C
0047
0074
0025
0080
0083
0033
00EA
0001
0077
006D
0013
0060
0099
0041
0065
0077
0058
006C
00CC
006D
0079
008A
0054
0071
0070
003C
009E
0012
0045
0063
00EB
004D
0090
00C3
000C
0024
001E
00A3
0040
006B
007B
00A4
004E
0011
0053
006A
004E
007C
0015
00B5
0093
0098
0005
00CE
0079
0035
0094
0041
0087
000B
0046
0095
0019
0028
00AA
00A2
00D5
00B5
007B
0080
00DB
00D2
0098
0058
00B0
004E
00E4
005B
002A
00A6
00C6
00C0
0028
0056
00EC
0048
00DA
00E1
00DC
0013
0078
00D9
001D
0045
0089
00B4
0075
005B
0039
003D
0088
00CC
0006
0099
0012
00BB
00B6
009A
0089
00A9
0024
0046
006D
00E1
0052
00D0
0015
008C
00A4
0080
00C1
0065
00B7
0047
0012
0054
0081
00A3
006D
0038
00C0
00CA
0053
00AB
00A5
0080
004A
008E
0059
00B0
0051
009B
00CD
0006
003C
0000
0015
0075
00D7
00A2
005A
00EB
0014
00BA
002D
00CC
00A0
00B0
0039
0047
00A4
00C0
0005
00AD
0018
00A9
0012
002E
0059
007B
00C9
00E6
0025
0074
007A
0051
0016
00B2
0049
00A5
005C
00C2
007C
0069
0025
00D2
0030
002B
000D
003C
00AA
00C1
0051
0044
00D4
008B
0051
002B
006A
00D2
0083
008A
006D
0073
0077
00E9
00E4
0012
0058
0034
0054
003D
001B
00C0
00D2
0046
0053
00A9
00E3
0049
00C8
000D
007C
002B
004E
00BE
0018
00AA
0001
00DB
0003
007D
0096
0097
00E2
0051
0099
0038
0063
0082
00D8
0084
0019
00E4
000B
0096
0091
0094
0039
009B
00E4
00D1
0014
00A5
00A0
007A
0040
00B9
0090
0085
0048
0068
00C6
005C
00A6
00E1
00B3
0061
00EC
0051
00EA
0007
00B6
00C0
0015
0001
0004
00A5
002D
00C3
00EE
0029
004A
00CC
008A
0030
0038
00CE
00CD
00B7
0038
00AB
0058
0059
003E
00BD
001C
0017
00D0
00E6
0074
00A5
0067
0027
00D2
009B
0004
0080
0063
00C2
006A
007B
000B
000B
0071
0079
00C7
008C
008A
0029
0014
0088
0096
00EE
0026
00DE
005C
008E
00CC
00AC
00C4
00E0
005E
00C5
00AE
0072
0084
00C7
00BA
0033
000A
0025
00B0
0071
00DA
00EB
0016
0060
0082
00BD
0016
0039
00B0
003C
00DD
003E
00B1
002C
00DA
00E2
00D8
00C3
00D7
00E1
009E
0027
00E9
00B8
0047
0098
00C3
00D0
0021
0096
00C6
0075
008C
00ED
0018
0094
00A5
007D
0099
00EC
0067
0045
0010
001D
0009
0074
0047
0064
00C0
00B8
00AC
0018
0072
0072
0025
009C
00BE
0038
0081
00DD
0023
0080
00A0
0094
00DC
00DB
00E5
005D
0096
007C
0055
004A
001D
00B2
0044
00C0
0066
00E6
003C
005E
00E1
0042
0097
006A
00EE
004E
00D2
001A
002E
002A
00A0
000C
0042
00C6
0014
00B0
002C
004E
0052
0076
0082
00B0
0011
00AD
00D2
00D8
004A
00C2
0092
001D
009C
0087
00DC
00DD
0037
00D4
0053
0052
0090
00C1
00C7
00BE
0075
00DB
00B3
001E
004E
0058
00A6
0043
0003
006C
00D0
0093
0072
0087
005B
00A7
0036
0064
00A6
0096
0058
002C
0055
00A2
004D
00C9
001A
0076
0069
004C
00C9
00B0
0020
00CE
0002
00CC
0055
0090
00DE
00BA
0024
00D2
0041
0095
0029
005D
00B6
0082
00A8
00AC
0087
00B4
0055
004B
0025
00A1
00A6
006D
0045
0068
0001
0074
00A8
00B4
0076
0066
00E4
0006
0034
0029
003D
007C
000C
0068
00E5
00CC
00A9
00D2
00E2
00B8
000A
00E5
003C
0060
00AA
001B
00D2
00E8
00A8
0049
0062
0010
00B4
00E6
0010
00D3
008B
0024
0013
0043
00DB
00D9
0043
0077
0091
0004
0089
0023
0054
0079
00D6
00B6
005A
008A
0045
0057
0094
0043
001C
00CC
00AB
0038
0057
0073
00AC
00D9
00C7
0096
00E6
0017
004A
005C
0029
0024
00CE
005A
00C4
0051
0071
0006
0007
00E3
008B
008D
003A
00C3
00A5
008E
0097
00BD
00C8
0030
00B7
00E6
004C
0047
0068
0060
00E9
0030
003B
00DE
0029
0072
00E6
0087
0063
00E9
00EC
006A
00D7
0051
00C6
0070
008B
006B
0047
0080
0025
003D
002B
000D
00A9
0063
0028
0039
0027
007D
0092
0087
0041
00DE
00B2
008D
006A
0097
0094
0046
0054
006D
0074
00E2
0009
0069
00B7
00C6
0008
001A
0036
00D8
0087
0083
00EC
008A
0084
003E
0001
009D
0038
00A1
001D
0019
00D1
0087
003C
00AA
0070
0028
00D9
0048
00ED
000E
00CB
000E
0090
0083
0007
008E
000C
000E
0031
0056
007E
0095
00A8
0066
008D
00C2
00B8
000E
0022
005E
0068
0016
002E
00E7
008C
0099
0020
0027
0046
00D4
002E
00EE
0008
0019
005B
00C2
0078
00DA
00EA
0004
0046
00C0
0026
00AE
0031
0039
0081
000B
0016
00B2
0039
002A
000A
0065
0053
0091
00A1
00D2
001B
00A3
00B5
00E4
0012
0007
00E2
004B
0037
0022
00D6
0022
0023
0081
00A9
00C1
009B
0024
0095
008E
00B2
0030
0050
00B1
00B6
00CA
0078
005E
00E5
0032
0090
0073
005C
0043
0013
00C1
003E
00B6
0016
0035
003B
0061
002C
00CC
0022
0007
0066
0034
00E7
0014
0028
0085
0096
0087
000A
00DA
003B
0071
0044
00CD
008B
0084
008D
0064
009D
00CB
0038
00CD
0077
0061
0076
0061
000D
0064
000B
0074
00BB
00B3
0096
00D4
0067
0088
0033
00EC
0055
0068
0064
0085
00E1
0020
0091
007D
00B7
0088
0074
0066
00A7
0060
008B
0066
0027
00DA
0088
001E
007A
0053
00B5
00EB
00CC
007A
001C
00DB
0085
00D1
006A
0092
00BA
00C9
00D0
005E
0038
00A3
006A
000C
0010
0078
00C2
00DC
00A2
006B
009C
009C
00E7
0088
005A
002B
00E9
008B
0084
00D8
0032
00EA
006D
0023
00C1
00A0
0055
00E5
00A3
0089
00BE
0039
0004
00D2
007C
009C
0041
005B
00E3
00D3
008C
0058
0069
0042
00AB
0035
0048
0013
0000
0024
00D7
0000
0081
00B1
0086
00C9
0076
00ED
008E
004E
0025
0056
00B6
0059
0095
0027
00AA
00B0
0013
0047
006E
00D4
002A
0016
0076
0075
0038
003C
0066
0078
0085
0022
00C9
0050
0032
0025
006B
007D
0004
0066
000A
006D
003E
0034
0044
00C0
0091
004D
002C
0071
00C7
007C
00D5
00BD
0000
003A
0089
005D
00AA
0000
008D
00C0
0029
002D
0002
0086
001D
0062
0047
00C8
007E
0045
009E
0060
0085
0010
0010
0055
0052
00AC
00EC
006D
0066
00BA
0075
00CB
005C
0025
009C
0072
0017
002E
0086
0036
00E1
0078
008E
0088
007A
00A7
005C
00CE
0055
0010
00AE
003D
0064
0089
0098
0053
0010
005B
0053
00D5
008C
0014
0000
0065
00A8
0095
00E0
00B4
0061
00EB
00E0
00DB
001C
0041
0037
0093
00B3
0010
00E5
0054
0019
0078
0086
003D
0078
005D
0087
00D9
0063
0054
00E3
00D9
0054
0007
00D6
00C5
0074
00AB
00B8
0024
0002
0066
000E
0055
0064
0010
0046
0002
0053
0037
002E
00E6
0070
0041
00A5
0065
0022
004B
002D
0020
0037
0097
00E9
00E4
0077
00E4
004A
0003
003D
007B
00D3
0016
0003
002D
00A8
00DC
00B9
00EB
0042
0061
008B
001A
0081
00E3
003E
00A6
0094
00CB
0041
0098
00A6
007D
0075
009A
00E3
0007
0013
0037
0006
007B
003B
0065
00BB
0092
0034
00D1
00ED
00A3
0034
002D
0043
0046
00B7
00AA
00CC
00D0
0041
009E
0022
0095
0059
000D
0084
00D1
0064
00D1
002E
0024
00C0
0045
0083
0034
0044
0008
0099
00AC
0056
00E6
0066
0031
0051
001D
00AA
0046
0067
00BA
0080
0056
0092
007A
0009
00AB
0051
0001
00E9
00C9
0015
003A
0005
0094
0080
004B
009A
0056
00D5
00A7
00DC
006E
00CA
00DB
00E3
0097
0038
0095
0093
00CD
0032
0035
003D
00B8
00A9
0020
0049
00C5
0034
00D9
003E
0055
002D
0028
00D4
0081
00BA
000D
00C4
0004
00EB
0026
0099
0098
0006
001B
0042
0094
007B
0007
0067
0057
0017
00DC
0060
006D
0032
0030
0001
0021
00EC
006D
0070
00A2
0058
005E
0056
00A1
0098
00A0
008C
0069
0004
00D6
0088
0027
009C
009A
00BA
0008
00B8
00C6
00C0
00A4
0021
00D9
0057
00D6
00BD
0055
0021
0055
00BC
001C
004E
00A2
0083
00C0
0044
002C
007A
00A4
00C5
006D
0059
00A9
0087
0031
009A
0054
009D
0038
00C2
0032
00A7
0090
007C
009E
0049
00D0
0024
0020
00A5
00D3
00E9
00D8
00DA
003C
00A3
00A8
00C5
001A
0088
0046
002E
00DE
0061
002C
0032
0006
0040
00B3
005E
0048
00D3
0066
00DE
0069
0096
0010
009D
0035
0094
004C
0006
00C7
00E9
00C1
0070
0046
00E1
0016
00CA
00C5
0023
00BC
0054
0088
006A
00DC
0047
00C4
0092
00E8
0082
0040
0041
0061
0038
0069
005E
00D3
005C
00D5
0028
006A
0085
0089
00AB
00B9
00E9
0023
0021
009C
0008
0078
0011
0045
0006
0014
00E8
00D8
009A
0000
00D7
0006
0009
00B6
005C
0084
0052
00EA
00C0
0079
00DE
0060
0088
009D
0083
00ED
003B
0031
0065
00B3
0060
00BD
00E4
00C5
0065
002D
0044
0077
0037
005A
0030
0034
0094
00BD
0095
0038
0016
0096
00DB
0044
0048
00A3
00BD
0024
00E2
002A
0079
0019
00DD
0013
00E6
00CA
00BC
0046
0050
0097
00E5
0034
0033
00E7
0096
00D0
009B
003D
00A1
009E
002A
00A1
00AB
005C
001A
007A
0021
002C
004C
0061
00D7
00ED
00EC
0074
0050
0028
0011
0002
001E
0062
0005
0096
0025
00AE
006D
0037
0077
00D4
00C1
0098
0043
0038
0001
0049
0085
00C6
0003
001D
001B
004E
0098
006B
00A4
0074
005C
00E8
0062
0064
0031
00BC
00A9
0009
002C
0081
00BB
00CB
0036
00BC
0088
0092
0095
00E7
00A3
0087
00DA
008E
00ED
0051
0054
006A
007C
001B
0077
00BE
00D2
00C1
003D
0056
0014
0008
00E8
00B0
0036
0096
007B
0076
0044
00D6
00BA
0016
0055
008C
0013
00AA
00EE
00C2
008E
0065
00E3
0075
007E
00C7
0094
00A8
0016
00E0
003C
001A
00D8
0071
008B
004B
00DC
00A4
0073
001D
0091
003D
00CB
00DC
00B9
0041
00DE
005C
003B
00E0
00CE
0059
00CC
00AC
00A2
0083
00E8
0096
007C
00D1
0046
00AA
00AE
0046
0032
00E2
0011
0095
0044
0044
00D1
003A
001C
0020
00CD
0079
00C6
00B2
009B
0046
008B
002B
00B0
0025
0061
0052
0077
00E2
005B
00A5
005C
006C
0010
00DB
00B5
0047
00DA
0063
000B
00A0
00D9
00D2
00C8
00E3
00E6
0013
0008
0028
0003
0079
007C
000E
0081
00A6
00C5
004A
00C5
009C
001E
0082
0040
0011
0014
00E0
0059
0059
0009
00B7
00D0
0093
009E
0048
0082
0099
0034
004E
0048
00D0
00AA
0056
0017
0058
0035
005D
004D
006A
005A
00C2
0046
003E
0088
00D9
00AA
00E3
007A
007D
00A3
009C
0083
0078
00DD
0096
0003
00C0
00E2
0037
0028
00B4
004E
008E
00DB
00D5
0034
0050
00C9
003A
00B6
0090
0018
00D9
0029
0034
00B1
00EC
001D
00D4
00A6
00DB
0028
0015
00AB
0082
00A3
00E4
008D
003D
003E
006B
0067
0028
004A
00E0
0064
0034
0003
0063
00E1
002D
003D
001C
005D
0051
00D6
0046
008B
00A0
0009
009E
0022
00EB
009C
004E
0037
0028
008C
00CD
0096
0085
00B0
004A
005A
0028
002A
001D
0038
0063
0098
00E6
0051
00C4
00AC
00B9
0060
0004
0033
009E
00D4
0000
0084
007C
00BE
0073
0085
0074
0092
0069
00B1
003B
005A
0004
003B
00CC
00B6
0041
00C0
00D4
0039
001C
00A4
0059
00D5
00D8
00E5
00A4
0039
00D6
00E4
007C
00B5
008E
0059
007D
00AA
0019
0073
003D
0031
0052
0057
00AA
004C
0041
007D
0050
0041
009B
0039
0052
0051
00A1
00E4
00B2
0062
00AA
0046
0061
00BD
000C
000D
00C2
0029
0035
0096
0045
00C8
00E7
0034
0010
007A
001E
0050
004A
0001
0054
009D
00E8
006B
00E1
0012
00C2
0015
00AD
00B3
0001
00E4
0097
002C
0072
00B9
0088
0009
0084
0014
0030
0022
00C1
0097
0023
0066
0031
0009
0066
000E
001D
0019
00C6
005E
001A
00E1
00CE
0010
000B
0087
0088
0077
001C
0035
0040
0026
00A7
0001
0062
00D3
00CA
006C
00DA
0025
00D3
0020
00DB
0039
00CD
0085
00B9
0054
00E2
0093
009A
00A4
0092
00E2
0047
006A
0000
0089
0083
009A
0070
00EE
0018
0037
00A0
00B4
002C
00C2
00EB
0071
0011
00AD
00BC
0033
001D
00E9
0080
000E
0043
0065
0097
0011
0008
00C1
00D9
006E
00CC
0080
00D9
00B4
0084
001C
00C3
0087
0041
0089
00E2
005E
0082
0016
007C
00E8
0080
0093
002E
001B
00EA
00D7
009C
00CA
0053
0010
000B
0027
00A6
00E5
0026
00AB
0087
00AE
0066
0018
00B1
000B
00DE
00A8
0059
00A6
0054
00E8
00DE
0007
000A
004D
00C7
0087
0002
00E6
0042
00CC
008C
0075
00CB
00B2
003C
0045
0092
0036
0055
0067
00CC
0056
0002
000B
0093
004D
002E
00B1
00A0
008A
00BE
0061
0053
009B
0028
0019
0085
000E
005A
00A4
009C
00AC
0011
006B
0044
0086
0088
0010
002A
00C8
00DE
0003
00EE
007B
0086
0039
00AA
001A
0031
0061
008D
00D2
00A9
00E5
005C
009D
001B
005E
0080
0033
000A
0099
0072
009B
000D
00D2
0014
00E1
005A
0081
0046
00B6
003E
006C
0019
0078
00E0
0077
0020
0006
0048
00A6
0003
00A1
0051
0073
009B
00BB
0023
006E
00BB
00C0
0044
0009
0091
0011
005B
005B
0081
008C
00CC
00AC
003A
003C
009E
0028
0066
0082
0020
0008
003B
0039
0002
00C4
0077
0033
006B
002D
0009
00BE
006A
00A4
0072
00B0
00E7
009E
00A9
0038
0062
0054
00C0
0079
00D4
00E0
0035
00C4
0032
00C5
00EE
0062
00E0
0065
00BB
009E
002D
0096
00E9
00DC
0039
004D
009E
00BA
00EC
0075
00AE
00E8
00D1
00C6
0076
0044
00D7
000C
00CA
0029
0096
00C3
00B3
0026
0036
0002
001B
004E
0065
0083
0065
0088
00C4
0051
00E6
0076
005E
0043
008B
00C1
0064
00C8
0032
0027
00CD
001A
00A7
0096
003E
00B5
0052
00AA
002A
0083
0035
0015
00C1
0035
00A3
0069
00A3
004A
007E
00A5
0009
00E2
0010
00BE
0041
005E
0015
0055
0017
00D7
0089
008E
007C
0061
007B
0052
00DD
00E1
0085
0014
003A
0030
00A8
00A1
00A5
00AC
007D
003A
0079
007B
0088
00C0
0015
00E0
002B
0042
00B9
0050
00E1
002D
0081
0001
00ED
009A
0087
0099
009D
008C
000B
0045
00A5
003E
00CD
00E0
00BA
003E
00D4
00BC
0009
0048
00C8
0062
0082
0040
00B1
00E5
0038
0037
00D9
0019
001D
00CB
00A3
0051
001B
0098
004E
0097
0000
0047
00DA
00C5
00A1
006A
007C
00C9
00A7
006C
0055
0046
00B3
0048
00D0
0038
00D4
00E9
0030
00E9
0093
00B5
0042
0086
0084
005B
00B4
00D1
0097
009B
0053
00DE
001A
000E
002E
008D
0047
00ED
0097
00B9
005D
00B7
0024
00E4
0059
00EE
00DB
0090
00B8
00DE
001C
004B
0004
00BA
0065
0085
003D
0063
0038
00E4
0035
00DC
00A4
0049
002C
0067
0005
007C
002A
0012
0056
0003
00B2
0042
001A
00E4
0043
00DC
0056
00C4
002B
0077
009E
0016
0047
0085
0025
00E4
0062
005B
0051
00C6
0097
007A
00D9
0036
003E
0032
0032
00D7
00B9
0039
00B3
00B5
00EC
003D
00B2
00CC
008E
00D0
00E5
00A4
00A0
00DB
0011
0076
00BC
002A
00E2
0065
00B4
00D7
0082
0014
00C0
0079
0056
0007
0033
00BB
0014
009B
00D9
00CD
0071
0041
00E2
0017
007E
00BC
00ED
0068
0076
002E
0003
00B2
0070
0068
00DD
0093
0002
00C4
00B9
0064
00CC
00E3
0028
0009
00E9
00D6
00CD
00C4
003A
00BA
003B
0067
0086
00E0
00B9
00CD
0064
00EC
0059
0030
004D
007A
0052
00DC
000E
00BD
007A
007C
00AC
0007
0031
00B2
0020
009B
0060
00D6
0068
0044
00CC
00E7
00D5
007B
008B
00CB
00A0
0085
0080
005A
0074
00AA
00AB
00CE
0027
0061
004C
00A2
00B0
00C8
00A9
00D2
00D9
00D5
0008
00E6
0088
0065
0038
0052
00DC
0015
0064
00D5
008C
0096
003A
00E2
0070
00D6
0010
0016
0084
003D
0026
00C0
00CB
0049
00AC
00DA
0085
0078
00DC
0076
0097
0062
00B6
0006
0082
0076
00B2
006B
00C7
00A9
0008
0083
0025
00DD
0060
0058
007D
0032
0083
0083
007C
00DA
0052
00B8
0083
0090
007B
0086
00E6
0004
0042
00D1
0064
0036
008E
008B
007D
003D
0086
007C
0053
0055
0039
003D
009B
0035
0088
0053
0064
00DC
008B
0003
0057
00E2
00D5
00CE
00A4
00E9
00D3
0035
0001
0011
0068
00C3
009D
0040
0077
00D4
00AA
00D5
0071
0076
0054
0019
00C1
002E
0001
0013
00A9
0043
00CE
002A
0028
0013
0080
0020
007C
0031
00B9
0003
0067
009A
0052
00A5
0013
00E8
009A
0083
004D
00EC
00D5
00C0
00DC
0062
00AE
0071
00E6
009E
0007
00ED
00BA
005E
00CD
00E6
006C
00C2
00D6
00BB
00DC
0084
00B3
0046
0039
00A1
00B1
007A
0099
0072
00CD
001A
00CD
00C1
005E
00D2
0016
0093
0041
0062
00B6
0077
00E8
00B3
009E
0038
0067
00EA
008E
0073
00D6
0021
0068
002D
0084
00A2
00D3
0097
002A
004E
0038
0081
00B0
00E9
004C
0062
0045
00DB
0088
00EA
0054
00D1
0002
0006
0039
00E8
0039
0094
00E8
002E
0035
0010
00EB
0048
00A6
00A8
0015
000B
0038
003B
0047
00C6
000E
0010
00C0
001E
001B
0093
00CB
002E
00B6
00A9
008A
0083
007C
0050
0036
0055
00EE
0095
0082
00D3
0014
0061
0034
00A8
00C9
002A
0087
0049
0036
0092
00AB
0091
007B
005D
004C
0013
008C
0087
0037
0036
00AA
0082
009C
0084
003A
00B3
00B4
00E8
0083
00B7
003C
0015
00CB
0041
0007
0037
005B
00C1
003C
008D
0050
0042
008E
00D5
0045
0004
00CE
001E
00D0
0070
0050
0005
00AD
009D
00B7
0023
00AB
0013
005A
00B1
0017
00C2
00E7
003D
0097
00E2
00DB
00B4
00C2
00B2
0009
00C1
004E
0023
007A
00A2
005B
0026
0049
009A
00B5
00B6
0012
0048
00E6
00C2
0083
0088
0060
000A
004C
00AC
003B
0045
00A9
003B
002B
008C
0092
00A4
0093
004C
00DC
0074
0014
008D
0025
00E2
0046
00AE
002C
00DD
000A
0049
00EB
0074
006E
00CB
0085
0009
00E2
0056
00D0
0069
001A
00AE
006B
0044
009D
006D
0066
007E
00B1
0005
0048
0048
0004
0062
0022
00AA
0083
00C4
0021
009E
00B9
00C3
0081
0092
00A7
0004
005B
00C0
0039
00A9
00CB
00D8
0015
0000
002A
003D
0018
00E6
006D
00A3
00BC
0023
00E1
00CB
0000
0053
0009
0045
0094
0042
00B9
004B
00A0
00D4
00DA
0020
002C
00A9
005D
003C
0055
001A
00A9
008B
00B2
00A3
00ED
0065
002C
0033
0024
0064
00C2
00DB
009A
009A
0077
00BD
0014
006D
0018
0009
0087
006A
005E
004D
00D2
0061
0015
007D
00B8
007C
00C0
004B
0095
003A
002D
0031
0069
0045
0029
0099
00A7
0090
0073
00E7
0016
0046
0024
0063
0074
0001
0078
000E
0071
004E
0007
00D4
004B
00EA
0058
0057
00D8
005A
0052
00DB
0002
00AB
0016
001B
00DE
00E8
0002
0033
0026
00E1
00C7
0008
0000
0087
008C
0032
0074
00A5
00E2
0020
0044
0065
0007
0051
0017
00D5
008E
008A
0088
00A7
00E4
0015
00DA
0046
004D
007C
008D
0081
0020
0011
008E
0077
00AC
0069
0080
006C
00DA
00C3
00D9
0090
00A7
005E
0072
008D
0099
0008
00D3
007A
001E
00BC
0008
00D0
00B9
0061
000E
005B
00EC
0084
00AC
000E
0013
00D1
009D
0085
0064
002E
0034
00C8
0023
0005
0017
001D
00E9
0097
0096
0014
00CA
009B
00D3
00D2
0086
0011
0068
0002
00AC
0000
00AC
0028
007E
00D6
00AC
000A
00AE
0056
006E
0009
0097
00B9
00BD
005B
0014
0084
009E
0059
00AD
0003
0051
0045
00C4
00E7
00C5
0092
00C6
0099
0003
001E
0002
0025
00BD
00B1
00AE
001C
0066
0065
00EC
0065
0074
001C
004C
0035
00C3
007B
00C1
004B
0010
00B8
00C2
00D2
0099
00A2
002D
009A
0034
00D1
00E7
0092
00D0
00CB
0092
004B
0022
00C0
00A4
0070
0011
002C
0008
0014
0009
009B
0084
0010
00DB
0040
0072
0062
0019
00D7
0068
00CD
0037
0077
0081
0035
00A1
008C
0070
003B
003A
005E
0061
0083
00A7
0083
005A
00E6
0030
00B6
007C
00C3
00B1
00A9
0077
0055
0005
0027
00DE
0053
0081
0026
0067
0077
00B1
00C3
009B
007D
0047
0016
0034
00B4
00DE
0023
000C
0054
000C
00E8
00E0
005E
0075
009A
006B
00CE
007A
0071
00C8
0091
00A1
0097
00A7
00C3
00E9
001B
0057
0087
00B1
00BA
0056
0067
007B
000E
0082
001D
00A1
0051
0042
0076
0030
00B0
00A4
0015
00D3
000C
0089
0009
0044
004E
001B
005A
008E
006A
00A5
00DA
005B
0062
00BC
0001
0037
0051
00D7
007E
00A0
00B7
0069
006C
00D6
003E
0077
009E
00B1
002B
00C6
0011
0017
000C
0003
00C3
0068
0020
00D5
0088
0074
008C
0062
00EA
0080
00C3
0083
00D3
0019
00B9
00BE
0001
0073
003D
0092
00D3
00BC
0068
0015
00A4
001D
00DE
0013
005D
006D
00AC
0048
00D2
002B
00BD
0006
0036
00E5
0019
00D9
0078
00DB
007A
007D
0051
0072
00A3
00C1
00A6
0011
009E
0076
00CB
00B8
00BA
00C9
0011
002E
0015
007B
0050
00A4
000C
00E2
001D
00BA
004E
009C
0002
003B
0097
0030
0051
00DE
006E
0085
00EE
0032
0041
0085
0036
0031
0024
007A
00A1
0057
0083
0063
00A7
0059
006A
00D7
0024
001B
0078
0060
0018
004B
0065
0086
001B
0063
002E
00EA
00BA
0098
0079
0045
00DA
006D
0032
007D
00CB
002D
0098
0025
0012
0043
009A
00C4
0000
007A
00DD
00CC
00A1
00CB
009E
0043
0055
00BE
00C3
0052
00AB
00DD
0018
00BC
007E
0060
0034
007A
00D7
00AD
002C
0015
0069
00BE
0096
00C7
00A3
004A
0035
00BA
00D7
00D3
0029
009B
006B
00A2
000A
006C
00DA
0030
0077
00C6
0072
00E7
0069
0063
0042
00D5
00DC
0029
008E
00D2
0000
0020
0022
0056
001A
00A5
006D
00D8
00DC
005B
00E2
00C9
001D
00EB
0088
00D5
0090
00CD
0088
009D
00C1
001C
005B
0002
000D
006C
0013
000C
00A9
0081
0025
0005
00E9
0059
0069
007C
00E4
009B
00EE
0001
009D
001D
0036
00DA
00BC
00A6
0011
000C
006B
007D
0081
0016
005A
0066
0073
004B
0099
0012
008A
0030
0038
0091
0048
0098
00BA
0066
0016
006C
001B
006C
0087
005D
00BA
0059
007B
00D2
0047
00A2
00B2
0021
0033
00A1
0025
0042
0023
00B9
0074
00D8
00D4
00D9
0020
007A
0069
0062
00B4
0074
00D6
0096
0050
007E
00EC
0036
0038
0037
00ED
0018
00A7
0096
00E6
0097
00C5
00C0
006C
0054
00B5
0091
00B2
0088
00BC
0037
00C9
003D
005B
003B
00B1
006A
0095
00CC
002D
00A5
0008
001D
0073
00EE
0081
00CA
009A
0026
0007
003E
00A8
008D
002A
00C5
0041
0057
0056
007A
0055
0059
00CB
00ED
0093
006B
0000
005C
00CE
0099
0039
006E
003C
00D3
008C
0015
008C
00D1
004C
0083
0020
0084
000C
0018
00E0
004B
0033
002B
0019
006B
00D2
0090
0095
0062
0022
00D3
00D8
00BD
003C
00C0
00DB
001D
0004
0071
00D5
0047
00C2
006D
00DA
0081
00E3
003C
005D
00E4
007C
000E
001C
00A5
00EE
002D
009A
00BC
0002
0088
0008
00A0
0058
0069
0011
00CE
00ED
0089
002E
00AA
00CA
00C4
0054
00D4
0020
0064
005E
00B6
006C
003E
0041
0024
00E4
00C8
0093
00B9
0036
0065
0000
007D
0003
00BC
00B8
00C4
0025
006E
00AE
0057
00E1
0046
00AA
008C
0048
0092
0063
0030
0006
0002
000B
00B5
0070
00D2
0099
00CE
0042
007E
00B2
00ED
0000
0059
007C
00AA
0008
0070
00A4
005E
0044
002B
007B
0082
00A8
00C2
0032
0024
006C
009C
00A1
00B9
0006
0081
0044
002C
0007
0019
0014
009E
0099
0069
004C
0011
002A
00A1
009C
006E
001C
00C2
00A5
00B1
0087
009E
0055
00B5
0049
0026
005A
0012
002E
0068
00CD
00CE
0072
002B
0018
007A
00BA
004D
0083
0077
008A
00EB
00EA
00CA
00BD
004B
0058
0095
00CC
0092
00E0
00E6
0083
004A
00A5
00B5
0019
0091
004C
0003
00DC
002C
0074
00D4
0068
0047
00C8
0042
0071
00E4
0007
0025
0097
0024
0099
0018
00D6
008A
0075
007E
0079
00D5
0033
0027
00AD
000E
00A8
0031
004D
0059
00AD
00AD
0029
005C
0047
00AA
0067
003B
0045
00A9
0009
003C
001E
0075
00E6
004C
00E2
00DE
0028
00B9
0068
0007
00AA
0097
006B
009D
00D8
00C4
00ED
00AD
00A0
0056
0025
00AE
0095
00E5
001B
00E4
0032
00EE
001B
00EC
0052
0028
0081
0019
0079
0084
00D7
004E
008D
00CD
0000
0021
0001
00D9
0047
00CB
009A
0051
00EA
00DA
0082
00A6
00D4
00B6
0079
0035
0035
00A2
0094
004D
00B9
0038
0028
005B
0074
0002
008E
00EB
004A
00EB
006B
00D6
003B
009C
0053
00BE
0044
00E1
0019
000E
00A2
0053
0011
0030
00C2
00BA
0065
0057
0081
00A1
001D
0046
00D3
002D
00D6
00AC
0093
0039
008E
0020
00D3
00D8
001C
006C
00A4
004B
0025
0002
0044
0047
00BC
0009
00B0
006E
00B3
0016
0039
0090
00A0
00EA
0041
0027
00E8
0097
001A
00C1
0023
001C
0032
00E4
0006
0010
003B
0018
00BC
00E9
0013
0053
00B4
0029
0030
00BE
00A4
009A
0039
005A
0060
000A
0035
003B
005E
0039
00C9
008A
00C5
00D9
007C
005B
00B0
00ED
00DB
0027
00D4
0073
0005
007E
00B4
002C
00CC
000C
0032
00E3
00A9
00E4
006E
0017
006E
0021
00C7
002A
001B
00B6
0050
0059
00DD
007A
00C7
0072
0004
00E4
001A
0003
0083
0066
0010
00D5
001E
0048
0063
005D
0037
0083
0013
00E8
0096
0065
00EA
000D
00ED
0002
0027
00E7
001A
005B
00D9
006B
00AC
006D
006A
007B
0044
0083
008E
0018
0066
00D2
0038
0004
003B
00DB
0087
000B
000E
009C
00A8
00A2
0045
00DD
00BC
00C5
00DD
007B
00EE
00DB
004B
00D7
0098
0069
00C5
00D6
0091
00A5
00C8
0081
00E4
00E1
009B
0039
008E
00B2
00A3
00E5
0099
00EB
0062
0084
0086
00E2
0032
00BE
00B1
00A4
008A
0020
00B1
008E
00D6
001C
0051
00C2
00CC
0080
00A3
009C
0071
0051
0023
0020
00D5
00C7
0019
0012
0042
000D
0001
002C
00A2
0074
00D5
00C0
00E2
0037
0041
0008
0061
0080
00D1
006B
00BD
0077
0054
0001
0035
0052
000E
007D
0041
00B9
0090
0082
007A
0026
0047
003B
0079
0071
0048
0090
0037
0038
00D2
006C
0042
00EB
00E3
0058
0088
0068
00A8
007A
00ED
0067
00CD
0029
0056
00B4
00C0
00D6
0011
0065
00B2
0082
000B
0015
00B1
003E
0050
00C9
00A0
0009
0048
0044
0028
008B
008A
0035
00A6
0094
00E1
0081
003E
00CE
0089
002C
0089
00A1
00B0
0012
00C5
0076
00E9
00B8
003D
00B4
0029
0097
00A8
0077
003D
0078
0039
00E2
0084
009A
00A9
00CA
00C9
0017
00C2
000A
00A8
0007
00CE
00EC
005A
008D
0020
0091
00BA
0090
004C
0009
0067
0035
00DD
00E3
00A0
00E2
00BA
00A5
0090
00E5
0026
0009
0096
0095
001D
00C4
00E4
0051
006A
003C
0074
0084
0033
002B
005C
0036
00A9
0062
0021
00A0
0034
0019
0053
002B
0042
004E
0078
0041
00AD
00C4
00CC
0069
00C0
0077
0095
00BA
00D1
00C4
0062
00C1
00BB
0056
0066
008C
005A
00D6
00CD
004A
001D
001D
00DB
0059
00EC
00E0
001C
0094
00E1
006A
0000
0020
001C
0051
0077
00C1
00B3
0014
00A7
00BD
003D
0045
0080
0028
00BD
0019
00A8
0083
0054
0008
0027
001B
006D
00B0
00BA
00E4
0012
0064
008B
0042
0069
00B0
001E
001D
006B
0090
0095
0082
00A6
00B6
0016
0055
00CE
00B2
00DB
00BC
0048
0001
00E9
00A3
00B0
00BE
0062
007D
0059
00EA
0013
006D
0058
0042
002E
0088
0020
0029
0092
0028
008B
00A7
00A6
003E
005C
0059
00CA
0006
007A
0088
00B0
00D1
00BC
007D
0042
0021
005D
0027
0050
00AE
00D3
00CB
0083
005E
0009
00E1
0046
0015
0054
0024
0063
00D6
0046
0068
0015
0005
00A7
00BC
00D1
006A
006B
002D
00D5
0087
00EB
0065
0056
008E
00C1
00A7
00DA
001D
00D0
00B5
00B5
009A
00E1
0087
000D
0065
008D
00D8
00D7
004B
0033
00E8
0007
0075
00AB
00C1
00D4
00B8
001C
0090
0040
00C4
0004
00A0
00A5
0097
004A
00E7
007C
0065
002B
0042
00E6
0021
0064
00EA
00CC
0020
0051
00DE
00C3
00C6
000E
00C0
00AD
00C1
0099
00B1
0051
0011
00E6
0020
00D1
007E
009B
0061
009D
00A5
003A
0006
0023
006A
001C
0024
0056
0058
00B2
0070
00C8
0021
0058
0066
0027
0052
00AD
0099
004A
000A
00E8
00ED
0051
004A
009C
00ED
0042
00BC
005D
0028
00D3
0027
00CA
00B1
0069
0079
001E
0071
009A
00E6
0062
009E
00BB
00B5
00D1
0024
00D0
00B5
0061
0010
002B
00C0
0011
0017
003E
0070
00D8
0050
00D3
0041
0074
0030
00A9
0040
0075
0045
00D2
0086
0022
001C
0016
0083
001A
0012
005A
008C
00B0
00D9
004A
004D
0071
00BE
0089
004D
00D2
000A
008E
007D
0045
008D
00B0
0029
00D4
00DA
009A
0099
00C0
0015
0073
00D0
005C
004E
000E
002E
00E7
0003
001C
0097
0061
00B1
0049
00BA
0070
0031
0038
00EE
0043
0041
00E2
00CE
004C
0021
0054
0036
0008
004B
0014
0086
0064
0022
00E6
0082
0004
0035
009B
00E5
008E
0056
00B5
006D
0080
00E8
0074
0034
0029
00E4
0090
003D
0062
00DE
00A6
0007
0044
00CB
0009
00BD
00AE
007C
00D1
0014
0098
00D5
0016
00B1
00BE
0093
00C3
0091
00E4
0039
009D
00B3
00AE
0008
00CE
00C4
0048
009B
0003
0066
005E
0027
0033
00DE
005C
00AA
00E6
0078
004A
0051
0035
00CE
00DE
0018
00B4
00D8
0088
0023
0068
002C
00E0
0067
001A
008E
0093
0020
00B7
0001
006A
009E
0062
00C4
00BB
00AA
0087
0095
006B
009E
0084
000A
00A5
0005
0046
0039
0024
0050
0012
00CE
00A9
00DD
0096
0060
0011
006D
0005
0039
0000
00DE
0036
0068
00D7
0033
001A
0026
0000
0076
007E
005A
0053
0027
006D
0049
0020
0081
0091
0069
000B
002D
008B
00BC
004A
00B8
0039
001C
0004
0071
0005
00AE
00E0
0042
0078
0036
0071
00B6
00D2
00BE
0019
0043
0021
0071
00B0
0003
0031
008D
00DA
0091
0076
00C7
0087
0095
00E4
00DE
00DA
00A2
0067
00B0
0066
002D
0072
004B
0007
005B
003A
00A1
00DA
00A8
0072
0007
008E
00A5
004B
009A
00AE
0029
000E
001E
0062
001C
0066
0042
002D
0010
005A
00E2
0096
007B
0060
0097
0064
005B
007E
0010
001C
000E
00C1
008D
006B
00A1
006C
00D3
0011
00A5
0030
00D7
0076
0059
009E
0087
003D
006B
00CE
003E
001D
0096
0052
00DC
00C7
0010
00EB
00B6
006D
0082
00B2
0072
0053
00D5
0077
00E3
007B
0034
003B
0002
0072
00B9
0021
00B1
0074
00A6
00BB
0053
0012
0020
00E6
0053
0096
0016
002E
00A8
0070
0071
0078
00D3
0071
0083
0058
00BE
007C
0054
0007
004B
0058
0096
0016
0026
00C2
0023
00C4
00ED
005D
005B
00B0
0052
00C1
0072
006C
0080
00A8
0090
0052
0089
00A7
00DA
0094
0061
0061
008B
0062
00B1
00C9
0086
0014
009B
008C
00C1
0095
00E6
001C
007A
0054
0057
00AC
00CE
0093
0047
0095
0007
0043
00D9
005C
000E
006C
0019
00B3
0073
005C
00D4
006C
00E1
007B
002C
00B1
00C9
0045
0069
00AB
00AD
005C
0015
000D
00DB
000E
001B
00C7
00A0
000E
0091
007A
0017
005B
0037
0078
00A4
006C
007E
00BA
00D3
0013
00B9
0004
00C7
0091
0046
0040
0097
0064
0056
00C9
0084
007C
00A7
00C6
0017
006C
0013
0086
003B
0094
005D
009E
002D
0075
0044
00D0
006A
004A
00A3
00D3
009B
0015
00E3
0073
00E1
009A
0007
0024
00DB
0002
0032
0048
00AE
0039
0019
0052
004E
009B
0062
0063
0094
00D6
006D
007E
00CE
004C
0095
0019
0020
0013
0009
00D9
00B9
00BD
00D1
0089
00D1
0057
00BA
00AE
005D
009B
000A
00ED
0027
00C4
0091
0039
0063
00B9
00A5
0019
00D3
0094
002A
00E0
004B
0043
009B
0055
003A
0099
00B1
0096
0079
00E5
0079
0080
004C
00D8
0011
00C7
0030
00E9
00AC
0040
0021
00A7
00E8
0049
00AE
002E
00BC
0002
002A
008A
0094
0048
0031
006A
00A0
00BE
0050
0004
00CA
0068
0057
002A
0005
002B
0046
008A
0027
0035
0026
00BA
004C
0073
0040
0017
006B
00CD
0062
0085
0061
00A8
005B
002E
0074
0030
000D
0016
0002
00B1
0030
0053
0087
00BE
0068
0020
0022
0054
0070
00A2
0080
0027
00E4
00C6
0011
00BE
0077
0042
00CA
00E5
0085
007E
0008
0000
0050
004C
0067
009E
001D
0063
0006
00A3
0001
0084
00D8
005B
00C7
0094
0076
009B
0023
007B
00A5
0042
00B9
00ED
002E
0028
0009
001C
005C
00B1
0026
0097
00E5
0025
002A
0066
00DC
0029
00BC
0066
001C
003C
0088
00D9
000E
0060
00A8
002D
0093
0071
001A
00E4
00EC
00AE
0014
00D9
007E
0040
0078
0004
0047
00DE
00C6
00CE
000E
00D9
0078
00E1
0007
009A
0045
002B
006E
0047
0013
00EE
00EE
005D
0030
0076
00B4
0058
003C
008B
00B2
0056
0090
003A
007C
004C
0068
005E
0064
0073
0045
00C1
004E
004D
008E
0078
00AB
0018
003B
0039
007A
0015
0042
0025
0009
0049
0012
0017
001B
003D
0019
0075
00EC
00E2
0097
001E
0060
0027
00E9
008A
00D4
0027
00B3
0022
0065
0084
001C
00CD
0085
0004
00DB
00A6
0040
0060
0078
0074
0005
005B
00CD
001E
0054
005C
0065
005E
0050
00AC
0068
003B
00DA
0066
00A5
00E6
0099
00CA
0086
006D
0036
000B
00E9
0040
006E
00C7
0023
0032
00DA
0020
0090
00D0
0013
00BD
003E
0076
002E
0081
00D2
005D
00DE
00C5
00BC
0015
004C
00C6
0025
00C0
000A
0073
0015
003B
00C5
002D
0050
00E1
0007
0025
0052
00A8
00E6
0049
00B6
0011
0030
00C5
00BC
00E7
000C
0048
0043
00E8
009A
0041
0044
00C2
00EE
0025
00D2
0081
0009
0039
009A
00E7
0094
006E
000C
0005
0076
00B7
00BD
00E4
00B8
003A
0038
00BE
00A9
002C
0025
006C
0028
0029
00C7
00C3
009C
00AA
00D3
0050
0063
00BB
0080
0007
0048
004C
006C
0054
004D
008B
0044
008E
003B
0098
00A7
001E
0037
00E4
00B9
0050
00EC
0078
0008
002A
003A
00D7
0012
00A3
0075
005D
0084
00A9
0055
0027
006C
00ED
006E
00CD
00A8
0098
0013
0010
00E4
0098
00A5
009B
00CE
0066
0049
00D9
00D7
0026
005D
00EA
0090
00B8
0036
0050
00BC
0098
0069
0046
004D
0063
00B7
00C5
00A2
001A
00DA
0090
0037
0058
0052
00C3
00A0
008B
00CA
00DE
00CD
000D
0062
006C
00BB
0003
0000
0061
0044
00CD
0045
00CB
0065
0008
006B
0072
0086
0031
0092
004A
004D
0004
00E0
00C1
0075
00EB
0016
0029
00B1
00B6
003D
00C2
00CE
0071
0067
0097
000E
004E
00EE
000B
0051
0081
00C4
0086
009E
002B
000D
00BA
0069
005E
0087
0088
000E
0059
00AB
00A6
0051
009E
0070
006D
0042
00C5
0023
0055
003A
0054
00EA
0065
0023
0025
0099
005E
0009
00A9
00D6
00B5
0076
00D4
001A
0085
0035
00C0
00A0
0083
0084
00E8
0087
0036
00AC
006B
0073
0088
0044
001B
0073
00A8
0056
00E8
0062
0050
0045
0076
0070
00D5
0047
00C8
0037
0017
00C0
0082
0076
00D4
0020
0032
00E5
0066
0040
0082
0069
0022
001A
00C6
00BA
00BD
0091
0081
0082
00BD
008D
0069
00D3
008B
00BB
00A0
00A1
0066
0015
0097
0038
005E
00AC
0008
00A2
0040
000B
0078
009A
0010
00D7
0070
0034
0033
001E
0017
00C2
0058
00EE
00E3
0006
0090
0041
00DD
0023
005E
0040
006D
0010
00A6
006B
0022
00D2
0051
0006
00CA
00CD
0038
0007
002E
00A1
008A
0012
00CA
00B2
0061
0090
00E7
0085
003D
001A
0047
003C
0085
00CD
006A
0028
007C
00A8
009E
0096
00DE
00B4
0058
001B
0047
0076
0018
0055
0049
00A0
0005
0090
0044
00E2
003E
0066
0066
005B
00C5
002D
001C
0014
00A2
00C3
005C
00DB
00A6
0095
00A7
0074
0004
00D6
004B
0030
00BB
00B1
00D0
0050
00CB
00ED
0057
004C
00B4
0006
00D8
003A
007B
00E1
0035
0021
003C
0000
0031
0039
00E9
001B
00A5
00C8
0014
003C
00A6
0073
0019
0029
0071
00C0
0086
008C
0098
00DE
0046
006B
0058
0011
006A
00D5
00D0
00CB
0028
00D7
00D2
00EB
0007
00E8
0009
00C9
0089
0088
00AD
00B6
0027
00C8
007A
0028
00B5
00A7
00BE
0048
0010
0071
00AD
007E
00CE
0097
0058
0020
003E
0060
007D
0010
002E
001E
0099
0022
0086
0088
00E1
006D
0044
00D2
0053
0052
0033
000B
00A3
00A1
0041
00DD
0061
00E2
0064
009C
0060
0076
0089
00E6
00D0
00BC
00B1
002E
0043
000C
00B2
00A1
0041
00A3
00AD
008E
006B
00DA
003A
0073
00E2
00C9
007B
0011
002B
00A9
00BE
0094
005D
005D
004A
006B
00DE
0077
000D
0038
0044
004C
00EB
0041
00A5
00E1
00A4
003C
0030
001B
006C
00AB
0047
0011
001D
0029
0059
0009
0050
00DE
00BD
0079
00B2
0056
0005
0099
0083
00A5
003D
007D
0016
0028
0081
00CE
0071
00E6
0038
0068
0097
0069
000B
009A
0032
008A
0073
009B
0046
0053
00D5
00C7
006B
006D
0010
0058
006B
00E2
0000
00BE
00B5
00C0
00A3
004A
0017
007D
00DA
00E7
006E
00B3
004C
0014
00AA
006E
008B
0076
00C5
0080
00A0
00B3
0076
002A
0073
002E
00C8
0095
003C
007D
0086
00DC
0091
0003
0014
002C
0041
00DB
0065
006D
0039
0085
00A6
007E
008E
0099
004D
0086
00E9
0040
00AC
0094
00DD
0005
007D
004D
00DA
00CB
009C
0010
0002
00DB
00EA
000E
0088
0061
001E
00B9
007D
0070
00AE
0028
007B
0047
0032
00C9
00DA
0067
00A6
0041
0089
00C8
00D4
00AA
009E
0029
00D5
0005
00AA
006A
00EC
00B7
00C3
003E
0023
0002
0042
00C6
000C
00E2
009A
00B2
00D1
00C0
0080
00BA
00C4
007C
00E1
0018
0049
0027
00E2
00A7
00E8
00D0
0061
0064
001D
0009
0034
00AE
00CA
0036
008E
0013
0013
003D
00AC
00C1
009E
007D
007E
003C
0072
00A7
006E
00C3
009B
00E6
00EE
0060
009D
0070
004E
0050
00C5
0016
009C
0000
00BC
00A4
00EE
0009
008D
0074
006D
00E9
0015
0079
0008
00A2
0087
00E8
007D
0050
0099
009E
001C
007D
0032
0047
003C
0016
003E
00A8
001E
0019
0014
0009
001B
0072
009E
00EB
00AE
0009
0027
0062
0073
00D0
0058
00DB
0032
0069
0005
0098
00A6
002B
00E5
0057
0060
004C
005D
003C
009E
0096
009B
0056
0079
00DA
0065
00CA
0080
00A8
00D4
00B1
004B
0051
000D
00A1
004D
006B
00E3
008A
0091
0026
001E
0035
00D8
00C8
00D7
0067
00B6
0041
00E5
0053
0097
00D1
0040
005A
009C
00CD
008D
00CE
00E4
005E
00E1
0036
0038
009E
0051
00D9
0035
0025
0054
0029
0040
00C9
00BA
00B8
0068
0072
00DE
00D3
008B
00CC
007B
0045
0038
0091
004E
0066
00E0
00D6
0063
0014
00A0
00A9
00EE
006B
0052
000E
00BA
0059
00DB
006E
0097
0039
0052
0026
00AE
007A
0047
004D
00EC
0046
00BA
