008C
00B4
0019
008A
0081
0084
00AA
0075
0067
0003
002A
003B
0015
0041
0003
00E6
00D0
00AB
00A8
0076
004E
0070
001E
0082
0051
00C5
0064
00E6
0027
00EA
0062
0042
00BB
00EA
00E9
002A
006B
0053
00DD
00BD
00E5
007B
001A
000D
00EC
0093
0074
00E9
00AA
00A6
00A6
0096
00CB
0028
009E
00BC
0012
0036
00B5
00B9
00E9
002D
0067
00B3
003C
0017
0087
0038
0008
006D
008B
00AE
00B1
00DA
00E5
00E6
0090
0064
0021
007A
00A9
0061
002D
0060
002C
006E
007A
0026
0075
0011
0077
0049
00BE
00E1
0008
002C
0035
0017
0003
002D
0075
0040
0095
00E8
0084
000D
00AC
00B4
000C
005A
00D4
000D
0028
0090
00EA
00A2
0055
0062
002D
0072
0091
00CA
0054
009C
00D8
007C
0076
001E
009D
0069
0044
002A
00B5
0068
00C2
002B
0015
0020
0096
0029
00A8
00CC
0078
0099
0015
00D2
001A
0017
007E
009C
00C7
0021
0085
00E7
00D0
00AE
0081
00A0
00B4
00AB
0035
0009
00D5
006A
00A8
00E8
008A
0083
0051
0088
0035
0087
000D
003A
0061
002A
00EB
000B
0041
008A
00C6
0060
00EB
0057
00AA
0055
00CA
0028
0021
005E
00BC
0023
009D
001B
0048
00C4
0034
0019
0019
0082
00E3
00DB
0090
00DD
00CB
0083
006B
0090
0032
0056
0092
0050
001E
00E3
0062
00B5
003E
00BD
006A
0096
00E8
001D
002D
0017
0040
0040
0080
008A
0074
0033
00B8
00E9
00A9
002D
0039
00EB
0009
008E
00C4
0028
00A7
0017
004E
00E3
00C8
00A6
0076
0076
0094
005B
00EC
0031
0018
002C
00CA
0004
00B9
004B
002B
0044
0024
00BE
0073
0015
0017
0048
0067
00E3
00D8
00B6
00D0
00D1
00C3
0001
001E
0003
00B5
0014
0052
007A
00A2
0074
0085
0039
0076
0036
0083
006C
0008
0060
007D
00C1
00D5
0035
0087
0021
008E
0039
00B3
0025
00D3
0027
00D4
0035
002D
000E
0039
001B
00AC
0014
0014
0057
00D7
00AD
002C
0057
0096
00A2
0092
00E3
001E
00E2
007C
0078
0051
0044
00C7
008A
003D
0091
007A
0072
008B
00CD
0009
0092
008C
006E
00D9
00BA
0098
001C
0019
00B5
0090
004B
0056
0004
00EE
00EE
0049
00C0
0052
0054
00E4
0080
00D8
00B9
0034
00A9
006C
00EA
0018
000A
006A
0074
00AC
004E
001A
008C
0007
0068
00AD
0033
0054
0057
0029
002E
0033
00A6
007A
00E8
0017
003D
003B
0074
009A
0074
0021
0034
0002
00D7
00B6
0003
0080
007A
0080
006B
00BD
0008
0018
00D9
00E7
00B5
0053
0071
006D
009E
0013
004D
009D
0079
00E0
003D
0039
001C
0003
00B4
0084
0098
0011
00D8
0029
00B5
00DD
00A0
00E7
005A
00EA
00E7
00A3
00E1
00B5
0022
009D
0045
0007
00E4
00D5
0050
0023
005B
0015
0098
00CC
0019
009A
005E
0098
0029
0084
000D
00D0
00B3
009E
00C1
0075
0078
0076
00D6
001A
009D
00E4
0088
0050
000A
004D
0025
0011
008B
00ED
00B2
0070
00E4
0041
00DA
0033
00A6
0080
00A7
0026
00E6
00C9
00D9
0020
0005
003A
0018
0020
00D7
0094
0070
0029
003D
0024
0059
0083
0094
00D4
0085
00D1
00C1
0055
009B
00A3
0080
00E1
003B
00B8
004A
00B3
00DA
000C
001C
00CC
003B
00E7
0010
0080
00E5
009C
00AD
008B
0001
004E
00A6
0035
0093
00E5
00BC
00CD
00E6
0040
0076
0093
0044
0017
0002
004A
00B7
001A
0039
0070
00A3
00C7
00A7
0063
00B9
0063
003C
0076
00E0
0083
0085
0013
00A3
004E
0081
0042
00BD
0095
002D
0041
0072
00B2
00E5
00C4
00B2
00A4
000A
0096
0056
004B
0017
00A3
0083
00C3
00C6
0085
008B
00BB
0070
00A8
0090
000D
00C0
002A
0086
004B
00A1
00BE
004E
000B
00D0
002D
0055
001A
0004
003E
001A
003B
0088
009E
0069
0046
000D
00D4
00C7
0074
00B2
006B
00AD
0032
0090
0023
00D8
0018
00E7
00BC
0031
00EA
0015
0015
0001
0008
0044
004A
0098
008D
003E
00EC
00CC
0049
00E5
00B6
0097
0038
00E4
0064
0020
00AC
0074
002B
0059
0026
0043
00E4
0013
00C5
00B6
0067
0020
0013
00D7
00E4
00CE
00C4
009E
003E
00EB
00A0
00C8
0065
00D5
0005
00A1
00A3
00DD
00C5
008A
00ED
0081
003D
00BE
000C
004D
00D8
003D
0039
0015
001B
0036
005E
00A7
00D7
0031
0048
00E5
00BE
00B7
0090
004D
0086
009E
00AE
00BC
00AD
00A2
0010
0098
0044
007A
00BB
00D2
00A3
0017
0058
00EC
0057
00AC
008E
0005
0015
006C
0071
009B
0081
004E
00B2
0079
0048
0073
00CA
0074
00D5
006E
0001
0001
0087
007D
003D
009D
00D8
0060
00A0
0053
007E
0047
00D5
000C
00C0
0089
00A5
00DC
0028
004A
00A7
00E2
0094
00A4
00E9
008E
0023
006D
0035
00EB
008A
000D
0040
00C4
00E4
001D
00EA
0084
00EE
0091
00D8
0085
0035
0085
000E
0032
0032
0052
00BD
0005
003A
008C
0004
001A
00E9
0007
00CB
007C
00AB
0047
008D
0050
005B
00E2
008D
0000
000B
0090
004A
00CE
00B2
00E2
0042
0097
00CB
008C
0063
0013
0027
006C
0042
001A
00CE
00CC
0061
00D6
00AE
00E1
005B
0045
0074
00AD
0053
0077
0065
002A
003B
005B
00DB
00DB
00B1
00CB
006A
006C
00E7
0026
00E4
003B
00A6
0087
0061
0066
00BE
0022
00A3
001A
0022
0090
00CB
0055
00ED
00D0
00E3
0024
0020
0059
0021
00ED
0048
00E4
00AC
0083
00C5
0026
0050
00A4
00AA
0007
007D
0054
0032
006B
0036
004A
00AC
0000
001D
0077
00AC
0066
004B
00A3
004E
00B5
0029
0012
0091
0019
00EA
00C7
00E3
0040
0079
00D6
0006
0025
0078
0059
00D7
0080
00CA
001B
00C1
0077
0039
001D
008A
00D9
002E
0014
00BA
0060
00C5
0008
0009
00EA
00BA
00C4
006D
0070
0077
0075
00D1
0080
0061
008E
00AB
0061
006B
0082
0000
008A
0025
00E5
0026
0076
00DE
00B5
007D
00CD
007A
0004
0025
0013
00B9
008D
001A
006C
00BC
00D6
0076
007D
003B
0062
0081
009D
0082
009D
00EC
0010
003A
0013
006D
00AD
00C1
004E
0032
0043
008C
006D
00C2
003E
004E
00C8
0007
0099
00D3
0054
0000
0061
00B5
001B
006E
009C
0018
004E
00D8
00A8
0085
006E
0018
00A4
0039
0021
005A
008E
0022
000A
009C
0040
00B7
0039
00B2
0067
0024
0032
007D
0066
0039
0044
0043
0007
00D1
004E
00CA
0057
0081
0014
00CB
00BD
0052
0070
0082
00B1
0007
0048
0028
00E9
0028
00D5
0093
0032
0003
003E
00C9
0043
00A8
0070
000B
00B8
0061
006E
001B
0007
0029
0069
0093
0008
0043
00D6
0033
000C
0053
00C7
003E
0012
00EE
00CA
00EE
00B1
0045
0069
0036
000E
0059
0067
0001
0038
0037
0001
008A
00B2
00C7
00ED
0074
0001
0058
007A
0044
00D5
00B0
00C3
0001
004E
0014
0021
0036
00B0
0030
00C9
0018
00E9
0064
00B4
005D
00EB
009B
008D
000E
0097
003A
004C
0057
0096
008B
0073
004A
004D
0036
00CD
0024
001B
0072
0055
0006
00BE
00EE
0038
007D
00D0
003B
00E7
007B
008C
0013
00D5
001E
005D
001E
0023
00D7
0032
005E
008E
00E8
00CC
00D1
00A9
0094
005C
000E
0062
0039
0066
0033
00C9
0066
00E1
00C8
00EC
009C
0036
00B2
0092
009D
00CD
0044
005A
00C5
006D
004E
00B2
0046
002A
0017
008A
0036
00EA
0006
00AD
00B4
0047
003C
00E1
00B1
00D0
0044
0008
0070
0084
0016
0075
0005
0061
0058
001D
0092
00C0
00DD
005E
00DE
0018
0013
00B2
009D
003A
0083
003A
0027
00BA
00B5
005E
0081
0014
00B4
0082
004A
002D
005D
0023
0021
0033
0000
0000
00B6
0046
0060
00A7
008B
0078
0087
006C
0096
00D0
0072
005B
0043
00DC
006D
00BE
0038
006C
0061
00D7
00A2
0063
00DE
0091
0016
0036
00DE
0069
00D6
0059
00D9
0070
0042
007E
00B6
0072
0068
0001
00C3
0024
00E7
00C3
00DA
0043
0056
00BD
0011
0065
00CB
0031
001C
0000
0071
00EA
00AB
0002
007A
0045
009D
00C4
00E3
0020
0007
00AD
007D
00EA
00E8
0059
009D
0038
0058
0063
0019
00DD
0082
00BE
00DB
0020
00E7
001B
0083
009B
006A
0035
009A
0087
001C
0038
0083
0025
000C
0092
009A
0088
0025
007C
007B
0051
002B
0004
00B8
0069
00EC
00DA
0054
0027
00B0
003D
00DA
0093
0008
0034
006A
0032
006B
0001
00D8
0075
0094
0066
0087
004E
0027
00B0
00D8
0041
001E
006C
0047
0059
00DB
0092
007C
00EE
0068
003B
003B
0071
003B
002E
003D
0065
0013
00CC
0020
00D6
0099
00A7
0014
0085
0016
0014
0040
0027
0098
00D9
0088
0057
0002
0011
00D8
0015
00DA
0012
000D
00D3
00CB
0036
004C
00AD
00E6
00B1
00AA
00E5
008A
0049
00CD
008C
00E7
00CD
002D
001B
0069
00D1
00B3
0023
0026
0068
008B
00E7
00AB
0092
00B3
00C2
00A4
00B6
0041
0025
004D
0005
00C0
0011
002E
00A5
0069
0022
004E
000A
0024
0026
00E5
00B2
00D9
00E2
0065
003B
00C0
006C
004C
00C7
00D9
001E
0031
0088
00AA
00D7
00EC
005E
0089
0036
0039
003D
00BD
0066
00DD
0025
00AE
00C5
007A
0082
00B9
0050
00DC
00A6
003B
00C8
0072
00E6
006C
0087
004C
0096
0010
00D7
00DB
0004
0056
0082
008D
0040
0007
0055
0045
0065
0000
0010
0045
0039
003B
005E
0009
0074
006E
00C8
0058
0091
002D
00D4
0063
0035
0045
0076
00C9
0075
00CA
00D6
0008
0040
0055
0056
0000
003B
00ED
0079
0057
00D3
00D7
0009
00BC
001A
0096
00E4
003E
008D
008B
004C
00E8
00AD
0050
0084
007D
00B0
001C
0038
00BC
00CC
00CE
0099
007D
0012
0080
00CD
0073
003C
0029
00BE
00B1
0098
0075
00D9
0091
0018
00B7
00D3
0073
0060
0021
000B
0051
00C0
0068
008E
009A
0063
002E
00E1
000B
0019
0004
00B6
0023
0061
004D
00C1
00C8
00ED
00D6
0084
00D5
0004
0030
00A6
00EE
003C
002A
004E
00C6
002D
0000
0064
004A
0023
0069
00C3
007A
0082
00D8
0091
002E
005A
00C0
0049
0088
00D1
006D
0087
0050
0019
00C7
0061
00C0
00AD
0098
0093
0092
0002
003C
00ED
000E
009D
00C7
00DC
000A
00C7
00AA
0008
00B4
0003
00A7
0047
0060
00B2
00E2
00C0
0073
0012
0093
003B
004A
001D
0042
008B
0077
0039
0059
0054
0042
00D4
000A
00A7
0078
0036
004D
0067
0009
0019
00D7
0068
00BA
004D
0094
0007
0004
00C1
00C0
00C8
0034
0042
00CE
002A
00E1
002D
00BE
00D8
0066
00A9
004D
000C
003B
00E1
0098
0045
00A5
0009
00C4
00EE
00E0
00E2
0005
005B
0024
0091
004A
0038
0035
002C
00EE
00A4
001C
00A8
0083
00A2
00E5
00E9
0022
00DE
00EB
0029
0006
0088
0061
0023
005B
0099
003D
009D
0092
004B
0097
0049
0061
0095
0019
0084
0086
008A
00D5
00DA
00A9
00EB
006C
00CA
0090
0004
0020
00D2
00C5
0062
009C
0026
0050
0048
0087
0067
001C
009B
007B
0004
00A7
000E
0006
0024
00DC
00D0
00EB
00B1
00CB
0029
0090
0046
0024
004C
0001
00A9
003A
0017
0055
00A9
0028
00DE
0019
0031
00BA
00BD
000C
00BA
00E8
0077
0039
0084
00B1
00D8
00DA
0083
00B5
003E
0043
00AC
004E
00AE
004C
000B
0056
00EB
00DC
00EE
00CE
000A
0046
0099
0087
00C0
0092
0052
0048
009E
00BA
0068
0043
0050
0093
001A
0004
0068
0093
0036
00C0
00D9
006C
00BE
00D0
0067
0024
00C1
00DB
00B8
0094
00DB
0058
0040
00A3
0034
00C0
0099
004A
0078
00C8
0028
008B
0044
0049
008C
000A
00CC
0097
0009
00CB
008E
00A6
003A
004E
0035
009C
00B0
0089
0026
00D7
0038
002C
0050
0034
0075
001E
005E
00DD
0083
004C
0062
004C
0026
00A5
0008
007B
00BA
00BB
001E
0036
00E1
0096
0030
0098
00B0
00B2
0018
0002
005C
00B4
005B
0079
00DD
005A
00AA
0077
0094
001E
00E8
00A3
0098
0009
009C
002E
0026
00D8
0031
00CC
0033
0008
00E0
0068
00AC
0060
0022
0039
0088
00E4
0051
007C
007D
007B
002E
0073
00C5
0052
007B
0088
00D3
0047
009A
0004
0099
00C3
00B5
00CA
0004
0001
006E
00E5
0039
008A
0086
00BC
0022
006A
001D
004C
00B4
00BD
0084
0073
008C
003D
0060
001B
00E0
00CC
0008
00C6
005D
00D4
00A7
004D
00CE
0057
0081
0039
006D
00D9
0082
0084
009A
00D4
003C
00A0
00C2
0000
00C2
000B
00E0
0054
0096
0026
0068
00B3
0035
0070
0093
00A3
00E9
00A1
00C3
00A0
0068
0074
00AC
00C1
00C1
0055
00C4
00C9
008E
0068
00EB
008B
00D2
00E0
00C6
00D3
006E
0016
00D5
003A
003B
00B8
00D8
0086
0002
00D9
0033
00C8
0071
0088
003A
00D7
0045
001A
0084
00ED
0025
0037
001C
0056
008D
00B4
00B9
007A
007E
00A9
00C8
0091
00D7
00B7
00B7
00BB
0067
009B
00C2
00CE
002B
008C
00DA
00E1
00B5
0083
004A
0026
0055
008D
0073
00E3
005B
0056
0030
0089
00BE
00E1
0055
00D9
00CC
00D7
0019
00E3
0021
00ED
004A
0089
0081
0044
0047
001D
0060
00D1
0075
000C
00CC
0099
0066
00D5
00B3
005D
00AE
0044
0039
004B
0089
0019
0078
00C8
0026
001B
0015
0081
0069
009B
001B
00C9
0065
00A6
0070
00A7
0056
0056
00C0
0003
005A
000E
00A1
0040
00BD
002D
0050
0063
00A2
0019
00E4
001C
00CE
0047
00A6
0071
008C
0026
00B2
0072
000B
00CD
002B
00AD
0056
00E7
009E
0099
00DD
006E
0086
000D
00B8
0060
0077
0086
0062
00EE
005E
007E
0072
004B
009E
000E
0076
005C
00AD
00A1
00D0
00E9
006D
00E1
0046
009D
0020
008B
0085
0077
0025
009C
004D
00ED
007A
001A
00AC
00E8
00DE
008A
0026
00A2
0009
004A
003D
0071
00D8
001C
0057
0005
0028
009A
0024
0006
0060
004B
00A6
00AD
0038
00D4
003E
00A7
00C9
0031
00B4
0076
0024
004D
007B
0052
0009
00E3
0024
00D2
0016
00DD
0057
002C
003B
00E0
0011
00B8
009B
0016
0000
0023
0071
005C
0031
0053
00D8
009A
00BA
00C7
00CE
00D0
0097
009A
00EE
0003
0050
001A
0069
0044
0003
0047
003A
009B
0054
00A2
00D7
0023
00AC
0085
00B3
00A1
00D4
0070
0089
0038
0048
005E
004C
001E
0041
0053
000E
0022
0069
0018
0016
005D
005C
006B
0046
00B2
0005
0061
0083
00AA
0054
0069
00CA
0038
003E
00A9
0090
0012
0095
008D
0055
00BA
00B5
006E
001D
002C
00CE
00DA
00BA
0032
00E5
000E
006C
0099
00E0
0006
003D
0083
00EC
00B4
0048
0059
0058
0084
0059
0017
0006
0044
007D
000C
0080
007E
0087
002D
00E2
0040
0002
00AA
0084
0044
0030
0098
00E8
0088
00A9
00A1
0012
009D
0021
00E9
0077
005C
0087
00B1
00AA
0075
0028
00A5
0026
0061
00E1
00ED
009A
0076
0021
0035
00B8
00D9
0057
001E
00E4
0023
00C8
00E1
00A4
0066
00C9
00B4
006A
0084
00B1
00BC
00A6
0010
005E
00AB
00B6
0034
00EE
0050
00DB
0012
0018
006C
0021
004A
003C
0002
0010
00BC
0053
008C
00A4
0051
00B6
00BE
0045
0091
00B2
0022
004A
0042
00BC
000A
00AA
001A
0059
00C9
0086
00CC
0070
0007
0002
0089
00BA
00B8
00A1
007C
00D5
00E5
000E
009B
00C0
0053
0036
0014
0010
00A1
0070
00BD
00A9
0087
004D
0099
008B
00CE
007A
0017
00E8
00C2
00D8
0011
0037
00D3
0047
00BE
0087
0071
0033
00A2
00B7
0006
0084
00C1
0021
0047
0059
003C
0084
0019
00E9
00B7
00D8
0005
00EE
0067
00E0
00DB
0037
0098
00CB
0031
0037
006A
00D2
00EA
0062
00B7
00A2
0085
00BD
0068
0076
00B8
006E
00D6
00B9
0042
0000
003A
0083
0089
001E
0075
004B
0095
003B
0045
009A
0069
0094
0030
009C
00B8
0006
005D
0006
000B
003E
0033
00D4
009B
0061
00AE
0073
001C
0040
00B8
00C7
00AA
0043
0061
0002
00A0
006C
003C
0017
00C8
00ED
0062
0026
00D3
00C1
00C8
0086
0061
00C5
0027
002D
0067
0017
0009
0069
00BE
0035
00B8
00C3
0037
0017
0093
00E9
0099
0000
00C1
0059
0066
0017
0069
00E3
003C
000C
0029
00ED
00DC
00B0
00E5
0002
009A
0022
00EB
0016
0088
001E
00A9
0071
0000
009E
0034
0074
0048
009B
0035
00B5
0049
0013
00BB
00CB
0062
00C5
00AE
0083
00BB
0038
0059
003A
0069
0042
00A0
0022
0017
008A
006E
0081
0006
0061
00C4
0055
007A
0039
0099
0047
009B
0025
00A6
00B0
00C6
005A
0073
0026
009C
00E3
0022
0026
00C4
005C
00D6
00C3
003C
00AE
00C0
0075
0080
0054
00B2
0021
0029
0055
0046
001E
0047
003B
00EA
00ED
00C1
0066
007B
00D4
00E5
0088
00A0
002A
00E6
0097
003D
0067
0072
00EE
004A
00B2
0012
00E8
005A
0054
0009
0012
00C3
009B
00C9
0064
00B6
0039
00EB
00DC
0025
001B
00D3
0007
0000
0054
00EB
0086
00B3
0017
008D
0085
0036
00A5
006D
0028
0087
0097
0049
00C3
0078
00D2
00A6
00D6
0092
0091
00E5
00E1
0088
0067
0013
004A
002A
0078
004B
0066
00B6
0041
005C
00DA
002E
00E2
00A8
0015
0053
0072
00A4
007C
0073
0024
0000
0014
0057
00E2
009C
0038
00DB
0015
00C6
00EB
00C0
006D
004E
0080
008D
00BB
00A5
0081
0044
0057
00D6
0089
00AC
0055
0017
0027
0084
003B
001B
00A1
00B5
0054
00B8
0082
0088
0023
00E2
00AC
001D
0084
002E
0000
0073
007D
005A
007B
002D
00E3
004A
00E3
005B
00C1
002C
0051
0076
004C
009D
0070
00D0
001A
007B
008A
00B1
0083
0020
004D
000A
00A6
0064
0062
0068
0000
0071
000B
007D
00B3
0069
0071
00D4
0031
0081
0078
001E
0068
00C4
0029
006E
0098
00E2
00C8
00C2
006E
001C
0020
007C
0095
00C7
0053
0011
0064
008A
0051
0034
00ED
008A
0058
00E5
00E1
00BC
0001
0053
002B
00CD
00E8
0049
0007
0021
0025
007B
00BA
0031
006A
0058
00D6
00EA
00E0
00DB
0080
002B
00A6
0061
00B4
0091
00E9
0061
0064
0071
00D5
000C
0071
00E9
007A
005B
0060
0057
003D
0070
0010
0012
003C
0048
0032
006D
0095
00CD
0099
0082
003E
0094
0065
0027
00D2
0045
005C
00D5
00D7
0090
0072
00A2
0063
00D8
0037
006B
0011
005C
008D
002E
007E
0079
00D7
0037
0097
0034
0006
0071
0005
00B6
007A
002A
00A9
0056
00D6
004C
0020
00B2
0012
00C9
0011
0018
00EB
005B
0058
008A
006B
0037
00AB
0007
0002
0096
00B8
00A0
008C
002E
009C
0008
001B
0002
0070
0031
0088
00E3
0017
00E5
00BE
0097
00BC
00E2
00E7
009C
0031
0065
0085
003D
0025
00D1
0096
0044
008D
0035
0068
00D2
0099
0016
007A
00E0
00E3
0008
0040
00A9
0024
00A8
00D7
001E
00C0
0030
0003
0024
003A
000C
00B2
0002
001A
006A
0082
0030
0086
00B8
0006
00CE
005D
004A
003A
00C3
00C4
0073
00C5
00CD
0001
00DC
0007
0006
0003
001A
00B4
0020
0029
00E6
0047
0067
00A1
00C8
00B1
00B5
0050
000E
007B
008A
00A2
0015
0099
00DE
00DE
006E
0073
002C
0074
00A2
005C
00E8
00C1
00DB
0038
00E2
00BA
00CE
0043
0007
00A3
0043
004A
0093
0096
000B
0035
002C
00B5
00D2
0097
00C9
00DE
003A
009D
009E
009D
001D
00E7
0087
00C5
0092
007E
00E5
0009
00B3
002C
005D
00C5
007E
002B
00D3
00E0
002C
006C
00EE
004C
0023
00C1
0055
0014
00C2
00CB
0060
0081
0049
003D
0008
001B
0025
0022
00EB
00B8
00D4
00CD
0008
0006
0046
001C
002D
003B
0058
0041
009B
00E6
005E
004A
0041
00C5
00C3
0094
0037
00EB
009C
0064
0017
00ED
0034
0056
0005
0024
006A
0035
0085
0031
00A2
0046
0075
0044
006C
00DA
003B
008C
0061
0005
0013
00C0
006E
00CE
005D
002A
000C
008D
005A
004B
0094
0012
00D1
00BD
0034
005A
003B
0042
009C
00C1
00AA
0064
0081
0022
0050
00D3
003C
00AD
0014
0010
0095
009A
007B
0098
0040
00A6
0088
0096
004D
0023
0024
00B8
001C
007A
0004
003B
0050
00CC
00C7
00B5
0083
008A
0095
0032
0030
0083
0025
002A
0089
00CC
00EC
00B9
0017
001C
0058
00C1
008C
0045
0066
0024
00D1
006A
002E
003A
0030
0000
0062
001D
0090
0044
007A
009E
0036
00D9
004A
0063
002E
00C5
009D
00BE
0092
00E5
0033
0048
00B7
000E
000B
004D
0079
0067
009D
00DE
0012
006A
000B
00C5
0086
006E
00EB
0049
0057
0071
0046
0086
00D2
0096
00C6
0040
0043
004C
0077
0070
007B
00E7
00EE
000B
0056
0032
0034
009E
0080
0007
0094
0000
005C
00D5
00EB
004D
00E9
00BE
001D
00AE
0022
00DD
0038
00EB
00AA
009C
00BE
00E6
003D
004E
0091
006C
007E
0041
00C9
00E0
00BB
0028
00DD
00D4
004A
0065
00BB
0055
008B
0001
0004
0034
004D
00D4
00D8
0013
0030
00E5
0014
008E
00AC
00DE
0050
0042
00BA
0048
00E5
00D8
0079
00D4
00D1
00C5
00B3
00D7
000A
00D6
008D
00CC
0042
0041
0061
00C2
00C2
0028
0008
00DA
0077
0027
00E2
001B
0020
007C
0094
00EC
00AD
00D4
0014
00EE
00EE
001C
00CE
0080
00EA
00ED
00B7
0072
0046
0095
005B
0078
00A3
0074
0000
0032
00E0
00D7
003D
00B6
0084
00A8
004D
008A
0062
001D
00AD
0050
008A
001A
0091
004D
0035
006D
0095
00E5
0076
0066
0085
008D
004E
002E
0015
009B
008E
000C
0023
007E
00CA
009E
00E5
00E8
00A6
00E2
0054
00CC
0031
0033
00E2
00A7
00E2
0039
009B
00E4
00EB
00A0
0092
002B
00CC
0002
00D5
000E
00D0
0017
0076
00A9
0023
008D
0097
009A
00A6
00C4
00BB
009B
00D6
0072
000C
00B2
00C0
00C8
00AA
00BA
004C
007A
0043
00A7
003D
00C2
00CC
004B
009B
001C
0013
000E
0029
00CD
0065
000C
0090
00AC
0063
0036
00CE
0057
0095
00B2
0066
0085
0059
0014
005A
00ED
00D0
00ED
00AD
007D
006A
007A
00E2
00D2
00E2
0091
0023
00DE
0021
00E6
0031
0018
0073
0018
00DB
008B
0062
00D1
00C1
00D4
00C1
009D
003C
003A
0057
003D
0073
00D4
0035
002D
0021
00D3
0040
00DE
004D
0047
005E
007E
00BA
0085
0051
007E
003E
00A9
0061
0047
00E5
0016
0039
00C8
002C
0007
0075
0015
00BB
00C6
0083
00E0
0082
00A5
0010
002B
009B
00E5
00DC
00B0
00AD
007D
00DE
00DD
00D5
00E9
0073
00E3
00D3
0086
0048
008E
00CD
00A9
0018
0015
0006
0010
0068
00C1
0079
006C
00A0
008D
007D
001E
0084
000E
00AD
006A
0025
0019
00B6
000A
005A
001C
005E
001C
00B4
0041
007C
0017
0005
0030
00A1
0021
00C5
004C
004B
005C
00E0
0015
0013
0045
00B2
00A8
00DD
0006
00B8
00A6
0040
00DE
002C
00D0
00D7
00AA
0071
00BA
00E4
007D
00B1
00AE
003B
008E
00BC
001E
00A4
00CA
0062
005B
0011
0025
0087
0078
0046
0021
00B1
0034
007A
00DE
0007
00BA
0060
00A3
00C9
0078
0015
00CB
0038
0041
0074
0039
0051
006E
00B0
0017
00E3
00CE
00DD
00A9
009C
0038
00D0
001A
00C0
009C
001E
00AD
00E0
00D7
0014
005C
0013
008A
008E
00B6
0016
006A
0047
00D8
005C
0057
004C
0081
0065
0014
0040
00C5
002A
00EC
0075
0027
0079
009A
009E
008A
0059
00EC
0003
0032
00CD
0000
0059
00DE
00A1
0097
0074
0027
00C6
0014
003E
00A1
006E
00CD
0008
00BA
00B7
006B
0051
007B
00A5
00A8
006A
0052
00D9
0084
0053
009E
0000
005B
0031
0005
0080
006A
004B
00ED
0081
0012
00A4
000C
0010
0085
00B3
009E
00BD
0071
0037
00C4
009E
0044
00B5
00A7
003A
00DD
00B3
0015
009A
00B6
0092
0066
0016
002B
0085
00DE
0050
00A6
00B1
002A
00D1
0037
0001
0022
006E
00E7
0078
003C
0082
005B
00D0
004B
00E7
00BA
00A9
003E
0031
0084
00C7
00B6
009D
00CD
0076
002D
0066
0074
0062
00AD
0061
009A
0012
00DA
0022
00D9
00AD
006C
00EA
00D1
009A
002C
00CE
0073
0064
003D
0030
00C2
000E
009C
00C9
0071
002D
00C1
00D6
00B0
0087
0038
004D
000A
00C4
0044
00C2
0080
004E
0049
00D4
0047
00A5
00E8
0051
00A2
0067
00B3
0083
0045
0028
0082
0022
0097
0062
006E
0021
0054
0010
00C5
00D4
006D
0055
00E5
0052
0092
00AD
0063
0010
00D2
0060
00D0
0029
0043
00CB
006D
00DD
00B9
00BB
00AB
004E
009D
0030
00E7
0089
00B6
00DC
00E5
00C4
0089
005A
008C
000C
00BB
00DB
000B
0000
00A0
006B
00A8
0040
004A
00D2
00C5
0030
005C
00D2
004C
002C
00A7
00C5
00D3
007E
00E0
007B
003E
0007
00A0
0094
00D3
0062
0016
0087
0042
0029
00CC
007E
0020
00AA
006C
003A
0042
00C2
00B2
00DC
009E
0030
00AC
00BC
00D5
00C9
0061
0005
0067
00B7
0079
00AA
00BB
0013
0055
003D
0044
006A
00D9
0057
0042
00D7
0018
008D
00A8
006C
00A5
00AA
000D
0034
0045
0080
0084
0070
00DD
00A8
0073
0088
001A
00C7
0084
004E
00B4
0020
003B
0091
00DD
0032
0083
0091
0069
007B
00E0
0001
0037
0082
00ED
007D
0040
008C
00B8
009E
00C6
00B7
00E0
0041
00E7
00E5
006B
0004
0059
0000
0022
00C7
0081
002B
0000
0036
0039
00C3
0012
002C
003C
0091
008A
0000
0079
00EC
0087
0015
0014
0048
0037
0076
0056
0067
0048
0073
0029
0011
0044
00EC
00CE
00CC
00D2
004C
0019
00D0
004B
0055
0093
00EA
0098
008D
0082
0005
0026
007B
0028
0025
0052
0079
0042
001D
0046
00E4
0002
00C1
0059
00E1
00DD
0000
0083
00B8
00C4
0075
001E
00D8
0066
0033
0025
006D
006D
00AA
0059
0009
007B
0072
0055
00C1
006D
009A
001D
00C8
0037
003D
00BE
0083
00ED
00AB
00A1
00CB
001C
0031
003C
00ED
00AC
00C8
00C4
0046
00CA
008A
0091
0066
0069
0084
0021
005B
00BE
00E3
00D5
000C
00A3
003D
0079
0034
007E
0033
004B
0046
007C
0026
00C2
0024
006A
003D
00C7
008A
00DA
0032
0027
004B
004B
0014
0034
0017
008A
0012
0076
00E6
0052
00A8
005A
00C0
0000
0011
004B
00D4
0091
00C3
0024
00D4
0092
0010
005B
0043
0042
00A5
0054
006A
0082
00E6
003C
006E
0047
004C
008D
000E
0041
00BC
0024
00B5
002C
000D
000D
00E1
0056
00C8
000B
0064
007C
0052
0052
005A
0040
0046
0020
001A
00DA
0043
004E
00B1
0060
0041
004A
00E2
00A3
0088
00BC
0012
00C0
0009
00BE
0083
0012
007E
006B
000E
00DD
0064
001C
00E3
0010
00E4
004E
0011
0006
00DE
0039
00AC
0016
0053
005B
007B
0005
001E
0049
0063
006E
0023
0077
008E
003D
0011
0046
00B2
00E9
0067
005B
0039
00C4
0039
0020
0068
00E3
00EE
00ED
00E4
0063
006D
00A2
0005
0089
0093
00E6
006E
009D
0053
00CB
006C
000D
0084
0089
0011
0039
004B
0096
00C5
0040
00A9
0067
0038
0086
0049
00DE
004E
000E
0075
0047
0047
0073
0095
009B
00D1
0005
0011
00B6
0065
00A2
0039
00AC
0070
003E
00AA
0038
00AD
00AE
00B7
0078
007C
00A3
0061
0064
004C
0068
003E
0025
00CD
00A2
00E0
00A9
0014
0011
0088
00D9
002E
00AE
0089
00A9
0045
00E1
0000
00B8
0093
0078
006B
00E8
0038
0040
0024
000D
00AD
0017
0039
0025
0099
0095
0089
009D
006B
00CC
00CD
005E
0004
0010
0010
0065
007E
00AA
00A9
00B5
005B
0017
0049
0052
0000
00EC
00B6
008D
0038
0099
0018
0077
003C
00A2
003C
00DB
0046
00BE
00DC
00C9
00CB
0004
0027
0079
0070
0013
0066
003A
002E
0098
003D
0074
0022
006B
001D
007D
0073
008B
00DC
009A
00AA
0063
00E1
00D3
0018
0022
007D
006B
00C1
00A6
009D
0032
00B5
0011
00B6
00C2
002A
007C
00C3
0038
0076
005B
005C
00D5
00AB
003A
0061
0095
0091
007C
00AA
0020
00E6
0054
0020
00B5
00C7
0007
0046
00C3
0081
00A4
0079
0040
00C4
0036
00ED
0076
00A6
00A8
00AA
0025
00E0
00D6
0064
00ED
00E2
00CB
00B6
009A
005A
000C
007D
0035
00B1
009A
003D
006B
0008
007B
009A
0092
007B
0059
0023
007D
0019
002A
0056
00BC
0085
0086
0082
006D
0092
0029
00A8
002C
0079
008B
0056
0023
0072
00CE
00DD
0010
009E
0075
00A7
0030
001C
0040
0018
00B6
005E
006B
0029
0039
00BB
0050
00C4
0061
005C
001E
0029
009D
008C
00B6
0013
00CC
00B8
004E
00DA
00E1
00B5
0039
0036
00C8
0048
0093
00EE
0022
000B
0032
00DA
0043
003B
0044
00A2
00D7
0042
0013
00C6
0091
008D
0030
0024
0072
002B
0057
00D8
0004
0030
00CC
0021
00B6
003E
006B
0078
0093
0088
006D
0075
00E2
0006
00BC
000E
0035
0008
0093
003C
0012
00E7
0093
00BA
00B7
00E5
006D
004C
00BE
00DD
00B5
00CD
0030
0012
004E
0049
0034
0082
0049
0068
00AA
004C
002D
004C
00ED
0059
002A
00E2
000E
0021
0010
0076
005B
00C2
0077
0041
007E
0090
00AA
0053
00EC
0051
00E1
0091
0005
00D2
0087
0006
0042
0095
0001
0023
00AC
0037
0011
0004
00B6
00E3
00C7
001A
0081
00E7
00AC
0008
0031
0053
00E6
0098
00E1
0060
009E
007B
0040
0022
0022
00CC
006E
00E8
0026
0038
0070
00E1
0036
0078
0013
00AE
00A0
0087
007C
0020
00B2
0034
0052
00CB
0088
007C
0016
00BE
0099
0000
0097
002E
00DC
0035
0064
00C1
0009
0046
0092
0059
000D
008B
00CA
0051
0009
000A
005C
0078
0050
0016
0078
00E2
003B
00D3
007A
0078
00C3
0028
000A
0043
0063
0091
0085
00ED
00D3
00AD
00BD
00B3
001C
00C3
005E
0078
001C
0029
00CD
0045
0039
006E
001E
004B
0000
009A
0050
0024
0042
0077
00C8
00B4
0092
0074
0041
0030
0061
0004
003A
0051
009C
001E
0018
00CE
0004
0017
006B
00D3
00A3
0069
0003
00E2
009A
0009
0084
004E
0037
0044
00D3
002A
0073
008B
0027
00C5
005D
009A
001B
0065
005C
00C5
00A5
00B7
0096
00C5
0007
0074
0033
00DB
0011
0093
00BE
0020
002A
0079
0088
00C9
00AA
001C
00DC
0049
00B8
0038
008D
0019
0075
0094
00E4
00D4
0079
0094
00DC
0062
0077
00D2
003A
001B
0091
0090
0050
0072
00E0
0060
0047
005D
0002
00BD
00C9
00E4
0062
00BC
00EC
00EE
0084
00E6
0022
00AB
00B6
0091
00BD
000D
004D
0057
00E7
002C
0049
00A4
00DB
00E7
0001
0079
004A
008B
00E3
00B3
0007
00C3
0003
000B
0094
007A
009C
0056
0095
0015
0037
0013
00B7
00A7
0090
0058
0081
00E5
0068
00EB
00CD
00A6
00B6
002A
00D6
00A1
007A
002D
0060
00A8
0021
0032
0087
00C8
0007
0042
0000
00C7
0097
0057
0058
00AA
0081
0098
000E
008B
0092
000A
0066
0031
00B7
00A1
0027
00DD
000A
003C
0059
0009
000A
0050
0054
0023
00D9
003E
0080
0040
0025
00E1
00D7
009D
00D3
0075
00D4
0021
0074
00D6
0069
00DB
0042
0012
00A6
003E
0026
005B
002D
0099
003A
0028
0058
00AB
0029
00E6
0005
003D
00C3
005A
0001
0002
0098
00C8
0024
0094
0026
00E2
0053
0088
0040
00C1
0068
0068
00AA
0090
0085
0081
0007
0093
0086
000B
004C
009E
0033
00B0
0038
00B4
005D
007A
0038
0006
00C4
0097
0082
0057
0008
0025
0096
00D0
0055
0020
0003
0050
001E
0007
00B7
008C
00AB
0035
00AA
0062
00C3
0017
0074
006C
005E
00DE
00C6
000D
0034
00CD
0087
008A
0080
00E3
007A
0087
0016
00CA
00A4
002A
003A
0072
00D0
00D8
0022
0084
0093
0080
00C8
0082
0014
0062
0010
0063
00B3
0095
008A
004E
0080
00D4
007B
0052
004C
00D8
0050
0038
0061
007E
00BD
0024
0096
0099
002B
001C
006E
0093
0008
0079
004D
009E
000C
00A4
002A
008E
0099
002D
00AE
009C
0075
0013
00E2
005B
009B
007C
0075
005A
00DB
004A
0097
00CC
0058
0017
000E
00A3
000C
000C
0011
00BE
0036
002B
004B
0053
0031
0002
00CE
0056
002E
00AB
000B
0049
00A1
0070
00DA
0048
00B6
0099
0043
0014
0043
0095
0016
008A
00D9
003C
0019
0009
003A
00AA
001C
0085
00B5
0086
0063
009C
0084
0027
005B
00D1
00D7
00E2
00B3
00CE
0032
0080
006A
0050
00B5
00CD
005A
0004
00BB
000E
0096
0095
0096
00B8
000C
0035
0001
00B0
0063
0070
0007
00E5
0029
004A
00B3
00E8
0093
0001
0097
00EB
00C4
0076
0028
009A
00AE
00D1
0080
0061
00DB
00DC
00BC
0019
0084
00DC
0038
007C
003E
005A
00A0
003A
00DC
0093
0021
00D0
00D9
00D5
0055
00D4
0038
004B
00D5
0096
009E
0020
0027
00C4
0087
0062
001B
001D
0080
0003
0077
0000
009E
0059
0011
00A2
00D5
0074
0007
007D
00D0
00BA
00BA
0017
0013
0084
0013
0026
0036
0033
0026
001E
003C
0057
0063
00AC
0009
0031
00D3
00D2
00CE
0063
000B
0058
00DC
0077
00BD
00A9
00A8
0018
00C7
0076
00D1
0005
0030
0026
007A
00A0
00A0
006A
00CB
007E
004B
00DA
0070
0064
006E
0010
0020
0097
00A8
00EE
0005
00B5
0021
0024
0090
007C
00DA
00A2
0046
0009
00D4
00C1
0000
0018
0059
000A
00B7
0038
0074
0042
0016
0014
003C
00D2
0010
00B9
0061
00E6
003C
004C
0065
0076
0023
006E
0082
0010
0049
004B
002C
0028
0037
0034
0047
00AC
007C
0036
00C6
0036
00B4
00B6
0056
0043
000D
003B
007A
0031
00BB
008D
0054
00C2
0045
008A
0090
002A
00B1
0060
00D4
00B3
0007
00E1
00B0
00A4
0077
0036
00A2
008B
00E8
00C7
0083
0036
0095
0068
00E2
0049
001A
00A2
000D
0018
00B1
000B
00B2
00A8
007B
003C
00E5
0084
00D6
0000
00A2
004C
00A2
0020
0061
00AC
0085
0004
000E
0009
00AD
004E
00A4
009B
0078
00A3
001C
00E3
000E
00A0
00BD
00CC
006E
0065
00C1
00C1
000B
0029
00D5
0002
00CE
0025
0016
00C6
00C3
00E5
000E
00D0
0086
0000
00B8
004B
00BD
002C
0052
00AE
0050
0035
00C4
0056
0088
0060
00B2
00EC
0042
0006
00AC
0045
00D6
00B6
00E1
00BE
009B
00D9
0009
003A
00CA
0061
00A8
000B
000C
0094
008D
00B0
0062
0095
0070
00E1
0050
0092
0009
00E6
0015
0097
00B1
0080
00D8
005C
0085
0052
0002
00A2
003A
00D1
0051
00C6
0083
0064
0060
00E9
00B8
00B4
0095
0055
0091
00B9
0097
0097
00B5
00CE
00A1
0079
0072
00D5
0022
0004
00B7
0076
0006
003B
0014
00D3
0082
0094
000B
0009
003C
0099
00C3
0088
00E1
00AB
00AC
0047
00ED
00CE
004B
008A
00B3
000D
003D
005B
00CD
0070
0083
0071
000C
0057
0071
004C
0043
00A9
0073
00D1
00AD
00D2
0010
007A
0047
00C4
0042
00EC
00CB
0083
0070
008A
006B
007B
0004
0012
0096
0027
0091
00AD
00B0
00C7
002D
0005
0098
00A8
00A4
008A
00DE
00C6
005C
00DC
00A3
0052
0058
00A5
00E3
0016
00EC
004D
0056
001D
00E9
001E
00B5
00D4
009A
004D
0018
0083
002E
00E0
000E
0071
0074
0032
0061
00B7
00B8
00D7
007C
007C
0038
00B7
001E
007E
00D2
005A
0022
009D
0089
00D0
00CA
0081
00D6
002D
00A6
0017
0094
003D
0089
0023
0000
0079
0023
0061
0007
00D5
0023
008E
0041
0097
00A4
0075
007A
00DB
0046
00BC
0088
0050
008A
0009
001D
0048
00C2
0070
0023
003C
0085
00DD
0080
0023
0060
00ED
00EA
00B8
008E
0092
0011
0053
0008
00E7
00C9
00B6
00E6
0061
000D
00B2
0063
00A6
0020
00C8
00E7
0092
0049
0054
00A6
0060
0043
00D7
00B2
0055
00BA
00E3
0002
004D
007B
0021
0008
00A1
00A8
0034
0023
0099
0056
0015
00CE
002E
0011
00E3
0007
009C
007E
0047
00ED
008B
0067
0087
0028
0035
0058
0009
00DB
0001
0075
0088
00ED
007B
0097
00D8
001A
00A9
0022
00CD
0059
0020
00B9
008D
0064
0094
0090
001B
00E2
00E2
00E4
00AE
0001
00A3
0010
0060
00AB
00D7
00D7
00C3
004A
004D
002C
00AD
0068
0008
00C0
0082
00C3
0011
00D9
0052
0092
00B3
001C
00AA
00BD
00AD
0056
0034
003E
0049
002E
00B4
0017
0081
00D0
00D5
0019
0030
0089
0071
00CD
00B8
003B
00EA
0079
001C
007D
0015
0015
0049
00C3
00DB
0030
0018
0067
0058
003A
00E3
00CB
0032
00ED
008D
0033
0095
00AD
009E
00AE
0085
00D9
00B9
00AC
0079
00E6
008B
0085
0096
0059
006B
0049
009C
0034
0091
0003
0099
0027
0091
0055
00AE
0042
0033
00E4
0051
0039
005B
0091
0068
005D
00DE
00A8
0093
0036
000E
009E
0055
0007
0069
004B
0089
000E
00CB
004D
0027
00D0
0088
0010
00EB
000D
0031
008E
00B1
001D
005C
0050
0028
009B
0062
0071
0043
0087
0080
00AD
0011
00C0
00D0
0033
00B9
00C5
0048
0076
0036
007D
00BE
0015
00A4
004A
00C0
0039
0040
0024
00B2
0045
00DA
0054
0086
00A7
0029
0056
0038
0041
0052
0015
0067
0020
00B5
00DC
00BA
00C4
00E9
00E6
00BB
00C9
0068
00EC
0011
000D
007D
0045
00BC
00AA
0076
00CE
006C
00D8
00BB
0059
0077
0003
007B
0036
0094
00D8
0052
009A
00C5
009C
00BB
0003
002B
0050
002A
00E9
00E1
0032
0001
00BB
000D
00E5
0075
008B
008B
00C6
0022
0019
00BD
0031
0024
0098
0058
00B8
00C4
0041
0001
0011
00DE
00A6
00EE
00D3
0067
005D
0057
0057
000D
005C
0032
008D
001A
00CE
00C8
005B
0035
007B
0033
005C
00A0
00E0
0022
0070
0026
0003
0066
00CE
00A9
0089
00AC
00C8
003E
0048
0089
001C
00C4
0027
003B
00EB
0041
0047
0030
00DC
00E1
007D
0067
0027
0083
0089
0092
00A3
00D5
0033
0077
0013
007E
001C
002E
00C0
0010
0074
0058
0071
0050
000C
0058
00A0
008A
000B
00DE
001D
00B0
005D
0013
004C
002A
0068
00BA
0010
00A6
00E4
0084
0029
0047
0000
0011
00A7
0078
0069
0010
0010
00DC
00C1
0062
00E9
00D2
00A7
003C
0017
002B
0074
0089
009A
0065
003B
0037
00B2
0072
0030
00C7
00E8
0010
0041
0074
00ED
0024
003A
00E5
0040
00DA
00A9
0013
0042
0019
000A
005B
0042
0091
00E0
00B9
00D5
0009
003A
0079
00D4
00ED
0047
0048
0031
00B5
002E
00A8
005E
0056
00D9
006E
0096
007B
00AE
00EA
0001
00E4
00B2
00B0
0080
00C3
006E
0017
0019
0076
0066
007E
0093
0080
00D3
006B
00A0
00D2
0051
001E
002A
00C2
00E4
0036
0099
001D
005A
00D9
001B
0081
00D7
0050
00A3
0096
0029
00DE
0063
0095
00A0
0060
0012
00D2
0053
004B
0066
004A
00AE
0014
0021
0045
001A
001D
0044
0069
0048
007B
0010
009B
0010
0033
0002
0018
0004
00DD
00D1
008B
0028
004E
0001
0095
0053
008B
0038
00B5
004C
007A
0032
00DC
00ED
007A
0092
00AD
0019
00E7
00D6
00AE
0065
00E7
0051
0059
0095
0019
00B0
00E5
007C
00C2
00CB
00A8
0023
00BA
0041
004C
00D8
00BE
00B0
0052
0072
006C
0050
00AA
00EE
0030
0005
00C8
0065
00E7
0096
00B9
0086
00BB
0033
00A0
00A8
00CC
00CC
00C1
00A6
0033
00EC
0098
0035
00AD
003B
005C
00A9
00AC
0044
0031
0049
00AA
00A1
0075
0078
002E
0086
00A5
001E
00B2
005D
00EA
00E7
001B
0011
00E7
008A
0007
0024
00B9
00D2
0035
0057
0069
006A
007C
00C6
00E4
002D
0043
00BB
0047
004B
0046
005C
0023
00E5
009C
007B
008B
0071
0056
00E4
0056
00C3
007E
0056
0077
00E3
0088
0012
005B
0008
004A
008D
006C
002D
0092
00A7
0035
00A7
0072
0054
0039
00BA
001B
00BA
0021
00BA
0027
0041
0020
009E
009B
009A
0020
0039
005D
00C6
0056
00AE
00EE
0006
0066
008A
00A0
0020
000E
00B2
000D
00B2
001B
005A
0070
00D2
0077
0072
0090
00DE
00D6
006B
0084
00E6
00E3
00B5
0029
0075
0022
00AA
007D
0086
00CD
0094
00C1
0000
008C
0007
00C7
00D4
00B7
0045
0047
00A5
0054
00E2
00AE
00D8
007A
00CD
006E
0001
00D3
00DA
0069
0090
004A
0083
0082
0024
0005
00D7
0068
001E
004D
0035
0095
00EA
009A
00B1
0033
00BA
0064
0009
0099
00A7
001A
008D
0097
0066
0025
0075
00E3
0076
00E6
00C9
0040
0051
00E2
003B
00CB
0009
00A3
0038
007E
007E
0022
003E
0088
008C
00B6
0036
0016
0047
0049
0051
0040
0004
0061
00D6
0024
00DD
0056
0047
0035
0040
0033
0083
00A7
00E9
0038
00C1
001C
004A
00C2
0018
0099
0085
005A
00E5
0019
007C
0058
00D4
0069
00D2
009C
0075
0006
000D
008A
00D2
008A
0099
00C9
0020
00AC
00C6
0092
0009
0018
00C0
00A5
0099
0096
0071
0051
0025
004B
0067
0070
0023
0044
00D6
007A
0047
00B9
00B4
0003
009D
007E
0062
00C0
0075
006C
000B
008A
008B
00E9
0078
002A
0047
0038
004C
00AE
005D
0063
000A
001B
00D9
0051
0057
0050
0014
0096
00D0
00CE
005D
004A
00D9
0063
0085
0064
0073
009B
0069
0053
00C2
0018
0016
00D1
005D
000E
0041
0038
00E6
00D5
000A
0098
0012
0074
00C4
0001
00ED
00D2
00A3
0002
00C3
00CC
0050
0044
00CA
0074
0084
005E
00C0
001D
009C
0094
0067
0066
0046
0002
0078
0058
003D
0064
00B6
00AE
00D0
0054
0060
004B
001A
008D
0012
0059
005C
007A
00A8
00A3
0072
0011
00D6
009E
0044
00EC
00D1
00B9
00D3
00AB
0059
0083
001A
00AE
0050
008A
0060
0031
0092
0069
0056
0004
00C7
009B
003B
009C
001A
004C
0027
0015
006B
0041
00AD
002E
00B0
0032
0041
007E
0050
00A0
0077
0030
00A2
000D
0095
0043
0064
001E
0090
006C
00D8
0087
00EE
00E0
004A
0007
009B
000D
007C
0054
0022
00BB
004B
005D
0084
0005
00B8
0075
003B
009B
0049
003E
00D2
00D3
004C
006B
0035
004C
003C
00D7
0062
00D8
00ED
003B
0016
00E3
0017
0058
009D
0070
0057
0031
00A1
00A8
00DE
0054
00E6
000C
000E
004A
00EB
0016
00C1
0039
005D
0044
008E
0036
005C
00B8
00D1
0007
003D
0098
0081
0013
005C
001D
001E
00A8
005E
00A2
00E6
0038
0077
00C1
004B
0037
00B3
00D0
00E5
000A
009A
001D
009B
0054
0008
000C
006E
0029
0062
0058
0028
0062
0081
00A9
0083
00DB
00E9
0023
007B
0026
00CE
008D
002E
0005
00C5
00B1
001A
0044
00C4
00D2
00D2
008E
00E7
0038
00A4
0040
00BA
00C0
00B9
0014
00AC
00AD
00C6
007C
0052
0040
0086
006C
005A
00B8
00D6
0030
0086
0052
0011
0088
0065
00B2
005A
0012
00CC
00BB
0046
0084
0096
0025
0031
009A
00D6
007B
0079
0071
0056
005E
00C0
0005
0086
004B
00C1
0054
0017
0076
0079
00E8
0073
001B
004D
00AE
00DC
006E
000E
0072
00C6
0023
00C2
00AB
00B1
0050
0008
006A
0000
009A
0076
0048
0065
0095
0013
00BE
00D2
005D
00AC
0001
0071
0072
00C7
005C
00E9
00E1
0011
0021
00C1
0045
0073
00D8
00C0
008A
005C
0001
003D
00B1
0015
001B
00EE
001D
00A9
00B8
0004
00BA
00DB
00E0
0016
0039
00AB
00E7
0013
00CA
00C2
001E
0024
0081
00D9
0075
0091
0022
0047
002C
00CC
007D
00B2
005E
0080
00C6
004E
0066
0094
00A3
0052
00E0
0029
0016
0016
00E0
00C1
0000
00E0
00D1
008B
0066
00AD
00A8
0093
005E
003C
0065
0013
001E
00EB
00C4
00AB
0027
002B
0032
0006
00A3
0083
0077
002B
0016
001E
009C
002C
00CC
0081
00B0
0041
0002
000C
0041
0088
009D
001C
0074
0033
0011
003B
0018
0012
001D
0098
0002
00C1
002E
00C3
0073
0063
00A7
00C8
000C
0095
007C
0003
006E
001B
00EE
00B3
0091
0086
0098
00AB
00E3
00CB
00B8
0077
00CB
00C1
0097
003C
0078
0022
0029
0089
0045
0037
003E
0022
00AC
00A9
0045
0067
00AA
007A
0094
006C
0056
0084
0013
009C
00E6
00C2
000C
00B0
002A
0062
00C7
0058
00C3
0067
0017
00C3
0096
0040
007D
00C9
0059
00E7
00D3
0044
008D
004A
00AB
0097
00C9
00E5
00AD
00E1
00BD
0068
00D6
00E9
002D
0052
0070
008C
002D
0077
00BC
002E
0041
0034
0028
0012
00C1
000E
00C3
00AC
00E5
00BB
00ED
00C3
00EA
00BD
0084
00DD
000C
00DA
00A1
0092
0020
0030
0037
0027
00D7
00D0
0037
003A
006B
00EB
0089
005C
00D7
00CE
00C4
0058
0083
0007
0007
0024
0065
006E
006B
00A0
003B
002D
002E
0085
001B
0049
00C1
00CB
00E9
0007
0058
00E4
0099
000C
00D9
0061
0040
0085
0013
0063
0030
000B
0060
005A
00C9
0062
0098
0054
0005
00A3
0032
0016
006D
00B0
0012
00C5
0041
0015
0024
0089
0061
0013
00BB
00A4
0053
00B5
00DA
0084
0035
00C2
0064
00C9
00EC
0087
0034
0079
00E7
0097
00B5
00A5
0014
0068
00B9
0044
0025
0068
0036
0019
00DB
0006
00D2
00AD
00BB
0076
0070
00AA
0018
00A6
003C
00D3
0006
00DC
0061
0059
00C6
0018
00B5
0034
00AE
00A9
0028
007C
0054
00D4
0096
0080
0086
0075
00E3
0056
0037
00B3
003C
0064
002B
00A0
007D
00E5
00D5
0067
00B2
0042
0001
0079
0057
00A6
0060
001C
005B
00B1
0081
0071
0035
009E
0023
0009
0099
0033
0029
0058
0012
0040
0020
00C3
00E6
0040
0027
00C3
0015
007C
00E3
00D5
0078
0004
0007
0094
00D6
0028
0030
0007
00A7
0082
00E2
0069
0057
00A8
0033
006C
00C8
00D2
0025
005A
0087
0008
00AC
004D
00E2
00D5
00A0
0096
00EC
00C8
00E1
004E
0056
0004
0013
00D1
00DC
007D
0068
00AD
0046
0032
0072
005B
0010
00AC
0053
001C
00C4
00DE
0097
009E
0049
007D
004E
005B
00E0
0030
00D7
0021
0005
00D9
007A
0003
0051
005B
0055
00A4
0022
003C
00D2
0091
0089
0058
0051
0089
001E
0063
0008
00EC
005E
0042
0015
0066
0058
0064
00D0
0089
00B5
00EE
00AC
007D
000D
00B8
0036
0073
0051
000C
0028
005E
00E9
00D2
001E
0014
000C
0083
0009
00B8
001D
0077
00CD
0023
0094
00B0
00A4
0096
00DB
0063
00A7
0045
0046
00A7
00E9
00EA
000B
0028
0026
00AE
008C
00B1
003D
00D4
0002
00AD
008C
002B
001D
0044
00D5
0001
005A
0042
00A3
0062
00E0
0097
004C
0096
008B
00B8
0026
0066
0087
0089
00B6
0097
0062
00B6
00E5
004D
0027
00C4
0075
002C
00C2
00A4
00C1
000C
00AD
00AC
006E
0023
0000
0074
0067
00CC
0050
00DC
0035
008B
007C
0019
00CB
005B
00AD
00BC
0013
0029
00CD
0016
000B
009E
003C
0095
0048
004B
0031
0049
0002
003D
00A4
007D
0011
00CC
00BD
0038
00C5
0016
00EE
0024
0017
0005
00B7
004C
0075
001D
0025
0067
00C3
00A8
007B
007A
006C
00CD
0068
00EA
0043
00E4
0011
0023
0086
00B8
007E
0098
0002
00B2
0050
005E
007B
0001
0081
0046
00ED
0091
0072
00A1
001E
0091
00C7
0068
0065
00E2
0075
00BB
0067
00B4
00DD
0044
0028
00D4
00DC
0091
0079
0036
0049
0054
00AE
004B
0075
0089
0045
0044
00BE
00B6
0055
001A
002E
00C8
00BC
00BA
0072
0072
00EE
005D
0032
0062
0037
0000
007D
0095
0009
00DA
0077
0033
00BC
0096
0011
0042
00B5
0046
00D0
0073
008A
0019
00C6
0044
000C
0093
0069
0049
0086
0060
000C
00C5
007B
0016
00CB
009B
005D
00B0
007A
0098
0076
00EE
00A6
0014
00B5
0045
0035
00C9
0054
0059
002C
006A
004C
00E0
0003
0098
002C
0036
0079
0064
00C1
0019
00B9
005D
0085
006C
00A1
00D6
009C
0089
0057
00DA
0058
00E6
0099
0016
00D8
00BC
00E9
0097
0073
00CA
00D1
00BD
0094
00D1
0035
0057
00B3
0072
003E
0026
007E
008D
00DE
00C0
0046
00A2
0085
00BC
0009
0085
003E
00AA
00AD
0046
0079
0006
0081
009A
00B2
00CA
002C
0046
0093
006B
001A
00A9
00C3
0054
0010
00CA
00DD
0002
0086
00E0
009B
00BA
0020
0089
005A
00A9
0032
001A
00A3
0063
00D6
003D
008A
008B
0010
0075
00E4
00E9
00EB
0036
0048
0021
00A0
004C
00C5
0085
002E
00DE
005B
0092
003B
006B
00CE
00D7
0095
0004
0045
0081
0022
006D
00E1
0063
0077
001B
00D1
00D6
0002
003B
00AC
00B7
00DD
002B
00B4
0029
0077
00B0
0083
0005
00B4
0076
0091
0038
006B
0059
0024
000A
0040
00C3
0045
00D5
0019
00C4
00C6
0040
009E
0048
00E3
0039
0086
0033
005C
00D1
0012
00A3
0029
00D1
003C
00BC
0087
005D
0063
0062
00A8
00C0
00A1
0083
00E2
00E7
0022
0040
007A
0032
0093
009D
003E
00A1
0060
008D
00E7
00AD
00D5
0046
0018
009C
002C
0014
00EA
00C5
001D
001D
008C
00AE
00D1
005D
0029
002E
0008
00D1
0075
0050
00C7
0062
00B5
0072
0005
00A0
0007
00BB
0040
00D9
00E4
00C2
007E
008B
007C
0062
0052
00C6
00A0
0005
0017
00E5
0060
0018
0056
0038
0021
0084
0037
00D0
00A5
00B2
00A7
002E
00A0
00DA
004E
00C0
00DC
00E9
00C2
00B1
0059
0064
0055
0019
00B1
0012
0033
0000
008C
00CC
00DD
002D
00E8
008C
009C
002D
0079
0048
0040
0032
00A0
003E
0030
007B
00DA
003A
008E
0001
0027
0009
0044
00AE
0002
0003
002A
00E6
003E
00E9
0094
009D
00AD
00A9
0000
00A7
002C
00DC
0088
006D
00A9
00AB
009E
0050
004B
008C
0055
0084
00D3
009C
0023
00CD
00DB
003E
0053
00B9
0069
0062
0053
00DD
0097
002C
002D
00D8
003A
00E2
00CA
00D9
0016
00C9
00D4
00E3
00B7
004A
0024
0090
000E
0057
00EB
007E
00B4
0002
0042
001A
005C
0046
0035
0009
0098
003E
004D
00D1
0024
0026
0037
0077
0095
00AD
0086
0007
009E
0070
0050
0028
0069
0030
00BC
0007
0012
0041
005B
0031
0033
0020
00BD
0056
00B8
00B3
00D9
0050
0048
0068
009A
007A
0047
00B5
00B8
0071
003A
0001
0015
000D
0068
00C7
0080
0012
001D
006C
00D1
00CD
0080
00D3
0036
002B
005D
0053
0049
0039
005C
005C
00C4
0035
0069
00D6
006B
0028
00B4
007D
001E
001C
0009
009D
00B2
0042
0031
00A1
0057
004C
00AB
00C5
00E6
0029
0045
0025
001C
00CE
00B3
005C
0032
0091
00A1
003D
00A6
00E9
0092
00A9
00CB
0093
0073
00DE
00DD
0026
00EB
0033
005C
000C
00C6
00B7
002A
00BA
0027
0016
005A
0050
0067
001A
0067
0019
00A1
0053
0041
00DE
007A
0083
0052
0037
0053
009A
0076
008D
00D7
00C0
0084
00EA
000E
00DD
0016
001B
00DB
006B
00E7
0009
002B
0012
00C8
0069
00A8
00B1
00E1
00DB
009D
009B
00E8
0083
0005
005C
00B9
0036
001B
0069
00D7
00D9
00ED
0075
006E
00B4
0066
0029
00C4
0089
00E6
000E
0084
0093
0019
007E
00E2
0019
0048
004B
002D
00EE
0016
0024
0078
0036
0065
007E
0052
007C
0021
00EC
0014
00E7
0043
00A8
0004
0032
007C
0018
00D7
00A5
0008
00D8
0069
0008
00D8
0001
00C5
0071
001D
0014
008A
00D6
0039
0053
0060
0015
00D7
0095
00D1
0052
004B
0058
0060
0034
008D
002C
00D7
00A6
001E
0082
0017
00EC
0011
00C4
0097
0013
00E8
00D3
00EC
0025
00B9
00A8
00E6
00AD
0096
0096
0064
00E6
0097
0086
0005
0074
00B0
0003
0067
0049
007B
00E3
0004
00D3
00AE
00DC
0046
00AB
008C
00B6
00C7
00D1
00E3
009D
00EA
00EE
00EB
0001
006B
00B0
0098
0006
00D2
0084
00AA
00D8
0039
0070
00B7
004A
0023
005A
00AA
00EA
00C8
0092
0015
0060
00E9
001D
0024
0044
0037
0040
00D0
001C
0045
0076
0005
0060
0011
0030
0071
0095
0025
008B
0062
0028
00C4
0072
009A
006C
0070
00B9
0074
001D
0052
00A5
0044
007B
00A1
00C1
000C
005A
004C
00D1
0092
0054
00ED
00DB
009D
00A6
00C5
0045
0054
000E
007D
006B
0088
00A1
00A0
0099
0061
00A0
00D4
00EB
00A7
00AE
00B8
0045
0006
007B
00A6
0095
