090A
0608
0405
0C0C
0208
0D08
0A0B
090C
000E
0901
0708
0300
0100
040C
0109
0E09
0102
060E
0502
0E01
0E0E
0202
080C
0D0A
0505
0401
0E03
0205
0008
0B02
0807
010A
060D
0509
0706
0E04
0D00
000D
0903
040E
020D
060E
030D
0E0E
000C
080E
080E
0703
070D
0B09
0A02
030D
0B05
0507
0D0E
020D
0405
0E07
0202
010C
090D
0504
0E09
0705
0903
050D
0003
0E0B
0A07
0A0B
030C
0801
0E03
0A0B
0800
0C05
0D0B
050C
0E05
0402
0C0C
0108
0B08
060C
050B
0400
050D
0302
050C
020A
040D
0B0D
050C
0909
0E0C
0900
070E
040A
050D
0902
0700
050B
0701
0604
0C09
0A05
0209
0401
0E02
0306
0608
0C01
010D
010C
080C
0708
0A06
0104
0601
0206
0C02
0804
0C01
060C
080C
0D05
0504
0009
0902
080A
010C
0802
0D02
0D01
0E0D
0802
0805
0801
030A
0402
050B
0302
0809
070A
0409
0D05
0802
0702
090D
070B
0602
090B
0A0D
0208
0E09
070E
010C
0707
0509
060E
0304
0D04
0606
0C0D
0D06
090E
0608
0302
0503
0B08
0106
090B
0908
0408
0002
0807
0207
0D00
0E0E
0901
0701
0800
0D0A
0B06
0D0A
0B05
0109
050A
0B01
0505
060E
090B
060E
0B0D
0603
0407
0506
0A0E
0102
0009
0507
020D
0704
0C0D
0803
0E01
0E08
0400
0404
050D
0103
050A
0104
0D07
0803
0C07
0607
0108
0E02
0D00
0E0A
0709
0705
020B
0B0E
0207
050C
0407
0607
080E
0D03
0E0D
0401
0307
0504
0006
000D
0804
040C
0D00
0007
0E07
0407
010E
0300
0200
0501
0B09
0405
0202
0D06
0B0A
0202
0704
0D08
0D0C
0903
0B07
0500
0C05
020A
0D05
0605
0D02
0E0C
0B02
080A
0E0C
0707
0B0D
000D
0600
070B
0A03
0906
0404
000B
0B00
020E
0D00
0E00
0509
0608
060C
0D0D
0907
0D00
0308
0D0C
0707
0E0A
0C00
010A
000C
020A
0106
0405
0A01
0205
0C02
0E06
0505
0701
0908
0D06
0B04
0508
0A0B
0E07
0B0D
0803
0A0C
0D04
0B06
0B0D
0802
0501
0302
0D00
010A
0307
0209
0C04
0B09
080E
0002
0200
0101
0703
0906
080E
080C
050A
0800
0109
040D
0A03
0107
0E04
0403
0400
0407
0900
0C0C
0C06
0002
0B00
0B07
0E0C
0E02
060D
0906
0109
0D09
090E
070B
0C06
010D
070B
0903
060B
0908
020C
0A02
0608
0B09
0804
0709
0605
0C01
030C
0D06
0206
0804
0503
0102
0B0D
0101
070E
0E01
0002
030A
0B00
0A0B
0106
030D
0907
0E09
0705
070E
0E0B
0D00
0207
0702
080C
0202
0604
090C
0105
0804
0408
0900
0904
0108
0109
0300
0908
0309
0602
0D03
0007
0508
0803
0904
0809
0905
0000
0407
0106
0100
0B04
0A06
0003
0203
0C0A
060D
0C07
040C
0200
0506
0807
0E06
050B
0403
0802
000D
0909
0907
0509
0D0D
0E09
0308
0202
0C03
0E09
0204
0204
0D01
080E
0104
0B02
090D
0105
0D01
0901
0A02
0806
0405
0401
010D
0208
040E
0307
010D
070D
0109
0E08
0E08
0306
0B06
0807
050C
0A07
0D07
0D0A
0B01
0809
0E08
0903
0106
0D07
0E03
0D09
0500
0D01
0D07
0806
020C
0201
0002
0C0D
0B09
0609
0A05
0403
0700
0D00
0909
0A0B
0D0E
0809
0205
0E04
0104
0702
0E01
0A0C
070D
0002
0E04
0303
0903
070B
0509
0905
0801
0801
090D
090E
0506
0400
0907
000A
0807
0E06
0702
0506
050B
0801
0709
0B04
0606
020B
0809
0B0D
0205
010E
090E
040C
0202
0C08
0007
000E
0208
0706
0809
0701
010A
0B0E
0C0A
070A
0E08
0B07
0E0E
0E03
0305
0B0D
0E06
0102
090D
0107
0001
0609
030C
0107
0A0B
0308
0A04
0A0E
060D
010C
0909
0401
0103
0405
0400
060C
0A0D
0A0E
0108
0C0A
0A09
0708
060B
080D
0B05
0D0E
0002
0100
0A07
0D0E
010C
0C0D
0C02
0E06
0006
0606
0A03
0102
020A
010A
0201
0702
0906
0E0B
0A0B
0102
0504
0A0A
0100
0609
0505
070A
050E
090A
0409
050E
0100
0206
0208
0D09
0E01
0208
0D05
0302
0007
0E0B
090B
0C09
0602
0D08
0003
0D0C
0408
0402
0004
0E03
0808
0201
0002
0109
010C
040A
0609
0B01
0105
0D01
0208
0B0E
0106
020B
0704
0305
0E0E
0106
0406
0106
050A
080B
0E0C
0902
080E
0503
0C0B
0B0D
060D
0D05
090D
000C
0409
0D0C
0909
0604
0207
000B
0C08
0509
0905
0104
040C
0C08
060A
0805
0701
0000
0D00
0600
0509
0909
0608
0204
0C01
080A
0201
0D04
0A0C
0206
0607
0209
0301
0E02
0209
0101
0D02
050C
070E
0805
0A09
0D05
0E0E
0802
0500
0402
0604
0203
0309
0801
0D02
050D
000A
0D08
060E
0B0E
0403
050C
010E
0908
0508
0102
0503
0403
0608
0C09
0A0C
0A03
0003
0A08
0402
0E0A
0A06
050A
0707
0B0D
0100
0D07
0604
0501
050C
070B
0D0A
0200
0009
0E0C
0B01
040C
0703
040A
0109
0503
000A
070A
0105
0903
0303
0401
090E
0C03
0000
0A00
0E0A
0B0E
0702
0D05
0107
030B
0901
0106
0B0A
0E01
0003
050C
040C
0705
040B
0503
0908
040C
0800
0900
0C0D
0705
090E
0006
0C01
0B00
0D02
0B06
0100
050E
0E01
030B
040D
0E07
030C
0300
0304
0707
0E0D
0600
0506
0606
020A
0607
0D09
0400
010A
0D09
0C0E
0501
0005
0E06
0108
0D03
030D
0409
0808
0A0A
0001
0C01
0C0A
0204
0609
0404
0600
040C
0400
0108
0708
0107
0D0C
0B04
080B
0905
060C
0D0B
0507
040D
0A09
0E02
0C0C
030C
040E
0905
0102
0801
0E04
0C0E
0D0D
080D
0C09
0E0D
0B09
0B04
0208
0C07
0304
040D
0001
0804
0A0B
0605
0B04
090A
080A
070A
0009
0208
0900
0209
0E02
0900
030A
0106
0908
0E02
0C04
0703
000D
0502
060A
0E00
0D07
0D04
060C
0E09
0303
0607
090B
010B
0D0C
0208
0B0B
0D0A
0906
080C
0704
0D0E
0805
0702
0C00
0107
050E
0906
0502
0402
020C
0508
0D04
0806
0E0E
0504
0E0D
0E04
0D08
0003
0406
0D01
080B
0C0D
0803
0207
0101
0207
080B
0C05
0A06
070E
0609
0607
0E04
0609
090E
040A
0C05
0B01
0E0B
0202
0506
0509
0106
0E03
0B06
0401
0504
020B
0703
0203
0302
0907
0205
0602
020B
0407
020B
0501
090C
0D09
0103
0009
0B07
0C0B
0208
050E
0A02
0307
0C0D
0209
0706
0D00
0501
0807
0108
020C
0102
050A
0B07
0B0E
030E
0604
0102
0C09
0D0A
0202
000D
060E
0101
0D0E
0E07
0A00
0809
0B0B
0909
0205
0403
0604
0605
040A
0D0E
0207
000B
030B
070A
0303
010B
080C
0A08
0407
0B03
0701
0D0C
060C
0509
0C0C
0707
020A
0404
0A0C
010E
080A
0608
0D0B
0005
0704
0C0E
0A0C
0C0D
0603
0D06
010C
0009
0E0D
0C06
010E
0D08
0502
090A
050B
0300
0302
0E04
040E
0707
040E
030C
0406
040B
0B0B
0801
010C
0D0C
0505
0E0D
0A04
0406
0209
0506
050C
0A04
0C0A
0D06
0104
0A0B
0306
020E
0101
060A
0603
0405
0B08
060D
0C0B
0808
0700
0102
060D
0306
0D0D
0C08
030D
0E00
0C0B
0B02
0E04
0B06
0709
060A
010C
0B05
0104
090D
020B
0106
040C
0D01
0E07
0604
0E0D
000A
020B
0606
040A
0207
0501
0D08
0505
0A0A
0707
0908
0C04
0606
0C07
0A08
0501
0A01
000C
0A01
0B06
060B
0405
0906
0108
040E
0408
0201
0805
0502
0506
0B0E
0806
0807
0806
030D
020C
020C
0E02
0B0B
060E
0D00
0B06
0B05
0909
0E07
0B07
0B03
0D03
000E
0A05
0403
080A
080C
0A0A
0108
0606
0003
0900
0C05
0108
0609
0709
050D
030C
050E
0A03
0103
060A
0901
0606
0B0B
0D07
0B04
0409
0A08
0100
060C
070A
0B06
0407
080D
0004
0D03
0704
0D09
0405
0601
0907
0D08
020B
0B00
0906
040D
0D09
050E
0807
0A06
050C
070D
060E
0203
0308
060B
0A09
0100
0B0D
0A09
060D
090A
0408
0A0A
090E
0901
0207
0409
0802
0D08
0B0B
0C08
0104
0B05
0706
0D07
0E0B
0103
010D
0B0E
0103
0108
0A07
0102
0D03
0E03
010B
0503
0704
0A0E
070B
0200
0100
0905
0002
0A07
0507
0908
0207
0E0D
0503
0D01
090B
0007
030D
0D08
0700
0809
0206
0702
0C03
0301
0207
0309
0304
0D04
0001
0909
0D04
0B0B
050D
0207
0906
0008
0E02
0C05
0504
030C
0103
020D
0601
0302
0206
0706
0E02
0301
030D
0507
0E03
0202
0305
0E06
0308
0702
0202
040D
0603
0202
0009
020A
0704
020D
0A08
080D
0209
020D
0B08
0303
000B
050D
0306
0E0E
0309
0204
0803
0907
0B06
0503
0909
0508
050A
0D02
0600
0207
0707
0E00
0B0B
0209
0C0A
0C0D
0C00
0404
0808
0B08
0B02
080E
0904
0407
0607
0208
0D03
0D09
0807
0C07
0903
0A02
000B
0D0B
0104
0B09
0304
0902
070D
0504
0409
0606
0804
0009
0E02
0800
0004
0607
0407
0C00
0D02
0406
080B
0001
0E0C
0C01
0907
0D0D
0508
0702
0A05
0E00
0804
030D
0309
020B
0102
000A
0101
0003
010A
0D03
0707
0803
080A
010D
0201
0806
0605
0307
010A
070B
0006
080E
0808
0C09
030B
0B06
0C00
070A
0E09
0A05
0305
0607
0800
0107
0008
0C0C
0102
0505
0905
020E
080D
0706
0806
0A0B
0207
0109
030D
030A
0600
0802
000D
0E09
0D01
0805
0E03
0A07
0803
0107
0706
0A0A
090C
0D05
050D
0300
0108
0D07
020A
0C01
0903
070D
0904
050C
030E
0808
090B
0505
0801
0D09
0B07
0803
0D04
0406
0605
0500
0E05
0C07
0504
0507
030C
0308
0602
0208
0B05
0D0E
0802
0B00
0806
0106
0D06
0100
0D08
0B03
000A
0C04
0106
0107
0C0C
0B05
0A07
0C0A
050D
080B
0B02
0307
0906
0908
0205
0508
0D05
0A0A
0801
0C0C
020D
0707
0808
0100
0B03
0208
0507
0A03
0B07
0305
0508
0603
0909
0D03
070C
0201
0D02
0A0B
0B03
0103
0D03
0607
020D
0501
050C
0A06
040A
050A
0C02
0E0A
0209
0D0D
0703
070A
0C02
080D
0B06
0D01
030A
0408
0903
0301
0605
0D0B
0600
0D08
0300
0E0A
080E
0203
040A
0B07
080E
0E00
040B
010E
0909
0408
0D02
0707
0C03
0503
060B
0308
0A06
080B
0E09
0C02
0407
0B08
0B0E
0B03
0402
0D0E
0A0E
0805
0103
0A09
080D
0200
0104
0200
0902
0D08
030B
0105
0C09
020D
030C
0600
0C0C
0400
0A07
0B09
010D
0009
0A0E
030B
0E0C
060C
0A0E
0B04
0C07
0807
0009
0B02
0E05
020B
0606
0500
0409
0908
0808
040C
0006
0B09
0505
0606
0103
0700
020E
0303
0705
0703
0D0B
0E01
0902
0803
0A08
0D09
0B04
0507
0800
0A03
0200
000B
0908
0606
0205
0C07
010C
020B
0207
090D
0B06
0800
020A
0A0A
0106
050E
090A
010E
050A
0104
0C06
0E08
0700
0E04
0D05
0601
0306
0802
0901
0B0C
0E05
080B
0B03
0D00
020A
0808
080B
070D
0D07
0609
0807
0808
030E
050A
0E09
0D03
0C0B
0E05
0B05
0006
0708
0D0E
0702
0506
050E
000C
0101
0D07
0408
0707
0A08
0A05
050B
0507
0506
0300
0605
0604
0901
0D0B
0808
0A0A
0E00
0404
0502
0307
060C
0206
0C0A
0301
0407
0707
0D09
010D
0709
0C08
0B02
030C
0606
0C07
0A00
0301
0004
0807
0306
0306
0709
080C
0601
0307
0103
000B
090C
0D02
0603
0E02
0A03
0E09
0B03
0206
020D
0400
0E05
0D03
050C
000A
0207
030A
0009
0403
0E0E
0805
080E
0C0C
0C0A
080D
0509
080E
020B
0A02
0304
0B07
0206
090D
0502
0904
0106
0B05
0507
0508
060E
0C05
0600
0701
0403
0703
0904
010B
0504
070A
0704
0204
0E0B
060B
0C08
0907
0906
0D0B
0C03
0709
0E03
000C
0509
0C0B
0607
090C
0805
0709
0B0A
0008
020D
0506
0A05
0D06
0C0E
0C06
0308
0504
050E
0608
0B0A
080C
020B
050D
080E
0D08
0403
070A
0A02
0200
0201
030D
0D0C
0D09
0709
050B
0703
0200
0A0D
0403
0B0C
0108
0A05
0109
0704
0408
0107
0D0B
0B0A
0005
010A
050D
0607
010A
0103
0004
0E0D
0B05
0D0E
0503
080D
0709
0D07
010C
0004
0B08
0205
0A09
0601
000A
080D
0002
0607
0508
0204
0E03
0C08
0B06
0803
0800
0E00
0107
090D
0B05
0901
0C05
0207
0D09
0009
020D
090A
0608
0C02
0303
0306
0D00
0D04
060B
0205
0109
0C0C
0B0E
080B
0C0A
0507
0E04
0007
0A0E
080C
050D
0D0D
0501
0502
0C02
0503
0008
090E
0C01
0C04
0A03
0E03
0E0D
050C
0001
0509
0309
0C0D
0B0E
0602
0701
0000
0900
0405
0C02
080E
0805
0006
0D0B
0D0B
0103
0305
0300
0504
0B0B
0E0B
0803
030B
0A09
010E
0707
0003
0A03
0904
0E00
0B09
0E04
0801
0901
0501
020A
0202
0C05
0301
0D0C
0E0E
0B0C
0D0B
0700
0006
0A0A
030C
0305
040A
030B
020D
0A00
0B0A
090D
000A
0603
0005
0505
020C
0B0A
050C
0607
0105
0506
0D09
0A06
0B09
0200
0604
0E0B
0101
0A08
0308
060E
0403
0309
0102
0107
0103
0308
060B
0001
0105
0C09
070B
0106
0D0E
0807
0104
0909
0B06
0004
0B05
0807
0706
0204
010B
040B
060A
0900
040A
0A05
0501
0401
060C
0E0C
050C
0002
0703
0804
030A
0B0A
0904
0504
0E08
0E06
0E03
0C00
060C
000B
010C
080A
010A
0100
0506
0402
0707
0109
0807
0D07
0B09
0D07
0008
0A03
0E09
0C06
0E0B
0501
0201
0008
0E08
0608
0A05
0B02
0B00
0C0C
0003
0808
0A02
0109
000D
0A08
050B
0E01
0600
0209
0605
0907
0801
030C
0C0B
0200
0B04
0501
0C04
010E
0508
0B0B
0800
0807
0100
0D0B
0A06
0D0A
000A
010A
0001
0A0D
0404
070A
0C0B
0B0E
0C05
030D
0A02
0602
0207
080A
070A
0708
0C08
060E
0309
0907
0306
0108
0906
0C01
0D08
0708
0B0A
0202
0B00
060E
0C0B
0706
080A
0D02
0E08
0608
0400
0C00
0705
0708
0B07
060B
0603
0707
040E
0A0C
0700
0C01
0409
0D0D
0B0C
0009
0100
0304
0206
0E02
0200
010B
0E04
020E
0102
0D02
060A
0603
0506
0C02
0A05
0206
0E0C
0105
0602
0006
0D09
0D0A
0606
0B01
0B0E
0D0B
0901
060D
050D
0505
0008
080B
090D
090C
0A06
070C
0A0E
050A
010A
0E05
020D
0902
0B03
0B0A
0703
0808
0E09
0201
080C
0D0C
0300
0A09
0601
0903
0C03
0B0B
0401
0608
0C02
0203
0A07
0303
0806
0909
040C
0008
0603
040D
010D
0103
0904
0205
060E
0E0E
0704
0706
0401
060C
0C00
0502
0507
0801
0309
000A
0609
0A07
0906
0905
0604
060E
0D0E
0104
0907
080A
0E03
0B05
0804
0D09
0C0E
050B
0C04
0807
0407
0B05
0B0B
0209
0C0C
0A0A
0C0A
0607
0A06
020D
0D07
050E
0705
020C
0600
0A0A
0306
0A0E
090C
0B05
0100
0207
0A01
0B05
0005
060A
0508
0C09
0209
090C
0B09
0002
0D0E
0906
0907
0904
0E0E
0300
0900
0504
000C
0C0B
020A
0B06
0B04
0C04
080D
0D0B
000D
0A00
020C
0507
020D
040C
070B
0005
0A0A
090B
0700
0C03
0309
080D
0703
0C0B
060C
0E0B
000B
0E06
000C
060D
0000
080A
0B08
0201
0502
0C07
060B
0407
020B
0C04
0E07
0605
0808
0000
0705
0605
020C
0B00
020B
0C0A
050E
0E06
0E0D
0201
0C08
0D03
090B
0E09
0601
0505
0708
0E0E
0901
070B
0004
050E
070A
000C
0509
0205
060A
040C
0105
0A02
0E00
0603
0302
010C
0402
0B0A
0207
0204
0A05
0104
010C
0203
0608
0E03
0C09
0C06
0606
0107
0B0E
060B
0A08
080A
070C
0A0B
0603
0709
060B
040A
0901
0E06
0C05
080D
070A
0A00
0102
050D
0E09
090D
0604
0501
0D06
0E02
0807
0003
0E0C
0D06
0A0A
0D09
0B02
0C0B
070E
010A
0007
0B0E
0E09
0007
000C
0101
0D0E
080B
0408
0E08
0509
0D05
0101
0802
000C
0A09
050B
0102
040B
0400
0009
010C
0100
0209
000C
0009
0A0B
0202
0A09
0506
0408
010B
0503
0A03
0800
0301
0B04
0405
020E
030D
010D
0D0C
020D
0907
0005
0608
0206
0806
0909
000B
0B08
080E
010E
0700
0C08
0302
0405
0502
070B
0200
040D
0205
0504
0A0C
030E
0A0E
0809
0203
070C
0B0D
000B
0209
0302
0E03
0D08
080A
0D0D
0C09
0003
0C0C
080E
0104
0C04
0B0E
0302
070C
030D
000D
0C09
0500
0300
080A
0501
0B09
040D
0E05
0601
0606
0C09
0309
030D
0E01
0305
0800
0603
0802
0708
0904
0E02
070C
020D
0C05
0507
0A0D
0308
0804
0D0D
0C0C
0907
0A06
0D0A
0C0E
000C
0C03
0E0C
0306
0E00
0E03
0B03
0C03
0B00
0D0A
0A0C
020C
0506
0D02
0A09
040D
0D05
000C
0101
010E
0806
040B
0104
0702
030C
020C
0D09
0B06
040C
0C0C
0B0E
070A
0E0B
030C
0307
0305
030C
000A
0207
0B09
0E0A
0A0D
0505
0303
0C02
0404
0D03
060D
0607
0505
080C
0A07
0A03
0506
0B08
0A07
0109
0C05
080B
0000
0105
0E03
0703
0C0B
0E0D
0E07
0C09
050E
0E0B
0106
0306
0001
0503
0C07
0103
0A0B
0304
0D0D
0607
0A03
0D06
0C0D
010A
080B
020A
0E08
0E02
0B05
0002
0A02
050D
030D
0107
0600
0402
070D
050B
000C
0A00
0802
0806
0604
020D
0800
0507
0A08
0B02
0601
060A
000D
0301
0306
0909
0002
090D
0803
0706
0309
0B0B
010A
0309
0708
0E00
0602
0D0A
0605
0008
0C0A
080E
080B
0307
0001
060E
0003
0A0A
0A0A
0A07
0609
0E0E
0609
040E
0801
0A0A
040A
0E04
0703
0D05
0508
0C02
0E0A
0E09
060C
0701
0801
0C02
0904
0B0E
060C
0604
0303
0E0D
0800
0B08
030B
0B04
0501
0703
0505
0C03
0D0D
030B
030C
060E
0B03
070E
0E02
0C0D
050B
0C01
0C0A
0A07
0A02
060C
0108
0106
0B03
0000
0C0C
0C00
0908
0400
0907
080D
0404
0B08
070A
0506
0500
0202
0A02
020E
070D
0C0D
050B
040D
0E0A
0507
050C
0008
0505
020E
0D02
0E04
0607
0604
020D
0406
0407
0A0B
040B
0501
080E
0607
0C06
0507
0609
0B0D
050A
080C
0205
0905
0801
030E
050A
0A03
0508
0300
0B06
0109
0600
0909
0C09
0A0D
0A0D
0502
0B05
0404
0A05
0201
0306
000E
0C07
0307
0E0D
0501
0200
0800
0303
0A08
0007
070A
0C02
0405
0502
0209
0E05
0D09
0E04
0A02
0603
0802
0802
090A
0C06
0B0B
0709
0C0B
0101
0009
0301
010B
070D
0705
0D05
0B0C
0C0D
0D07
0904
0D0A
0509
0206
0301
0204
0A03
0605
050A
0105
0D01
060B
0006
020D
0807
0D08
0703
0C06
0804
0E06
0206
0C0A
0A04
0009
0309
060A
0006
0009
0D0A
0206
0B05
0907
0806
0D0C
0C08
0107
0D04
0803
0802
0807
0C06
0206
090C
0E02
0005
0D04
0608
0905
0604
060B
0501
0206
0903
080B
0205
0201
080C
0706
0604
0308
0002
090A
0E08
0902
0C0C
0B04
0109
070A
0D0E
050E
0705
0B02
0A02
0706
0604
0C00
070B
0708
0D0A
0002
0B0A
0800
0D07
0905
0D0D
0803
0400
0004
0B06
0700
010B
0809
0006
0D00
0508
030D
0109
0706
080A
0D0A
000D
0A03
050E
050A
0409
0708
0D05
0601
0703
0A03
0602
080A
060A
0A08
0C0E
0706
0802
0C0C
0D05
000E
0606
0603
0601
0405
0E0E
0E01
0500
0C06
0B02
030D
0D04
010A
0504
0A08
0A09
080A
040D
0002
0506
0C06
0001
050A
0702
0102
0A02
0E08
0A09
0B02
0105
0A0B
0802
0204
0D0D
0D05
0A0C
000A
0A01
0009
0D0E
0A0B
0300
0500
0B09
0D0A
0103
0107
040E
0005
0508
0E06
0305
040D
060A
0E08
0802
0A03
0302
0905
0307
0200
040A
090B
080D
0004
0B06
0002
060A
0801
090A
0D02
0A01
0E09
0B05
0D04
0609
0E06
040B
0902
0704
080B
030C
0D04
0002
0308
0E0B
0503
000D
0A0C
0E04
0E06
0E0A
0B0C
0E09
0B0A
0B01
040A
070C
0109
0A03
0E09
0A09
0202
0207
0D0A
0E09
0106
0D04
0508
080E
0C01
090A
0E05
0B07
0103
0B0C
030A
0103
020E
0602
0007
0E06
030C
0107
060D
0C0C
0009
0E0E
0800
0609
0D0C
0A0C
0003
020A
0E05
0702
0009
030A
0207
0A09
0701
0705
020E
0D00
0001
0C04
0504
0709
0709
020D
0003
050E
0400
0204
0202
040B
0300
010B
020C
040A
0D02
0E05
0109
080A
010E
0301
0B02
0A0A
0104
0700
0E0A
050E
0805
0E05
0D0D
0700
0208
0201
0C08
0B07
0D08
030C
0C0A
0401
0700
0409
0303
0805
0700
0808
0C00
0C03
0E07
0B06
050C
0D05
0100
090D
0C05
0C0B
0100
020B
090A
0A0D
0B01
050C
010B
0707
0509
080B
0801
0A08
0E08
0304
0B03
050E
0804
0E0D
0606
050D
0E0B
0C0A
080A
0705
0003
040E
0408
0703
070E
0007
0E01
0209
0909
090D
0B07
0508
0B08
0B05
0B03
0B0E
010A
0C0E
0D03
0105
030C
0504
0C00
0D0C
0809
030E
0E07
0007
0201
0607
0B07
0B04
0B05
0E02
0806
0608
080B
090E
0105
0D01
0A0A
040E
0607
0A0E
0107
0D05
0E04
0C01
0E06
0203
0200
0104
0706
0307
0101
0D05
0703
030D
0701
010E
0909
0B05
0507
010E
0E0C
0E0B
0300
0801
0E09
070E
0808
060C
060C
0504
0700
0D08
030B
0006
0B0B
020B
0C0E
0A09
0E0C
000E
050B
0202
090C
0E0B
050D
050E
0A09
0905
0307
0C02
0A00
0602
080B
0107
050B
0901
0108
0009
0A00
0102
0504
0701
080D
0C01
0D0A
0802
0301
0A01
0400
070A
0308
080C
0C00
0309
0B02
030B
070B
0209
0807
0C0B
0D02
0E03
0002
0D0E
0104
0D09
0003
0407
0100
0509
0A00
0608
0B08
0309
0605
030B
0405
030C
090C
0C08
090D
0601
0209
010E
0009
0309
030B
0C0C
0B0B
0208
0004
0D0B
060E
050E
0402
0E0C
0206
0E02
0701
0304
060E
0C0C
0504
0E01
040E
0E09
0709
0D0C
0700
0801
0C01
090D
080C
0806
0209
0201
0307
050B
0D09
0A0D
030C
0408
0C0C
060B
0807
0700
0C05
0603
0A0B
080E
0905
010A
0605
0B04
0007
0606
0E0A
0000
0102
060C
0802
0E0A
0204
0605
0A0C
0C08
040E
0205
020C
0A07
0108
0B01
0A09
0404
0102
030D
0408
0005
0809
0B0E
0503
0D06
0007
090C
0A01
0E0D
0004
0809
0001
0901
020C
0E03
0E03
0206
0305
030D
0B05
060A
0C06
000D
090B
0204
0405
0B08
060B
0D04
0000
0A07
0900
000E
070C
0A07
0306
0E0E
0206
0500
0D08
0A0C
0708
0A0B
0407
0402
0E06
0101
0D0A
0709
0801
0E09
0D05
0A0D
0408
0800
000B
0507
0E01
0602
0E01
0700
0E05
0B03
0E0C
0508
0503
0C0D
0207
0604
010E
0D0C
0E09
0D03
0B0E
010E
080D
090C
010A
0D0E
040A
0506
0D0C
020A
0C03
0E08
0D0A
0B03
050A
040C
0409
040B
0100
030C
050D
0809
0904
0004
0508
0E06
0604
0609
0C0B
0406
040E
030A
0901
0B00
000A
0608
0403
040E
0107
0601
070A
030A
0104
010D
040E
0300
0705
090B
060B
0109
070B
090B
0008
0B03
070B
020C
0305
0709
0D07
0509
0201
0A0D
000A
0904
0407
0506
0303
0106
0A0C
0005
0D09
0E03
0E06
0B02
0303
0408
050E
0700
0409
0302
0104
030E
050B
0D01
0409
0D0E
0604
0002
0B0E
080D
0B0B
0909
0007
040D
0B0A
0506
0508
0107
0E05
0B0A
0406
050E
0C02
0B0A
0305
0B0D
0501
0201
0506
0509
0205
0904
070A
0607
010E
0601
0C00
0D09
0004
090B
0207
0C03
0C05
020C
0400
0903
0208
080D
0E04
000B
0101
080D
0008
0004
0605
0A04
0C05
0108
0C0C
0701
0900
060D
0607
0C06
0806
0805
0305
0902
0E0E
0D08
0C00
030A
0803
0303
0B0B
0601
0A08
0906
0C0E
0105
000C
0E08
0705
0009
020D
0C0E
090C
0A04
0D05
0903
0D09
0E0B
0E0D
0903
070A
0006
0A0E
0B01
0302
0D0B
0E0C
040D
0C0B
0904
0701
040E
0B08
0005
0807
0A02
0C02
0501
0802
0307
0805
0705
0E06
0605
0703
0307
0007
0700
0804
0402
0C05
0705
0302
0D03
0D06
0509
0002
010E
0A08
0309
0A0D
050B
0C06
0A08
0C02
0600
020A
020B
0203
0602
020A
0B06
030E
0100
0B0E
0009
0B08
0001
060C
070C
050C
0507
0805
0D07
0906
0503
0700
0D00
0B01
0205
0D03
0708
0507
0404
0D00
0909
0D0A
010A
0700
0C06
010A
030C
0D0B
0B0A
0505
0C0C
0C02
0403
070E
0B08
0101
0804
0C0A
0408
0701
0705
0C04
0402
0601
0E0B
0A0A
0704
070A
0501
010A
0200
0007
0704
010D
050E
0A0C
0A04
060B
010B
0809
0309
020C
0E02
0209
090B
0505
0A0D
030E
0702
0601
0705
0008
0501
0302
0E01
070D
050B
010B
0B0D
0503
0B09
010D
0D03
050B
020D
0405
0508
0909
0D05
0307
0B0D
0B09
0803
0704
0B0E
0707
0D03
0B06
0908
0E0C
0E02
0301
0809
0A08
0D00
0D00
030A
0001
0D09
0102
000C
0E0A
0E07
0601
0104
0109
0C00
0001
0008
0B05
040D
0404
000D
0B04
0A09
0B08
0808
0802
070E
0709
0406
0808
0008
050A
030B
0C08
0600
0B0D
0308
0207
0307
0201
0D00
0B04
0D05
0505
0105
0309
020B
0907
0A0C
0903
090E
030D
040C
0D07
0403
0C09
010E
0E08
0401
0805
0705
0209
090A
0A09
0A0D
0107
0909
0E00
0409
090E
030B
0E0A
0D00
0A01
0000
0406
040A
0109
0006
0C0C
080A
0406
0D0D
0D02
060E
0201
090E
0D06
0809
0A07
060A
0404
060B
0606
0105
0809
080B
0A08
0C07
0606
000C
0B0C
0C04
0508
0100
0D03
0309
090E
0608
0D0B
0D03
0D07
060A
0308
060D
0A0B
040B
050E
0D0B
0909
0905
0202
0501
0A04
0804
000E
0B09
0107
0605
0808
0E07
0908
0704
0A0A
0D08
0009
070A
0609
0905
010B
0109
0D0C
030D
060C
050B
0E0E
070D
060B
0807
0D09
0505
0206
0507
0408
0903
070B
0809
040D
0D0C
0D03
0107
010E
0A0A
0606
030E
060E
0909
0D0A
000C
0506
0207
040A
0708
0107
010C
0B07
0404
0E06
0803
0000
020D
0405
0C0A
0909
0B04
020A
0E0C
0400
090A
0B05
0801
0106
0107
0007
0700
0602
0504
0D09
0204
000C
0104
030A
0208
0C0A
0D03
0909
0606
0507
0304
020B
0407
0D05
0805
0D05
0607
0C04
0A04
0609
090E
060B
0C0B
0005
0B04
070C
0D02
040D
0200
0B04
0D0B
060C
0108
0903
050C
0D04
0604
030B
0A0E
0E0A
0D08
000B
0B02
0C03
090B
0204
0705
070D
0900
0B0D
0C07
0704
0B01
0E0D
0C05
0500
0C06
080E
0404
0D02
0B07
070A
0D0B
070B
0A07
090C
0002
040C
0509
090A
000B
020A
0D0A
0D0A
000D
000D
0E09
0C08
010B
0306
0201
0507
0405
0C06
0B09
0901
0D0E
090C
080A
0600
0D0D
0A02
0B04
0D00
0907
0108
0902
0501
0E0E
0106
0707
0B0D
0D0E
0800
0B01
0206
0607
0A0D
0406
0C07
090E
0C0C
0506
0607
0107
0E03
0404
0207
0D0B
030D
0500
020A
060B
0E02
0508
0304
0605
0208
0E0B
040C
0002
0400
0E02
090D
0E02
0601
0309
0405
0900
0001
0B01
0D0A
0E04
0B0D
0406
0105
0706
010E
0108
0602
020B
0603
0B02
0B01
0C01
0907
000E
020B
000C
0608
0A0C
080E
0607
050D
0401
0D0C
0104
0C0C
080B
0C06
0700
060B
0401
0209
080C
000B
0A01
0203
000E
0209
0506
0800
090C
0200
0E00
0209
0C06
0203
0809
000B
0303
0900
0D0D
0D09
040B
0A09
0501
000A
0C05
010C
0505
010C
0B0C
050B
0803
0A02
0701
0209
0603
0009
0106
0E06
0202
0103
0D04
090C
0E01
0C0C
0806
090B
0303
0601
080C
0802
0B04
0202
0302
0807
0301
0E05
040C
0E0C
0E01
0908
0B08
0E05
0C00
0506
0D0E
0304
0900
0D03
0709
000A
080D
0C07
0306
020E
080C
0E03
0B09
0107
0A0E
0A09
0802
0806
0A0E
0A0D
0709
0304
0805
0108
0006
0A0E
010C
0504
0B05
0C01
030B
050C
090A
0904
0707
0900
0904
0A0D
0705
0602
0308
080D
0E03
040A
0901
0905
0E0B
070D
0701
020D
050B
0A0C
0A09
0601
0E00
0005
0A07
0C02
0B06
080A
0C0D
0809
0A0A
0B07
0805
020A
0B05
0D0A
0501
0A01
0B03
0B0E
0002
050A
0709
010B
0809
0803
060A
080A
0D08
0B02
0608
0A05
0604
080E
0E07
0C01
0A0B
0801
0408
0B0D
0E02
0B08
0101
0109
0105
0801
0B00
0900
0002
0403
080D
0C02
090A
0B0A
0408
0504
050A
080A
0B09
0C00
0502
0104
0B00
020B
000B
0308
0D03
090C
090A
0105
0104
0908
0605
0C07
0804
0604
0906
0C0B
0D0B
0904
0401
0B0B
030D
0A0A
0209
0301
0A0D
0D0B
0B0A
0700
0B0D
0709
0D0A
0609
0B0D
0204
0C02
0005
0106
080B
0B0E
060D
0608
0706
0A04
0E00
0E05
0501
0900
0206
0304
080B
040C
0E03
0B09
060E
0E00
0B03
050C
0005
0A0D
0103
050E
0100
0E08
0D03
0700
090B
0E04
0C00
010C
0D07
0005
0909
0306
0104
0503
0E00
000A
0B0D
0B09
0D0B
0601
0007
0008
0900
0E0B
0008
0404
020D
0B0D
0208
0A09
0106
0202
070E
0B08
0805
0701
060A
010A
0108
0602
0A02
0E0D
060C
0C02
0804
0D03
0700
0506
0A0B
0C09
0107
0809
0100
080E
0E0C
0A0B
0308
010B
0803
050D
0C04
0A0A
0300
0D04
0006
0904
0703
020D
0D03
0404
060C
0E02
090A
040B
0D0C
0900
0302
0003
0C0C
0909
030A
0200
0003
050E
0503
000A
0E02
0A04
0901
0B03
0E00
0509
0A07
0A0B
010D
060E
0504
0307
000B
0A03
0A0B
0C0E
0707
000E
0706
0408
000D
0800
0C0E
0D0E
0405
0400
0105
030C
0202
0E08
0402
0A0D
0907
040D
0209
000D
0200
0D00
0A03
060B
0C07
010A
0D09
010B
0B05
090E
0106
0B06
010E
0501
050B
0E04
070A
0B00
0C0E
0A08
0804
0202
0601
0C05
0003
000B
0100
0309
0808
0907
0A07
050B
0E0C
0100
0901
0602
0B0B
0702
0405
0307
070A
0407
0203
0701
030A
0703
0307
010D
0003
0002
0E01
0800
0804
060D
0A0C
080C
0E0E
0804
020C
0D03
050B
0607
020A
0D0D
0204
020B
030A
0C0B
0D0C
030D
0B00
080E
0807
0D03
0B08
0E05
040B
0902
0007
060A
0409
0002
060B
0C05
0003
0107
0A08
0501
090C
080B
070A
0E04
0306
0409
0701
0E06
090D
0B0C
0505
0006
020A
090A
0A05
0409
0B0E
0D00
0D07
0506
0A05
000A
0400
0B0D
0501
0400
0C00
0505
070E
050B
0301
0C03
050D
090C
0208
0E06
0E0C
030B
0E0D
0E0E
0506
020A
0007
060B
0604
0D03
0A05
070A
0309
0806
0301
070A
0607
050A
0909
0103
0B01
0209
0B04
0C0E
030B
0C02
050B
0307
0A01
0603
0207
0C0E
0804
0E08
0D0C
070D
0109
020B
0504
0408
0C0C
0302
0E09
0C0A
0D08
0C0A
0907
0A0A
020E
0D0E
010C
0405
0C0E
0004
070A
0904
0002
0406
060D
080D
0508
0709
0204
0A0E
0200
0001
070D
0206
0206
090E
0E05
0C08
0D03
0906
070C
0601
0909
0403
0A02
0C01
0D0C
070E
0901
0D0A
0603
0A06
0104
0603
0B07
070A
0104
0807
0C07
000A
0A02
0602
0D09
0709
0E05
0902
000E
0C07
0506
050B
0403
070A
0806
0908
020C
0A06
0807
0009
0907
0204
080E
0709
090C
0502
0A04
0A06
0804
060E
0309
000E
0C0B
0A0C
030D
0700
0102
0E05
080B
0508
020C
0508
0A04
0307
070C
0E0C
0503
0304
0101
0C00
0E06
0100
0B01
0500
0101
0802
0801
0C01
0A0E
080D
0D02
0504
0600
0900
0203
0006
0807
0C03
0206
0D01
0D0D
0708
0206
0B00
090C
0C0A
0808
0A01
0E03
0C02
060D
040B
0404
0C0B
0B01
070B
0700
020B
0C07
0D06
0102
0901
010D
0704
0508
040A
090E
0304
010E
0D0E
0A0B
0401
0001
0108
0C0A
0205
0B0E
0500
0905
0304
030B
0E01
0803
0908
030D
0A0E
0C07
090E
0E04
080C
0202
0D0D
0409
000A
0806
010C
000D
0E0B
0E00
0C05
0D03
0A0B
0404
0E06
0B04
0305
0702
0308
0903
0907
030B
0205
000B
0308
0E05
0504
0509
060C
0003
0B05
020A
0C01
0E03
010D
0706
0707
0807
090D
0A05
040D
0E01
0504
0700
0804
0203
0602
0705
0509
080E
0201
0208
0B09
070D
080E
0404
0401
0A09
0509
0607
0E07
0B03
0C0D
080C
030E
0C00
0C06
0105
0D06
0A01
0B05
0805
010C
060A
0D08
070A
000D
0902
0007
0205
030D
0D07
030B
0905
090D
0D0E
0707
040C
0E07
090B
0606
0305
0007
0900
0407
0D05
0E02
0405
0B00
040D
0408
0002
040C
0A07
0009
0B02
0C02
000A
0403
0D07
0806
0D01
0000
0D00
050A
0802
0300
0E0A
0B04
0B08
0604
0C02
010B
060B
070A
0A09
0700
000B
050E
0800
0606
0409
0900
0A02
0A09
0E0C
0A0B
0903
0B0D
0106
060D
0D05
0C0E
0605
0E06
0104
0C04
030D
0804
0D0A
0108
0806
070E
0B0E
0C03
0103
0203
0406
0B0A
0405
0C09
0D0A
050A
0208
0701
0505
0903
0606
0A05
0601
0806
0205
0008
0509
0B0C
080E
0401
000C
000B
0204
0D09
0B02
0502
0609
0602
0207
0C08
090D
0301
030A
0107
0509
0705
0303
0606
0609
0501
0500
0907
0906
0C08
0C09
030E
0207
0A0C
030A
0C03
0B06
0A0A
0C06
0600
0909
0A08
0202
0405
0902
0207
0E06
0B0D
0305
0B01
0509
0D00
0B0D
0102
0B04
0400
010E
0E0A
0A04
020A
0A00
0C06
0C01
000D
0E08
0A0A
0408
0C0E
0E01
0407
050B
0A0B
0A0E
0100
0303
0A05
090A
0805
0008
0903
0A04
020B
0306
050A
0106
070D
0D0C
0E0D
0B0A
0A01
0601
0402
010A
070C
0401
0B06
0A03
0303
0C04
0E0C
0C00
0403
0104
0E0E
0A06
0309
0B0A
090C
0001
0B02
0E08
0D0C
0E05
000D
0A02
0A09
0D04
0308
070C
010A
040B
0C09
0C09
070A
0A04
0609
0504
0403
0C0A
030A
0407
0B05
0A06
0208
0303
0909
030B
0C05
080C
0A0C
0E0D
0808
090A
000E
0A0B
0505
0E05
0B05
0307
000B
090D
0307
0407
0A04
0904
070E
0B0A
0B08
070C
0E01
0606
0602
0309
0E0D
0B07
0A01
0600
0A06
0D02
010A
0209
0D0C
0208
0107
0004
0409
0A09
050D
0107
0001
0E01
000B
0C08
010E
0D08
040A
0408
0409
0102
0203
0301
0902
0106
0809
0E00
040E
0604
0606
0D0B
0D02
0508
0902
0D09
050E
0A03
0C06
0901
0203
010E
0300
0401
0D06
0006
030C
0C05
0700
0D03
0D00
0808
0004
0603
030D
0002
0505
0E0C
0C07
030D
0203
0701
0E0C
020A
0906
0D06
0703
0D0D
010C
0102
0D0E
0708
0808
0C04
0106
010C
0608
0208
0406
0504
0905
0D03
0408
080B
0902
0D0C
0C05
040D
070D
0905
0A0E
0008
0402
0C0E
0800
0605
0104
0E09
010A
0200
0701
0307
020C
0105
0304
0C0D
0A08
0107
0004
080B
000B
0C02
0904
0304
0008
0E0C
000A
040A
0506
0502
080A
040A
0800
0605
0E04
0509
0704
0404
0608
0609
0608
0E02
0306
0507
0C00
020E
0100
0E01
0604
0703
0902
0B0E
0D00
080B
040B
0C09
0904
020A
0403
0A0C
0700
0702
0204
0A06
0303
0204
0D00
0C0D
0C00
060C
0602
0C09
0709
090A
0003
070B
0E09
0202
0009
0B01
0A0A
0B06
0E0C
0005
0B05
070B
0A05
0E06
0708
090E
0B09
0702
0306
0402
050D
070B
0606
0100
0D06
000E
0407
0107
0203
0A07
0504
0300
0106
0508
070E
0E0C
070B
010D
030B
0303
0705
0D0B
0102
0E01
080D
0806
0E06
0C01
0004
0908
0E0C
0206
0E03
0E0A
0A08
0702
0D02
0A00
000B
000C
0100
090B
0C0E
0A08
0402
000D
0C09
0C08
0A04
0C00
0E0C
0203
0A08
040D
0807
0D03
0407
090C
0909
0A07
0107
0603
0B04
0209
0006
0A0B
0C04
0E03
0408
0801
0B00
0706
0209
0D0C
0D01
0E0B
0802
0C07
0004
010D
040B
0000
0E05
0100
0706
070D
030D
0406
0A04
0D0A
030A
0B01
0707
0009
0209
0A05
0503
060D
0A07
060E
0C0D
0501
0104
0B0C
0108
050D
050B
0E05
0C0C
0108
0C03
0407
0806
0D04
0B02
0803
0806
0207
0B0D
050A
0208
000C
0304
0605
040E
0A0C
060C
0706
0406
0407
020A
060C
0900
0703
0205
0E00
0702
080A
0602
0A0B
0707
0A0C
060D
0E0D
000C
0703
0904
0300
0202
0005
0E0A
0B0B
0C02
040A
0B09
020B
0A0D
0604
0106
0204
090D
0E02
0203
0801
0A0B
0307
0302
0B07
0D00
010E
0507
060E
000E
090C
0605
0900
0706
0004
0407
0C0C
0501
030D
0509
060B
0705
0B05
0C0A
0D0D
0B0D
0705
0A06
0901
0C04
0C01
060D
0E09
0A04
090C
050A
0609
0B00
020A
030D
0B08
010A
0E06
0106
000E
0B01
010B
060D
0200
0002
080D
000B
0305
060A
0804
0B0D
010E
0902
0102
0805
0607
010B
040A
0609
0001
0202
0C07
080D
0009
0502
0502
0C06
080E
0007
0203
0406
0103
0C06
0906
0601
030C
0307
0907
040B
0000
000D
0706
0908
090D
050C
060B
0709
0101
0008
0B0E
0503
070B
0D0A
0102
070A
090D
0303
0202
0009
0E08
0002
0008
0005
0D0A
060E
080E
0D0E
090B
0800
0202
0600
0C08
0204
0902
0C0C
0B03
0A01
0008
0809
0C01
0609
0102
060B
0E05
0E05
0C06
0E03
0201
0302
010B
0E08
0A0B
070C
0A0B
0506
0806
0E0D
0703
0009
0B00
0D04
0109
0D07
0002
0D01
0C02
040C
070C
0B0E
0009
0A00
0007
060D
0801
0A06
0504
0E04
0707
020D
0201
010A
0103
0100
0D03
070C
0604
0305
0C0A
0B08
0D00
0902
0501
010E
020E
0201
0409
0304
0902
0D08
0905
0000
0407
0300
0C03
0B09
0E0D
060C
0B05
0A09
0900
0A00
0603
0504
0D0A
020B
0604
0909
0C0C
0E02
020A
0306
0909
050C
0808
0A05
0C02
0C0E
0800
0C0A
0E07
020D
000A
0C02
0006
0703
000C
0200
0203
0B0D
0701
0102
0C0A
0A0C
0E01
0400
060A
090E
0A0A
0D0D
0603
0D02
0500
0A02
0E01
0A08
0305
000C
040E
0A00
0109
0A04
0807
0D0E
0302
0B04
0A04
0407
0601
0900
0000
0A03
0204
0700
0805
000A
0308
020C
0504
000B
070B
040C
0407
0405
0602
000E
0903
0A07
060D
030D
0806
0602
0A0E
040E
0304
0307
090D
0209
0606
0909
0C06
0100
0604
0E06
0306
060B
0B0D
050B
0E0D
030E
000A
0E0C
0C04
0409
0E03
0101
000B
050A
0307
0A0A
050B
0706
030C
0C0B
010A
0109
060E
0101
0709
0508
0907
020A
0A0C
0D0A
0103
0608
0A05
0B0B
0C04
0A0A
0805
0805
0E02
0207
0803
0E07
0805
030C
0A0D
0903
0308
0305
0801
080C
0908
0D06
020A
060B
0803
0E05
0C03
0A0B
0503
0E0D
0A08
0605
0509
0608
0505
010B
040E
0E02
0407
030E
0300
0408
0E09
0D0A
0D03
050D
030D
0A00
0208
0D03
0C0B
0003
0702
0400
0605
0A01
0306
0002
0102
0200
0000
0C05
0902
0A01
0E09
0100
0903
0100
0405
0900
0B05
0000
0209
060B
0E0E
0204
0602
070C
0205
070D
000E
0505
0A08
0B00
0905
0909
070C
0B0B
0E07
020B
0801
0A09
0C06
0305
0E0A
0102
0007
0503
0D00
0900
0A0A
0509
0A0A
0A08
0803
0506
080E
0609
0E01
0B0D
0208
0A09
050D
0803
0409
0105
0008
0A02
090D
0500
0707
0B0B
0D00
0702
0106
090D
0805
000C
0C09
0E0E
0808
0102
0C05
0B08
0E05
060C
0B0A
0D0D
0E08
0D05
0204
010D
0903
0302
0905
0507
0B04
0005
050D
0608
0D0C
0C00
0903
080C
060C
0406
0B00
040B
0B08
0D03
0A00
010D
0E0B
0A0B
0D0E
0003
0004
0C0B
010A
070E
000B
0302
0B03
0105
0003
0000
0902
0B05
0204
0C03
0104
0605
020B
010D
010C
0C03
0506
030D
000E
0703
020C
050D
0209
0903
0006
0400
080A
020B
0600
0505
0407
0A00
0609
0C0D
0101
0D05
0A08
0907
0A07
0306
080D
0109
0B09
0907
0D0E
0605
0C0D
0B07
0A01
0202
0405
0D0C
0302
0001
010B
0D01
0302
0105
0606
0902
0B03
0B03
000B
090B
0904
0D07
0A05
0600
0C01
0B04
0201
0300
0B0B
050A
0003
0501
0402
080A
0601
0D05
0E0D
0702
0406
0E0D
0D07
050C
070E
0B02
090D
0E06
0302
0606
0D05
0E09
080D
0403
0A0B
0307
0B05
0401
0C0B
0A01
0007
0D09
0C0C
0B0C
0E02
0207
0B04
0B04
0D05
020B
090D
0706
0109
0304
0D02
0806
0003
030E
0D01
0D09
0806
0101
0607
090E
0009
0500
0D0C
0B01
0800
0301
040C
0A02
0804
0206
0103
0802
0606
0605
0605
0103
0301
0B0D
0804
0B02
070D
0D0E
0305
0004
0606
0600
0B07
0205
0805
0603
050B
0C07
0605
0E0B
0509
030A
0701
0D01
0102
0B0A
0206
0A0B
0502
0E0D
050D
090B
0E0E
0E0E
080D
0305
0407
0202
0005
0C06
020D
0501
0104
090B
0200
040E
0203
0006
0205
070D
0A0C
0A0E
0703
0B09
070E
0C0B
080A
0409
0805
0206
0B0B
0901
020E
040D
0401
0104
0C0E
0502
0704
0C06
0605
0709
0D0B
0002
0105
0902
0B03
020C
0D0E
0E06
0506
0107
020E
0900
060A
0B0A
0709
0302
0C0E
0400
0601
0D02
030B
0D01
0804
040D
0E07
0205
0A0A
0005
0B03
0409
0204
0002
0405
0509
0007
050B
0709
080D
0902
0303
070C
0608
0B0A
0106
050D
0D05
0A0A
090C
0803
0D02
0B0A
0401
0908
0C00
0407
0C09
0B0B
0B05
0A00
0A0A
0703
090E
090B
0D0C
0409
0103
0B06
0B01
050D
010E
050E
020D
0405
0200
0B07
0D07
0507
0B03
0E0E
0105
000A
0101
060A
0408
0A09
0001
0E00
0906
0508
0609
010B
0601
0E04
0801
0305
0507
0A06
000A
0C08
0405
0404
0009
000A
050B
0009
010B
0E03
0307
0305
050D
0600
040A
0B00
0007
0C07
010A
060C
050A
0101
040E
0E08
0904
020D
0C05
0A01
0E0B
0408
0207
010B
0803
010B
0006
030B
0B03
0C05
0D04
0104
040E
0102
0509
0707
020D
0207
000B
0A01
0C0A
0E08
090C
0501
060C
020B
0405
0309
0B0B
0001
0204
0C0B
0200
0807
000D
0202
0206
0204
0608
0303
010B
0309
0D00
0608
0000
0E06
0309
0A0C
050E
0100
0304
010C
0C0C
0B05
0E0A
0503
0703
010B
0A09
000C
0B03
0901
0A00
030A
0E0E
010A
050E
070C
0006
0401
0B04
0607
0007
0D0C
0E0A
080E
0A07
0401
0B03
0902
010C
0D04
0603
0107
0E0D
0606
000E
0503
0400
0301
0101
010B
0302
050E
0505
0704
0107
0902
0105
0001
040D
000E
0408
0E02
0C08
0206
0C01
0607
0504
010C
060D
040E
0808
0108
0A01
050E
0700
090C
0E0D
050C
080D
0306
0C00
0004
040C
0502
0701
0C0A
0B0B
0202
0108
0E04
0207
0600
080A
0903
0600
0909
0102
0201
0D03
0908
050C
0309
0405
0A03
0805
0701
0D0E
0B03
0502
020E
0903
0105
0608
0000
0D0E
020D
0508
0A0C
0E03
0400
0107
060B
070B
0D03
050C
0C09
0402
0507
0705
0D06
0608
0307
030C
0505
010B
0600
0308
090C
010B
000A
0D0E
0303
0406
0C0C
0208
0604
0506
0B09
020E
0101
0400
0507
0105
010E
0508
0B09
0502
0104
090A
0505
020E
0306
0507
0B0B
050C
0508
030E
0A0A
010A
0B05
040C
0302
020B
030E
050C
0B02
0507
0908
0505
0B0B
0807
090B
0500
0204
040C
0A03
0E07
0B03
000D
0203
0408
0A04
0E08
000D
070C
040A
0100
0D0C
0E09
0100
020A
040A
0B06
0D04
0B02
0E03
0C08
020D
0A07
0A02
010A
0D06
0E0E
0605
0207
0001
0001
0A0D
0904
020C
0B09
0700
0707
0D04
0607
0D07
0A0D
0508
0A02
0D0B
0B0D
0D0D
050D
0509
090A
0604
010C
0903
0A0E
0E0E
040D
0C02
0B0A
0B06
0700
0304
0303
040C
000E
0101
040E
0003
0308
0901
0A09
0009
0E04
0E08
0E0E
0205
050D
0C03
090E
0901
0C01
040B
070A
050C
0100
000E
0102
070D
0903
070D
0208
0609
020D
000C
0E03
0108
0A0B
050C
0807
0702
0306
080B
0801
040A
020E
0D0D
0C08
0A04
040E
0105
040E
0305
0704
0104
0601
050C
0500
0C05
0400
0608
0E09
060B
0804
030E
0206
0C02
0D04
0605
0105
080C
0304
0802
0404
080A
0C00
0B0D
080B
0802
0D03
060C
010A
0002
0C0B
0400
0A06
080B
0D08
0604
0808
0B05
090E
0602
0E07
0505
0107
080D
0B0C
000C
0202
0B0B
090E
010E
020C
0109
020D
0808
0009
0203
0D02
0204
0008
010D
0002
0700
0B0A
0B07
050A
0D07
0206
0106
0307
0002
0604
0C0D
0309
000C
0603
0C0A
0905
0B01
050B
0605
0B05
0201
0C00
0903
0808
050D
0804
0A05
0B0E
0106
090C
0B00
0B00
000B
0107
0708
0300
0A07
0E07
030B
0900
0009
0C04
0D00
0D03
0007
000C
010A
0001
0906
0A06
0103
0602
0E0E
0801
0D01
0204
070E
0808
0C06
0A03
0409
0A0B
0D0A
0203
0B04
0E09
050D
0304
030A
0E06
000D
0609
0A04
060D
0B0A
0108
080E
0E06
080A
0803
0E02
0503
0906
0600
0D08
010D
000C
0406
0C08
0C05
0201
0A04
0201
0609
0502
0D09
0000
030C
0A04
020D
0A04
0D06
060D
0C0B
0A01
060C
0C0A
0509
030B
0300
0302
0A07
000E
0A0B
0C03
0C0E
0301
0B0B
0B09
0E01
030C
0503
0407
0606
0801
0B0C
0D07
0904
0C00
0803
0B06
0E0B
0600
0605
0E04
030B
0D0C
030D
0D02
0D0B
0001
0B04
0C06
0303
0601
0C07
000B
0D0E
0A08
0301
0300
0B0A
0206
020D
0B08
0604
0B0E
0E03
070B
060C
0E00
0C06
0008
0307
0C02
0E08
040D
010A
0208
070B
0605
0B05
0502
000E
0B0A
0C0A
050D
0D03
0E06
030A
050B
0107
030D
0008
0501
0907
0203
0B03
0E0D
0A0C
020E
010B
070D
0501
0306
0C05
0C06
0309
0009
0705
050C
0B06
0A0C
0D0D
030C
0204
070C
020A
010E
0B03
0804
0204
0009
0204
0306
0B03
0B0B
0306
0908
040E
0C09
070B
0602
0905
0A08
0A03
0101
0802
0A0B
0B0E
010B
0E0D
0402
090A
0408
020E
060D
0808
0D0D
0502
0704
0607
020C
050A
0D0C
0D06
0B07
0E01
080A
0D0B
020D
0A01
0A04
0704
0609
0D0B
0700
0804
0907
0605
0703
0C09
0E0A
0D04
040B
0106
0E05
0D02
0401
060B
0004
0A04
0C01
0600
0100
0B0D
060D
0C06
0007
0D0D
070D
000B
0604
0B00
0902
0805
000B
050A
060D
0509
080B
0C0C
0903
0D0C
0D01
0709
0C0D
0D04
0601
0501
0308
030E
020A
080C
060A
0801
0B01
0702
0305
0309
050C
0704
000B
0100
0209
0803
0900
0C06
070D
0703
0000
0109
0005
0400
060A
0002
0E0A
0003
0B00
0000
0E07
0D0B
0506
040E
020A
080A
0E04
0500
0005
0E09
0E05
0B06
0107
0B03
0B0B
0D0C
0200
0C0D
0102
0108
0D09
0A00
0406
010A
0101
0A01
080E
0600
0804
0702
070A
0A05
0200
0B0A
050B
090D
0B0D
0305
0A0B
0706
0E0D
0109
0A0C
0C07
0D04
0D02
0901
0D07
0706
0E06
0B03
080C
0309
0502
090D
0507
0A0A
0A0E
0A0B
050D
080E
0709
0B08
0700
080B
0003
0609
0105
000B
0009
0008
040D
0002
0605
0E0C
0607
0409
0C0C
0304
0300
0606
0A02
0D08
0006
0B01
0A07
0500
090D
0D06
0407
0809
0806
030C
0E06
0D05
090B
0207
0609
0407
0802
0300
000E
090A
0907
0D0D
020D
0A0A
0C09
0209
0A00
090C
040B
0608
0505
0A09
0C0D
0E0D
0B08
0409
0A07
0205
000D
0909
0209
0A0E
0901
0109
0A0C
0806
0609
0B0E
0905
0106
0109
020B
0B0E
0C05
0406
0206
0D04
090C
0505
0C05
0B06
050A
0A05
0600
0B02
0405
060C
090C
0B0E
0601
0607
0309
0108
0001
0207
0A0B
0100
0400
0D0D
020B
0805
0A09
010E
0D0C
0C09
040B
0906
0005
060C
0104
0302
070E
0E04
0A03
0504
0D0C
0A04
0503
0B0C
0E03
070E
0E05
0402
0001
0D0C
0004
0002
0103
0E03
0709
0C04
0D0C
0C0B
050D
0D03
090D
0907
060C
0B00
0608
060D
090A
0005
0E0A
0903
0A0E
000E
0900
0A0C
0C08
0705
0804
0C05
0809
0002
060C
000B
010C
0603
0309
0102
010B
010B
0901
0509
0206
0609
0D05
0902
0A09
0B02
0209
0A04
0904
0606
0D05
0A0A
0D00
0E07
0B0B
0B0D
0B0E
0C0A
0D0D
0D05
0606
0C0B
0E03
0D06
0C07
0408
0504
0000
010E
0600
0007
0D06
0C03
030A
0707
0306
0006
0707
0003
0705
040A
0206
0E08
0004
0B02
070E
080A
0B0A
0B0E
0D0C
020D
0C0A
0A0A
0A09
040B
0204
0B09
0308
090C
0502
080B
0B01
0E09
0903
0008
0702
0D05
030D
0D00
000A
040E
0301
0103
0209
0301
0600
0C01
0909
0609
0E0E
0C06
0B07
0B0D
0005
0808
030C
0A01
0406
0609
0C04
0807
0600
0E02
070A
030E
0602
0807
0606
0E06
0B04
070A
080C
0004
0500
0902
0001
0B04
0203
0D09
0802
0D0E
0802
060E
000E
0500
0607
0904
060E
070D
0108
0B02
0805
0802
060B
050D
0609
0103
060C
0A0D
030A
0800
0D05
0C0E
0100
060A
010A
0806
0B01
0606
0504
0B0D
0703
0B03
0301
050D
0001
0509
0D01
0207
0606
0A0B
0601
0100
0609
0006
0E00
0906
0B04
0205
0C09
0101
0901
0D06
0C0C
0D09
0005
0604
0C03
0008
0A0A
0D07
020E
0807
080C
0D02
000A
0C09
0A0C
0602
010E
0E05
0706
070A
0001
0C09
0509
0706
0305
090D
0A04
0608
0B0D
0A0C
0D09
0B00
050E
060C
0D08
0A06
0205
0E05
0608
0504
0B0E
020B
0E0E
0400
010D
0504
0306
0002
0306
0605
0600
0804
0504
0D04
0306
050D
060A
0804
0005
0807
0D08
0401
0D0D
0004
0D07
0A07
0D04
060A
0106
0D04
0B01
080D
0E04
0D08
0507
0504
0D05
0E02
0506
0B00
0706
0C00
0D02
0D04
0903
0D0C
0C0C
010B
010A
020D
0B01
080D
0406
0605
0802
0B08
050B
050B
0509
0506
0409
0A03
0602
0B04
0B08
060D
0000
0900
0100
0A04
0B0C
0800
0008
0809
0D0A
0C00
0705
0409
0A0A
0608
020A
0805
080C
0505
0E01
0601
040B
0E09
0508
0B08
0506
0603
0005
0E09
0806
0802
020C
0A0B
0606
030A
0106
0501
0603
0C03
0007
0A09
020C
0508
0A02
0E0C
0B00
0300
0E0C
0004
0904
0C07
0107
0000
0E07
0804
0E05
0B0B
0D01
0502
030A
0D05
0100
0507
040A
0701
0D0D
0B03
0E02
0905
0B08
0200
0A0E
0400
0801
050C
0202
090D
0E03
0707
0608
0304
070C
0D06
0502
080C
0D0B
0104
0207
0C08
0C0A
0708
0306
0D0C
0306
0B02
000C
0706
0C0B
000D
0609
080B
0E0E
0004
090B
0A01
0807
0B00
060E
0106
080D
0007
0A05
0600
0408
0607
0402
0505
0805
0004
0D06
0302
0307
010C
060E
0000
0908
0A00
040D
020D
0906
0302
0408
0108
010E
0302
0605
0C00
0C08
0E06
0803
080E
0E02
0404
0706
090B
0102
0E01
0809
0905
0707
020E
060E
0101
0C0B
0B01
0C03
090D
0009
0905
0506
080E
0104
0102
0205
030C
0900
0D00
020A
0408
0506
0604
0903
0102
010E
0505
0B02
0808
0602
040B
000C
020D
0809
0C0C
080A
0C0A
0A01
0A0A
0B04
0201
050C
0703
0803
0E08
0703
0D0C
0D06
0309
0D0D
0B06
0204
0508
0D0B
060E
0405
0C0D
0007
0704
0A09
0D02
050C
0400
0C06
0D0B
0D08
0006
0401
0C08
0B00
0608
0E07
0506
0303
0C0D
020A
020A
0C0C
0300
0909
0603
0C07
0E0D
0A0A
030B
050D
0D01
0C0D
0607
0003
080C
0B04
0208
0A05
070A
070D
020C
060A
070D
0506
0209
0002
0E0B
0701
0600
0903
0203
0607
0808
0400
010B
0300
000D
0E0C
0704
060C
0502
050C
0E0B
050A
0D07
0309
0E0D
0805
020A
0D04
0E0A
070C
090A
0C0B
060D
0B04
0307
0409
0202
0401
0402
0405
0009
0C02
0E0A
0C07
000B
0201
0C04
0208
0101
0900
0B0C
0C02
0104
090B
0B0C
030A
070B
0D0B
0104
080D
0B00
080E
0200
0204
0807
0607
0605
0905
090C
0905
0400
0E04
0C0D
0500
0A0A
080B
0602
050A
050E
060B
0803
0409
0100
0B0E
0A08
0307
0502
010D
0B02
0E06
0604
0307
000D
0100
0102
0702
0D04
0006
0500
0300
0E06
010A
080D
060A
0701
0508
0708
0600
0208
0005
0E00
0307
0807
030D
010B
0B0C
0E0A
070A
0B05
0C09
0504
0500
0E04
0B07
0B01
0309
0407
0302
000A
0906
0607
0E07
050D
0204
0806
0008
0C09
0708
0106
0B0A
0809
0E0A
070D
0205
0908
0601
0009
090B
0108
0C0B
0203
0001
0308
0703
0801
0304
0400
0708
000B
020B
0D07
0A02
0307
0C0C
0109
000C
0104
0700
0B05
0808
0703
0100
020D
0A0C
0806
0502
0809
0B02
080C
020A
080C
090D
0105
070A
0608
0505
0B05
0302
0009
080D
0707
0B09
0E0A
0D0E
0604
0C09
0C0D
0E06
0003
0902
010B
0307
0C0E
0907
0803
0208
0203
0D0E
020A
0109
0C04
0105
0E08
0A0A
0A0C
0706
0900
0301
0C0C
0306
090E
0D09
0402
0304
090C
010E
000A
070C
0702
0900
0B01
070E
0801
0308
080D
0903
0204
090C
0E05
0E01
0503
070E
090E
0606
030B
0202
0708
0E0B
080E
0D09
0E0A
0401
0C05
0409
0A0C
0E0A
020B
0C0C
0E08
090B
0807
030A
060C
0A01
0E0A
0B0A
0002
0207
0B02
040D
0E02
0C0D
0100
0408
070B
080A
0A06
040D
030C
0B0C
0008
0B09
0307
030C
0C09
0B0B
0203
010A
0808
0A02
0007
0308
090C
0E0E
0602
0203
0603
030E
0202
0909
0205
0E01
010A
0B0D
0C0C
0502
030C
0D00
090A
0B0B
0E03
0308
0E0A
0102
0906
060D
0307
030D
0105
0C0D
0706
0108
0900
010E
0906
0805
070D
0506
030A
0308
0D03
050B
020E
0005
0009
0E0B
0D08
0B01
0804
0109
0501
0604
0C0E
0B09
080A
0503
0702
0004
0E0C
0906
0702
0C07
