000E
00B0
004D
00A5
0043
00E0
0049
0044
00AB
000E
0056
004B
0051
00E2
00B0
0092
0062
008E
0015
0044
0074
00D8
0097
001C
002B
0013
00AD
0052
0037
0062
007A
0099
009C
003B
00ED
00DD
00B2
007D
0088
00B9
002D
007C
00AB
00C0
006A
00A5
0016
0039
008A
0048
0080
00DA
00A7
007E
00DB
0071
0025
0091
0035
0086
0012
0075
0086
00B9
0098
00E6
00AC
0035
0000
00B2
006E
00E4
00D9
0035
0064
0070
0046
0019
0027
0006
0008
001B
0023
00B5
00CE
0067
009B
006D
0052
0077
00AD
00ED
00C0
00CA
00B1
00E8
0019
0019
0018
00A1
0045
0039
0081
001D
0080
0042
00D9
0080
0025
0081
0023
0090
0053
003D
0057
00BA
00CE
00B8
007B
0042
000D
00DE
0052
001E
00D1
000A
0071
0044
00B6
0080
0003
00A6
0095
00B6
004A
006C
009A
003D
00AB
003C
00B0
0008
0050
0082
0074
00C1
006C
0070
00C6
00A3
00D5
005A
00AD
00BA
0052
0021
00B4
0089
00DC
00BA
004A
0039
00E3
001D
0034
00BE
0094
00CB
0095
00DB
00D2
004C
00A1
0060
0011
00E3
0066
007C
00B0
003D
006D
009A
00EE
009D
0035
0005
00A6
00A0
0095
004B
0012
00EE
0061
00B1
0081
00DA
0056
0064
0054
00DC
00A4
00B6
0012
0024
006D
0080
00A0
007D
005C
002B
00AD
003A
00D6
00E2
0089
0080
003D
00E1
0089
0044
0042
006A
0039
00DA
00C1
00DD
0058
0068
00AB
004A
00D8
0076
00D3
0073
0001
009D
0043
005B
00A9
0068
00C4
001E
0081
0063
0023
00BA
0070
00BE
004A
0033
0045
0062
0051
004D
0071
009B
002C
00E1
0073
0006
0077
00A5
00DD
00A9
00C8
00CB
00C6
0028
006C
0005
00B7
00A0
00AA
000A
001A
00AA
0088
0035
006E
0094
00DD
0051
008D
0055
0033
002A
0014
0043
001D
001D
008B
007B
0065
00ED
002E
0004
0036
00D9
00C1
00E8
00CE
00E9
0074
00A5
0041
0071
00E8
0022
00D1
00A3
00A5
004E
0010
00D3
00CC
00B2
000B
0057
0012
0076
00EA
0035
0040
00EB
0061
002C
0027
001E
0035
0064
0075
00E1
00A2
001D
00AA
00E4
00EE
0025
009D
00E5
0073
00C1
0081
00C7
0003
00B3
00E9
0040
0083
005C
00AC
00CC
003B
0050
003A
00C4
0083
0096
00AE
0099
00B5
008B
00EE
00A8
0003
00C9
00E0
00C0
0086
0021
001D
0044
00AB
00CE
0086
0093
0018
0002
0013
0006
00C2
003C
0094
00C5
0019
0026
0020
006C
0088
0036
007E
00B0
0032
00E0
003E
0021
00D4
0057
0014
0001
0012
0088
0027
00D0
002E
0016
00B1
00B7
0006
0079
0089
00E3
006B
0053
00EA
002A
0006
0071
0096
004E
0044
0091
0020
003D
0062
0052
00DD
0022
0074
00AD
00E2
0023
004C
0004
00A0
0061
004D
0014
0072
00C5
0025
00B5
003A
00DB
00B5
0027
0028
0028
00CA
00CA
009E
0097
0003
0035
004B
0033
000A
0010
0044
007C
0095
00C8
0063
0029
006D
001D
00B9
0098
00B6
002C
001C
00E6
00DC
005B
0066
00BB
00D8
0068
0089
00EB
00DA
00ED
00E6
000C
0024
0050
0036
004A
0072
0037
0003
0027
0099
0053
002C
0018
00C7
00AE
0017
002E
0030
00C2
0035
00AA
00DC
0027
0034
0041
009A
00EE
0015
000E
00AC
007D
007B
009A
0062
006D
0053
0067
0084
00E6
0093
0008
0032
0073
003E
00D2
00C9
0085
00A8
0075
00E8
00C0
0009
002A
008E
00BE
008B
0004
00ED
007C
0099
0005
003C
00DE
0016
00B2
00D1
002E
00E2
0001
0091
009C
005E
0090
0074
0034
0043
00AB
0081
00D2
00EB
00EB
00ED
000D
0056
0058
008E
0025
0084
0014
00C2
0034
0018
00A6
00D4
0021
003E
0004
0019
0097
0078
000D
0069
002E
00DE
0090
0056
0085
0081
0009
00D5
003C
0065
0011
0044
00C8
00D4
0029
007D
003A
00AB
0042
0067
006C
000B
00D3
007D
005E
0087
00A2
00A4
004D
00C4
005B
004B
0083
0002
0047
0096
0087
0039
00D3
00B1
009E
0077
004A
0076
0075
004B
0097
0030
00A6
0090
00C1
000E
0090
00B8
00BC
0064
00EA
0029
005B
009B
00BC
002A
0061
00E7
0016
0071
0063
0007
000B
0046
0008
0012
007E
00D9
004B
0019
00C0
0062
00D4
0047
00CD
0043
00DB
00A9
0094
00D8
008D
0010
00D5
00D1
000D
003E
0075
003A
00D1
0081
0042
0074
00B9
0006
00CA
0038
0076
0059
0073
008C
000A
00E7
0022
0079
0040
0071
00B5
0058
0019
001E
0075
0017
003D
001D
0079
0097
0021
0032
0021
0088
004B
004E
000E
00A5
00BA
0038
00A4
0032
0069
00C0
0075
00AC
00BE
0094
007A
005A
00E5
00E4
0032
0037
00C0
003B
00EC
00AE
0058
00B4
004B
00A2
009A
006C
005A
0030
00E9
0001
00C3
0022
002B
0035
0066
005A
00ED
0086
0012
0002
00A0
0013
0092
001E
00D0
008B
003E
00D6
008A
00E5
0096
00C6
00DC
0062
00EB
00C6
0046
00A1
0096
00E9
00A1
005A
005A
00A0
003D
0015
00C7
004E
00CC
0069
000C
0089
00A0
00BA
00C3
0084
00DC
006D
00E5
003C
0026
00D5
00D7
0092
00D8
0085
0038
0076
0063
0099
00D6
0025
0029
00D2
0027
0078
00A1
0097
00C2
0088
00B1
0023
00BC
0069
00B3
009E
0059
0039
0050
0032
00C7
00DA
0023
004B
00A8
0032
000C
008A
0093
00C0
000E
0035
00D7
0060
0051
00AA
005C
0038
006D
0017
0087
0026
0041
008A
0011
00AB
0015
0045
00BA
00C1
006A
0080
0094
00AB
00E7
00C9
0047
000A
0081
0017
0052
000D
0008
00AC
0051
002A
0024
00AC
0090
0032
0049
0057
00A6
00C7
005D
000C
00CB
0054
0034
00E4
0029
0094
001C
005D
004E
0037
0029
004A
0011
002B
00AA
006B
002E
008E
0066
00B7
004E
0033
0040
007D
005D
00E9
00DE
0080
00A5
00A2
0027
002E
00CD
0054
0048
0001
0029
00E1
0099
001A
00B4
00B8
00D5
004E
0093
005C
0091
0089
0059
0070
00ED
0010
0058
0064
004C
00BE
005E
0094
00D3
00DB
0087
0017
0006
0033
008E
0058
00E6
0071
00BA
00D8
001E
00B7
0012
006D
0090
0051
00BD
00B7
008A
00B0
009E
0099
0039
009E
009E
00CD
0076
0022
00DC
006E
0091
0002
00BE
00E2
0002
007A
009E
00B6
0087
0093
00EC
006B
006A
001D
0036
00AA
0003
00C6
0084
00B2
0086
0083
00DA
0083
00CB
0057
0087
0004
0017
00EE
00A0
0038
0064
00C1
00A6
00EA
00CA
008E
00B1
0044
001D
00CA
0071
00AC
008B
0086
00EC
00BD
0086
0093
0065
002A
00CC
00D4
0033
0017
00A3
0092
0063
0048
0057
0003
00C1
0051
000A
0074
0088
008B
00BE
00EB
006E
00AC
0059
0065
00B9
00D4
009D
0058
00CB
00D3
00B4
00E9
00D8
008C
0033
004A
0070
0001
006A
00CD
002B
0079
00CB
0052
0067
0073
004A
0027
005A
00C8
001A
00D5
0045
0061
0078
0058
0036
00B3
00A4
0046
00D2
0069
0087
00DB
005E
004A
0051
00EE
00E9
0023
00BB
00E8
0041
00C0
00A1
00DD
008C
0000
0000
0029
003C
0049
00EB
005E
00A6
0042
00A8
00B3
0001
003C
0065
0014
0099
00A8
00B1
0028
0074
00D6
000E
0088
00BC
0078
000E
0014
0069
0098
00C8
0005
0000
00D1
00D6
00C2
00CB
0004
00A1
00EE
009B
0076
0054
003D
0035
0059
0032
000A
0026
002A
00B8
0035
00AD
0016
00E4
00A8
003A
001A
0095
0096
000A
0060
00E0
00A8
000B
0077
00A9
0022
0031
001C
009D
0065
00CA
0052
0098
005D
0019
0014
00AB
00EC
00ED
0041
0030
0050
00E8
0088
00EC
006A
00C5
00C7
003C
001E
0040
0016
0061
001B
0032
0024
0049
0069
003C
0028
0031
00B9
00A3
007A
007B
00BB
00D3
00E5
0097
0019
0028
0005
001E
0000
00BC
00B6
00CD
00D7
00C0
00A1
001E
0032
0084
0080
000C
003C
00E7
008D
003E
0038
0058
00D8
00D2
00A6
00E4
00D2
00AB
00E1
007A
00D9
00AE
0058
007D
006B
00B7
00B9
0015
00C0
00B1
00E6
00A9
002E
0021
00BE
0093
005D
0088
005B
003E
0059
0040
00DA
0062
0040
0063
006C
00A4
0073
00AB
00C9
0013
0075
00A3
003D
000C
004E
0024
0045
0041
0068
00C0
00C0
00EE
0045
00DE
0057
008A
0055
00A2
0003
0016
008A
00DE
00E3
0049
009A
0082
007D
00CB
005B
00B7
000A
00C4
0096
0088
0096
00D3
0012
0012
0036
006C
0010
003A
00B7
007A
0001
004A
0010
000E
00D5
00AA
00E1
0048
00E1
0092
0085
0022
00C6
0012
0062
0092
00DB
0090
00D1
0030
009D
0048
00E6
0097
002D
00E8
0003
0096
005A
0064
00C5
003C
0029
0025
00ED
00D0
0085
0043
00A5
00BE
002B
00D1
00CB
0068
0041
007E
00CE
0026
0020
0016
00C4
00C9
009D
0065
00DD
003B
00E0
0012
0007
00EA
0008
007C
009A
001C
00B9
0077
00E0
00AC
00BB
0092
000C
00A9
000E
00A0
0057
0041
002C
0005
00EE
0086
009C
00B6
0043
006A
00BA
0054
00B7
00E2
0044
0092
00A8
00C1
00D4
009C
005C
00EE
00C3
00BE
0001
004A
0087
0041
0086
00EC
00A1
002C
0014
00E6
0036
0021
009E
0063
006A
00BA
00DC
002C
0099
007A
0043
005C
0007
006E
00EB
003E
00A1
004D
00D1
006C
00DC
0076
0052
00BA
0049
000E
003D
000E
0034
009A
0066
0062
0017
00D2
0086
009C
0086
00B7
00AD
005D
0022
0011
007D
00CE
004B
00BD
0014
0056
00CC
003C
0060
005D
00EE
00A7
0086
00E3
0039
0026
002A
0070
005D
00A0
0002
00E3
005A
000B
001D
0014
0012
0076
002E
00C8
00C6
0039
0027
00C0
00C1
00CE
0081
009E
0001
0068
00E1
0008
003E
00EC
0021
0036
0062
0046
00C9
008B
0011
0033
0094
006E
006A
0078
0055
00BA
0069
0045
00BD
009C
00A0
006A
00A6
00BC
0072
00EA
002D
0071
0054
0039
0000
009B
009D
0024
00E3
002B
0046
007B
00D4
0027
000E
0032
0003
005B
007E
0023
0054
0024
007D
0039
0064
0070
0034
00CC
0050
00C4
005A
00C7
0078
0090
00B5
0054
00ED
00EB
0092
00D7
0088
009B
0037
0057
0061
00D8
002C
0068
00B1
0058
0006
0088
00A0
008A
00D5
0038
000C
0020
0029
00C9
006D
00D7
0065
00D8
0095
00B9
0018
00D7
007C
0053
00AD
003D
006D
00A0
0066
002E
00BE
0068
0066
00A6
0041
0065
005A
0016
00B0
001B
00CE
00B2
00E7
00E5
00DD
0014
00E9
0071
006A
0053
00CB
0098
006D
0090
005C
0021
0028
0079
0095
0098
0085
00B4
00BC
0084
00D2
0098
002A
00A8
0083
003B
00DC
00ED
00C9
0054
0073
0006
003A
00CE
0050
00D2
0083
0030
0024
0085
0002
0089
00B3
0004
00AC
0021
004E
0029
0000
0009
008E
002C
00A8
00B6
00D1
00A4
00E2
007B
00ED
006E
0072
0066
001D
0024
0082
00E8
00CE
0069
009A
003D
00D0
0035
0088
00A7
0083
00E9
005E
00CC
007C
0070
0047
0080
004A
0055
0054
009A
0003
0046
0011
0023
0069
0097
0033
001D
007E
005A
0063
00CE
0098
00BC
00AB
0045
0049
00ED
00AB
0009
007B
0040
0017
00AD
00B7
00A3
00BB
0025
0017
007A
0018
00EE
0052
00BB
0091
006A
0003
00E1
008C
0066
0034
0054
0035
00B3
008B
000D
00C7
0029
00CA
0004
0041
00AC
0059
00C0
0034
003C
0003
007A
003A
00A0
0081
00B9
00C5
009E
00EB
00E3
0083
001A
0096
001D
0056
0083
00B6
003A
00BB
00B1
001B
007C
00CA
00A2
00E6
0052
00D6
0066
001D
0093
0054
00BA
0007
0030
0086
0068
00B7
0097
0005
0015
00A7
000A
0077
008A
00A0
000D
009E
00C1
0063
0035
0023
0007
003C
006C
0055
0011
0025
0092
0081
0042
0016
0089
0060
00A5
0027
004D
0030
0020
007E
009B
00B1
00E1
00CC
0064
0051
00A3
00A9
0018
00B0
00D1
000B
0062
003B
00D7
003C
0089
0015
00C6
00BC
00A1
0000
0028
0053
0087
009D
0003
00CB
0019
0057
00B0
0053
0052
000D
00E9
0057
00CC
005B
00BD
00C2
00D7
0082
0047
00C5
0024
008E
0030
00AA
00D0
00D4
000C
00E9
001A
00A9
0041
00BD
0024
00DC
0061
0020
00B0
003A
0062
007A
0026
0077
001E
0051
009D
00BE
0044
0078
0012
0005
00EB
00E3
006E
0042
00EB
00BE
0057
0083
003D
0042
0080
0029
00D8
00D7
00BB
0044
0046
0006
00A4
00A6
0015
0023
0035
00B2
00B1
00E7
00EB
00DC
00D9
0032
001A
0083
00E8
00E8
0088
0021
00ED
0074
0050
0025
00E8
00D5
00B5
0016
00B4
0073
00CD
0075
00D8
00EE
0007
0077
0002
0020
0090
00D4
008E
00AC
0083
000D
00C4
0098
00A7
0012
00AA
00C3
0009
00BC
001D
0039
0060
0098
0000
0029
00EE
000B
004B
0066
00DD
0049
001E
0040
00EB
0027
0099
0021
0023
0065
0047
009B
0035
0060
0078
00BA
00D7
00BE
00BA
0080
0080
0070
00AA
0014
0034
006E
007B
00D6
0088
00A9
0002
00DB
00E0
0034
00D0
00CB
00DD
006C
00DC
0014
0006
005C
0074
0000
0033
00BD
0024
0078
00A5
00E0
0038
00A1
0036
00A1
0030
0045
0002
0099
0051
00EC
00D8
00DE
0024
002D
0064
004B
00D0
00BA
0024
00C9
0082
00BA
0071
0067
00AC
00AA
00AC
0061
00E7
0035
0091
0068
0049
007E
00B0
00C4
0013
006D
00EA
00AC
0026
0060
00D5
0048
0067
003D
004C
00C6
0062
004A
00EE
00A8
0040
0049
0030
007C
003E
0037
003A
00C4
006C
000C
004E
0069
0084
0043
0011
0067
0010
00E7
0012
0074
000C
0031
00D2
008D
0013
004A
00AD
00E6
00C8
00BA
0057
0055
0038
00B0
0044
000A
00C2
0088
00ED
00EE
0057
001B
0068
00B0
0042
006C
00B8
001D
008D
0094
00D5
0014
001E
0089
006E
00D4
0008
009B
0029
0026
00E5
0066
00E4
00B2
0051
0015
000C
004B
0009
0056
0059
00D9
009B
0070
0092
00CB
00C6
00E6
0010
0078
0061
0089
008B
00B4
006D
0077
0047
00A3
0037
00A0
00C9
0005
004E
00C4
002D
008D
0048
00A6
0052
0099
0028
0018
0076
004D
0080
00C5
0006
00AB
00B0
0087
007C
00DC
00C1
0070
005D
00E3
00E0
0043
0015
00AE
00A8
0079
0032
000C
0054
008D
002D
0085
0090
0087
0085
0013
000E
00E3
0030
008B
0007
0040
0023
0012
0015
0096
008E
0033
002D
00C7
003A
006B
00D0
001E
005D
00DA
0060
00D2
0087
00E8
00A1
0049
009A
00CD
0053
005B
0053
0060
00EC
007A
0068
0044
0070
0058
00E4
000C
0076
0052
0002
005E
000C
00E8
007E
00D1
00E6
0050
0094
00BD
003B
00E6
0052
0045
00E5
008B
0011
0088
00A6
0029
001C
0099
00BD
0075
004B
009D
0010
00D8
0049
00B7
00D0
0095
0078
008B
00C0
003B
0017
0076
0020
00E1
00AB
0099
0008
009B
009C
003D
00EA
00CE
004D
00A2
00C8
00E7
0003
006D
003B
008C
0060
00A9
0073
0059
00A9
0004
007B
00D7
0079
00C6
0020
0045
0085
00BC
001B
006C
00B2
0058
000E
0005
0095
00D2
005C
0092
00AD
0080
007B
006A
00CE
0090
00E4
00E1
000A
00D0
002E
0096
002A
0024
0066
006C
00B4
001E
0048
00D7
0043
0024
00DA
0018
002D
00C8
0060
0005
00E7
00AE
0048
0073
0045
00B5
0099
0086
00D8
00C0
0055
0075
009A
006B
0054
005D
0071
007E
0085
00A4
0047
0095
0043
00BB
0013
0064
0010
009A
005A
0026
008E
00B1
004C
00A3
000E
00C4
0085
0096
005B
00A0
0035
00CC
00D6
00B8
00A2
00E3
0016
0027
0020
004D
00B4
000E
00B1
00D7
009B
0070
00A5
00CB
001E
00D6
00B6
004A
0019
000E
0071
00EA
0014
000D
00C0
0079
00CE
0092
0010
006A
00C9
0064
004D
0007
0082
00AE
003E
004A
0086
00E5
0086
00CA
00B6
00B8
00E2
00E4
0087
0055
0011
0080
004C
0092
0004
000D
00B6
004B
0087
007E
00E3
0090
008E
0018
001A
0086
0004
00A1
0007
00CB
0093
0093
009A
00EA
0090
009C
0058
003C
005E
0013
0020
0091
006B
00C1
003E
00BD
00C0
003C
0034
00A7
00E9
0022
0040
0042
0056
006C
0078
00EC
0018
006C
00E3
0028
0022
0029
0089
001A
000D
00E5
00ED
00B7
0075
0009
004E
006B
00B8
00D9
006A
00BE
0048
0095
00BE
00DB
0054
00E2
001A
008D
0088
002D
0040
0055
0021
00D3
00AD
0099
00E4
0005
007B
00AB
0022
0009
0031
0070
00BE
006A
0092
009D
00BD
0024
0053
00D8
00BA
00C2
00EE
002D
00E3
0081
00B0
0049
004E
0017
0040
0084
00CD
006E
0049
00C3
005A
0084
00E6
00D8
00DE
003D
00A2
00A5
0097
00DB
00E6
001C
0010
0023
0010
0057
0012
00AA
004A
0030
00E0
0038
0095
007C
0083
0016
0007
0099
0051
0007
009B
007B
00E3
00D1
00CB
00A5
003C
0083
0069
0091
00A6
0002
00C1
00B0
0075
008B
00C0
0092
00E3
0080
007A
0080
0085
00CD
00AE
003C
0076
0013
00DA
0006
0002
0045
00B0
000B
00B1
00C2
0023
005C
00ED
004B
0014
00B4
002A
0026
0015
00E8
00C3
0011
00AB
004B
0047
002E
00E6
0088
008A
0039
00C1
0063
0058
0067
0029
0045
0005
00B9
0078
009E
003D
0026
0093
002B
006E
0058
0049
00B7
00E8
00AC
00E1
00A6
00A8
0027
0094
0036
000A
0050
007C
00AE
00E3
0053
00AD
0025
002D
001B
00C9
00CC
009B
0014
00EB
009A
0038
0040
0048
005D
0044
0001
0081
00B2
00A0
004D
00C4
006A
0079
002B
0020
00C9
0054
00E0
005D
00D1
00C2
0061
009D
001A
00DB
000E
007D
00DA
0046
0049
0047
00EB
0098
00C9
00C0
0017
00B5
0001
0095
002E
00D9
00BA
00DC
0098
00AE
003A
00A2
0044
009C
0081
003E
00B5
0078
00AE
00B7
00E4
0035
0041
00BE
00D1
00D2
0051
002C
0042
003D
0081
0071
000C
00E0
0016
0079
00BE
00E5
00EB
00A6
00CB
0095
002C
004D
0079
0098
00B5
00D5
008B
0009
00DC
00A8
0051
00B2
007B
00A6
0015
0085
0002
006A
0076
0033
00B7
0091
0096
004A
0090
00B9
001E
007A
0000
0035
0066
0084
0051
007D
00C8
0042
0005
0074
0026
0091
006B
0099
0059
0016
002B
00A9
0033
00D8
00C8
00E3
0097
009D
00A6
001C
0072
0042
004D
002D
00C1
0063
00BB
009E
0087
00EB
0017
00DE
00BE
00CC
0062
0006
00C4
0072
0003
00D7
0000
0011
009B
0047
0090
009B
0009
000A
002D
0083
0082
002B
0054
0042
00B4
0095
0006
008C
00D3
00D6
009C
00AB
00A2
0082
00C6
0071
00BA
00C7
00BE
0036
0064
00AB
0069
005B
0043
00CD
008B
002A
00B8
00A0
00B5
0089
00C9
0093
00C1
00B2
002D
00B4
005E
00BB
0007
00CA
0031
009C
0026
00E1
0024
00CD
0056
0075
00E6
00B9
0009
0075
0006
006E
005B
00EB
000B
0069
00DC
00EA
00A9
00A9
0008
0046
0006
00ED
00EC
0086
00BC
0070
007D
002B
00D2
00A2
00B3
0098
001D
0069
0007
002D
0027
0094
00BC
00C9
005A
0051
0077
0028
008E
0048
0044
0078
0004
00CC
0012
003E
00BC
00B6
00C7
008D
00D7
009A
00AC
0056
0069
00C0
004D
00B0
0017
00C6
00A9
00C5
0083
00C9
0044
006E
0041
004A
00BA
002A
000C
0053
00DE
00B4
00C3
00D2
00BD
001C
0020
0042
004A
005D
006D
00CE
005C
0045
00E8
0014
006E
00D5
006C
0068
0054
00D5
0084
00DA
00B5
00C8
00A2
000A
004B
00AB
00EA
00E9
0049
00D7
00A4
0009
0044
008D
00E4
0004
00E2
0042
0030
001D
00EC
0054
007A
009A
0042
00E8
0000
0005
0043
00CB
003E
00ED
00C5
002B
007A
0040
000C
00E6
00D9
0023
0010
0010
00A7
0034
0053
0064
0084
0003
005E
0092
00CD
0043
0089
00A9
001A
0057
00C6
00C7
004C
0042
0044
0006
0025
00AC
0000
0046
0013
00A6
0060
000C
0026
0057
0071
004C
00CA
00A9
0033
005D
00C8
00E3
001B
008C
00CA
006C
0006
0034
002E
0071
008E
0045
0029
001C
00CE
006E
00DA
00E2
0029
0087
00DE
00E9
00E9
0061
00CE
00C0
0094
009D
00D3
008A
005D
00ED
0023
0016
00C5
00CC
0029
00B1
00D9
0001
00D8
0040
009B
0080
0087
0050
008D
00D2
0093
000E
004E
00C3
006D
004D
002A
00C3
00B7
000C
0000
0041
0006
0005
0091
003C
00A7
00BC
0050
0085
00AD
0091
00D1
00CA
0008
000A
0026
0053
0078
00A6
007D
007B
0036
006B
002B
008D
005A
0083
0064
004E
0009
00CE
00BD
0025
0079
00DD
00B6
0033
00B2
009B
0051
009A
0019
001D
0016
0023
009C
0041
00EA
000C
00A7
0044
000E
00E9
0051
0052
0027
00EE
0005
0062
0030
0029
00A3
00ED
00A1
007D
008D
0087
0039
0067
00ED
001A
0041
0055
00CE
0092
0013
0084
00B1
00DD
00A0
003E
00CC
00E6
0036
00C5
0097
0067
0071
007D
006A
0040
008E
005A
00BB
003D
00B6
00E0
0046
0053
0056
00A6
00AE
003E
009E
0075
0043
0087
000D
0086
0055
0006
004E
0048
006A
0086
0098
0059
006D
007E
00C7
005C
004A
0036
0080
006E
0010
0048
0047
0021
004A
002A
0060
0057
0082
00CA
005E
0036
004C
0047
00BB
0060
004D
00EB
00C5
0092
0015
003D
0066
0017
00B3
005A
0075
00C8
00DE
0037
0066
00C9
00BB
00A2
0074
007B
0006
00A5
0003
000E
006D
0067
0030
0062
0088
0045
002B
00CC
004E
00EE
00D5
00AD
0032
00C8
00CD
00A2
0067
0050
0077
00E2
0056
00BD
002B
0085
0011
0054
008E
006A
0075
0024
005D
00CB
006E
00C0
0047
00E2
0037
00A0
0021
002E
00C7
0055
009B
0000
003A
00E6
000E
00B8
0019
00A9
00BA
0054
0066
00BA
003A
0049
0045
0079
009C
00BA
0095
00A3
00B4
007C
0051
0080
0070
00CA
0052
0083
0069
0038
0071
004D
00C2
00A9
0072
0077
0093
00AC
0003
004C
00C8
00CB
00B8
004E
0078
00E8
004D
00C4
0018
00AD
0026
00A5
008D
00B8
0088
00D9
00B3
00D3
008A
00D9
002E
0054
0050
00A7
00ED
009D
00AB
0056
00D1
00ED
0032
00DA
0034
009C
00C9
00E3
0018
0072
004A
0012
0076
0094
0083
0076
00A2
0062
00B9
0094
0094
0029
0040
0022
00CD
006D
00D3
0012
00A2
003E
0014
0027
006D
00E4
008E
00C0
00DA
002E
0055
0085
0083
0044
0050
004A
007A
0082
0018
004B
00B0
00A8
00E8
0088
006B
00B5
00A6
00B5
0042
004C
0073
00E1
0078
0082
0081
00A6
0012
0058
0062
00A3
005B
00C7
00ED
00EC
00E2
0011
000B
00AA
0028
0075
008C
00C6
0071
0056
0081
0034
0020
007E
0065
003E
0090
0079
00DE
00E2
00D3
003A
00D9
0015
00C4
00A4
00D2
00C3
0038
00A7
00BD
0058
0014
00C9
00E6
00E5
0010
00E1
0002
00C6
0039
00A2
00CE
008D
00DC
007A
0017
002A
006C
005E
0044
0067
0054
00AE
00C9
0082
00C1
0089
003E
00AD
0008
0072
0012
0035
00C8
00DC
0027
00ED
005C
00BD
00BB
0009
0059
00AC
002D
0021
0097
002C
00E3
00C2
00CE
0097
003C
00A4
0033
005E
00D4
0009
0089
0050
007E
0026
00E7
0031
008A
004A
0051
0047
00C5
00DE
00A3
00D7
008B
007E
0062
00BB
0077
0098
0054
00B4
0049
003B
006C
00DC
00C3
0034
000A
0027
009E
0041
0093
00A1
0019
0071
00D4
0038
0057
00DA
0062
0003
0058
001A
00A2
0014
0074
00E9
00B2
001D
00E7
0006
005D
0058
009A
0003
00B6
00AE
0004
0045
0080
00B0
0040
00D6
005D
00A7
0049
004E
002E
00BE
000C
0057
00E0
0069
00B3
00EC
0062
0063
0004
00B7
00DB
0095
00DC
00CD
0008
007B
00B2
00B0
0018
00EA
0020
0059
00E9
0026
003D
00E3
00DE
000B
00C5
0001
00CB
0009
00E4
002D
00E1
0018
0010
0091
00BE
0056
00D2
0013
0089
0093
009A
003B
00E9
0058
00EC
00EA
009E
001C
00E0
003E
0031
006C
0003
00B1
0008
001A
0000
0055
00C8
00D7
00B2
0038
0091
008D
001A
0008
00C8
006E
00BC
0013
0053
006C
00E8
002B
0038
0042
004B
00ED
0044
0008
0044
0059
0070
002C
0029
007D
0021
00DD
0036
00E6
002A
000D
0095
0047
00CA
001D
0068
0077
0063
00C6
00D1
005C
006A
000A
008C
0027
008E
008E
00A8
0095
0063
00A9
00D7
0069
0056
00C9
0091
0092
00AA
00C2
00E7
003E
0023
0076
00D8
004A
0009
0052
0052
008D
0026
0042
0028
00C0
00D5
005A
0000
0045
006C
0092
00E3
00DD
0051
002D
0079
007A
0056
0071
0009
0079
003B
00A0
000A
00A1
00BD
003D
00AC
0066
0075
009C
00B4
00E2
00C8
0085
0027
00E3
00BC
0077
009E
00DB
004B
0066
00AE
0067
002A
00C0
001A
005B
003C
0021
00A4
0063
0059
00EE
001C
00D4
0026
00C9
00D8
003C
0027
0005
00D1
00C7
00BD
0065
00DA
0073
0079
006C
00B3
000C
00D2
00B5
00DE
00D9
0056
0049
0033
000A
001A
00CE
0004
00B6
006D
0055
0075
002C
0027
00D1
001B
00A9
00EE
0013
003A
0072
00A9
0055
0084
004B
0045
0072
0054
006B
00D8
0050
00BA
0070
0032
0085
0076
00AB
0026
00B9
00E9
003E
0003
0084
003B
007C
0023
00A1
0008
005A
0066
00A0
0008
007A
005C
0034
00C8
0086
00D5
0027
00E9
0079
0081
0062
0045
0070
0069
00DA
0029
00B4
0008
0026
0054
0056
0034
0017
0025
0083
00C5
00B7
0050
000E
0063
0075
0002
0046
0029
0042
000E
0070
001A
00A1
00CE
00BC
00CE
00D2
006D
00A9
005B
005D
0010
001D
0001
008A
00ED
0048
0079
0024
0050
006E
0085
007C
0016
0019
00B4
008C
001A
0000
0021
002A
0047
00BD
0039
0079
000C
00BC
00AD
00C9
00B5
0087
00A8
0070
00E5
00D0
005D
0079
001D
003A
006B
008C
0054
00C9
004A
0018
00C5
00E5
005A
0042
00C9
0008
002A
002B
00D2
00B9
0048
00D4
00E5
002C
0099
00DD
00E7
001C
00CE
003B
009E
00BC
003B
0037
00A5
0017
0030
0092
007A
004B
0010
006D
003D
0031
001B
009D
0066
00C9
0076
00D7
0020
00B2
0050
0097
00D8
0090
007A
0026
0093
008C
0042
004C
0046
004C
0000
0003
0075
001C
006A
0050
00CE
00CA
001D
006E
0095
00BC
005D
0006
0087
0053
0006
006B
000E
00D5
0055
003B
0012
00D1
0035
0099
0086
0032
0089
0035
00A7
0066
00DD
00CE
00C3
0006
00CE
000A
00E1
0079
0071
0096
0011
0046
00C3
00BE
0059
006D
00A4
008A
00A9
0021
0096
001C
001E
0080
0018
00BC
0068
003B
003B
00C7
0085
0006
0034
0042
001B
0008
0080
00EB
00BB
0022
004C
00BB
0062
002C
0048
0043
00EA
0045
0057
00A5
0097
0037
0074
0099
003A
0058
00BA
0004
0031
0086
0054
00AA
004B
00C5
00B4
008A
0047
00E9
0032
00EE
00D0
0029
00ED
00C8
005B
009C
00BD
00A5
00D7
001A
0014
0041
009C
00A1
0020
0045
006B
0084
009E
0040
0007
0016
00C1
0003
0040
005D
002B
0004
0074
00D4
005C
0019
00C1
00A7
001D
0059
001B
003B
00A2
001A
008C
0077
00A1
00BC
00D8
0058
009E
00DC
00CA
0021
0048
005A
00AD
005E
00D5
0025
008A
0007
0080
0014
00EC
0019
006A
00E3
0042
0080
009B
005D
00BD
00D0
00A5
0013
008B
0009
0048
00B6
006A
00B9
003E
0062
0080
0076
00C4
0006
00E1
0093
0063
0037
00B7
0044
0015
00DC
007A
002A
0084
009C
0001
005C
00A5
004E
00E7
0086
00C4
00E6
00CD
0040
00A6
0028
003D
00D4
00CB
00D6
00EE
00D9
001C
003E
0074
008C
006C
008B
00BD
0020
0033
00CC
007B
0064
0075
0014
003E
00C5
005A
0081
000B
0041
0046
00E9
0032
0024
0053
002A
0047
0078
0028
005D
009B
0037
0012
009A
0094
0033
00AD
0074
009D
0018
003B
0035
0049
0012
00BA
0000
003A
009B
0010
0068
0024
00C2
005A
0098
00D6
00B2
0098
00CB
0078
000D
008C
009C
0079
003A
00C5
0092
00E0
009D
0062
00D9
0028
005C
0067
004E
00D5
006E
00AE
0044
00CC
00A1
0075
00B1
00BB
0028
004D
001A
002A
009B
00E0
0016
00EE
00B2
0005
007B
00E1
0037
0036
006B
00A0
0099
001E
0025
0092
00CE
0080
0087
009A
0037
0064
0041
0060
003A
00B2
000A
003A
0099
00B8
00B1
0097
0098
0038
0052
0066
002B
00E3
0018
007D
000A
0011
004E
00DB
00EE
003B
0056
0025
0099
0021
0066
00E2
00D0
001A
0082
0019
00BC
00B0
0016
0012
00A1
0029
0056
00EA
002A
006C
0005
001D
0003
003E
004E
0076
005A
0029
0047
0081
00E4
00B4
004A
00B4
001E
003A
0091
00D1
00E2
0056
00B9
0071
00B2
003D
0028
00D9
00AE
00C1
009D
005D
0012
007C
006C
00C8
00C9
00DA
00CB
0041
0093
00AC
000C
00A1
00E8
002C
0095
00B8
008D
006C
002D
00C4
0062
0061
0067
00A4
0008
002C
0035
0037
0086
00E7
0088
003D
0030
00A2
000D
0052
001A
00B8
0059
0087
00EC
00CD
00B6
0023
0079
0056
00C1
00C5
0040
0044
0046
0041
00C3
009D
0021
0021
00BD
0080
00AD
005C
00C2
00D3
006C
0034
0049
00D4
007A
0002
0015
0093
00EB
001A
0039
0060
0074
0085
0036
0053
0067
004E
004E
008A
004E
00B5
0014
0096
0068
000A
0088
000A
0048
008C
00DD
00A8
0004
00E5
0074
009B
0011
00E5
0083
00C9
00DD
006B
0015
006D
00B7
007D
0034
00C6
006E
0061
0090
002D
0063
00A9
006D
0086
006B
007B
00B4
0049
00DE
0086
00E2
006B
0094
0025
0070
00A8
0047
0015
0091
0095
00E5
0078
00C2
002A
0080
00D0
00D3
0082
007E
00C4
00E7
00D4
0087
009B
008B
0085
005B
0062
0057
00B4
00C6
007D
0050
0027
00DC
00ED
0061
00E5
00B3
007A
00A1
004D
0000
0077
00EE
006E
0019
000C
00DA
00E3
00CD
0056
005D
00CA
0036
00AC
00CC
0083
00E9
0044
00C8
0032
00A9
00EE
0043
0012
0039
0001
0028
008C
005D
0018
0000
0036
00D9
00E3
007A
0013
00A2
0021
004E
00BC
00AC
00C1
0076
0066
00E2
0013
007B
00A2
005E
00CA
004B
0014
00CD
00B0
00EB
0021
003E
0092
00E5
00C7
0027
00CB
0079
00D6
006A
00CE
0083
0009
0079
0093
004E
00CB
0037
00DB
005C
001C
0094
0038
0078
00C7
000E
0099
005D
0099
00E2
00D6
0073
0079
00EC
0023
0085
001A
00C2
0032
0052
00B6
0004
006E
00A8
00C7
0024
003C
00D8
000C
00E9
00C6
00B4
0024
003E
00B6
0016
001E
009A
0098
00C6
008E
007A
006D
004D
00E4
0030
006B
00E3
007A
00B0
007C
0091
0007
004D
0069
0034
0069
0055
004E
0030
001A
000A
00D1
0030
0052
0046
00D2
000D
0046
0059
002D
00B3
00A2
009D
0063
0004
000E
006B
000B
000E
0012
0008
00DA
00A9
00E1
0088
0083
00EA
004E
0074
00B8
0084
004A
00A9
0067
00EB
003A
0048
00B5
0044
003A
00EE
00B1
0017
0086
0058
0053
0041
00AD
00E9
00DA
00CA
0004
0097
0016
00C8
00D9
0070
0050
003A
0096
002E
00AA
008D
0020
0083
002E
0021
0076
00C0
001B
0048
00B5
0026
0042
0076
0063
00E8
005B
0029
0009
0078
00A6
009D
0056
00AC
0073
0002
00C1
0002
009C
002D
00AD
0080
00CA
005E
000A
0019
0078
0048
00EB
0071
00CE
0071
008C
006D
0060
006A
00A4
007E
0030
0040
0016
001B
00AB
0039
00B8
002D
0064
00ED
006B
00C4
00C2
0036
0046
00AB
00C3
00DA
0035
000A
001D
0008
00E6
00DE
00A1
005D
00B3
00E9
0088
0057
0039
00D8
0053
0049
00B8
001E
0093
00B1
006E
0000
0097
006A
0045
002B
0042
00EA
0002
0012
00C4
0031
00E6
00C6
003D
00E4
001C
00DE
00AD
00D4
00B3
0022
00D3
0043
0055
005C
00BC
0007
00AE
001B
00B1
006A
0060
007A
00C1
0061
0034
00CB
0077
00DA
00EE
00D4
00D1
007A
002A
00C2
00C7
00C6
00B7
007A
0034
0079
003B
00CA
009C
00B2
0097
0070
00D2
00B0
0045
0006
00D7
0009
0094
004C
00B1
0038
00EB
009B
0092
00E2
0062
008B
008D
00D6
001D
0072
0036
00A4
0082
00C8
00B7
0022
00CD
0091
001C
00C8
008C
00B2
003D
00DE
00B7
0098
00D8
003D
0005
0051
0063
00D1
005B
00BD
001A
00B6
00A1
0023
002B
00CC
003D
0099
0028
001C
0053
00A2
0064
00C8
0078
00D0
0039
0066
0040
00D3
0087
00E2
00E9
006A
0057
0098
002C
0011
0022
00AB
002C
00CC
0023
00CD
00DE
006A
00DA
008A
0049
0075
00E5
005D
0006
00B2
008C
00D1
00B8
0043
004E
009D
0002
0032
00A2
0050
00A4
0040
0023
0023
0009
007C
0073
0057
00CE
00D1
0006
006B
00B7
0002
0001
00D3
00E3
004B
002E
0013
001B
00BD
0055
00C3
00DA
0047
00A6
001B
006E
0033
00BB
00D2
00B5
0037
00A1
0010
001C
00B8
0043
0033
0039
0027
000A
00BE
0030
0013
00CC
0035
00ED
003B
0082
000E
006B
0069
0034
008D
00C7
000D
0073
000C
0040
0035
006A
000C
0096
0004
0012
0031
00E0
00E6
002E
004C
00D9
00A3
0033
0042
00E5
0073
00E9
005E
005B
002E
002B
00B0
0052
0017
007C
0046
0028
008A
0099
00B3
00DE
0060
0067
0021
004A
00DE
0015
000E
00C4
007A
00B1
002D
00A1
0027
000E
0071
0072
0023
000A
0068
006A
0042
0088
0066
006E
00C4
00D5
00B1
00C5
0090
00EE
0053
00AD
0023
0074
0049
00E5
00B7
0038
0036
0009
0018
0075
0023
004E
00A2
0070
002D
0018
00C6
001D
00C9
0009
003C
00C1
0096
0029
0046
0085
005B
00E8
0019
0064
0017
003B
00B6
006B
0015
0056
0083
006D
0095
007D
0020
0016
00BC
00CD
001C
0063
0026
0017
009D
00C2
0043
0077
00E6
002E
0010
00EB
001C
0041
00E5
0080
0075
00CC
00D9
0037
000B
009C
008A
00A0
009B
0096
00A9
0055
00B4
007E
0032
0048
00A0
00E8
0021
00EB
0046
00BE
0087
009C
005C
0059
00DB
00B0
0088
0087
0098
0083
00C0
0099
00BC
002C
0042
00E4
006E
003D
009D
00B8
0023
0028
008E
004E
0070
00B7
0080
0071
0007
0000
000E
00A7
00E9
00B7
00E0
008B
0049
0001
00C5
0074
0051
005E
00D0
006E
00AD
0055
002B
005C
0099
00C4
005D
0094
006C
00C2
00DE
00B5
009D
002A
00ED
0006
0096
006D
00D4
00D2
009A
0058
000A
007A
0083
0037
00B4
0053
008B
0085
00A5
0078
0095
009B
0087
00DC
00E3
0004
001C
0044
0080
0019
00DC
0051
00AE
0038
007C
00AB
00D9
0092
00DC
007E
0009
0070
0098
001C
00B3
00E5
00A5
006E
00B5
006D
0036
0094
007A
0041
00E6
0021
007A
0078
0090
0043
002C
007B
0017
00E1
0076
0088
004C
0001
0046
001B
00EA
00B1
0031
0041
0064
0051
008D
0018
0074
0040
0020
00CC
00A9
00C8
0052
00EC
00C9
0015
005D
00CA
00D5
0091
0080
0079
0074
00C1
0042
001E
0064
00AC
0049
002E
004B
0051
00A6
000C
0051
0043
0064
00B9
00D7
009A
0076
000B
0026
00C9
0097
0089
003D
0043
001C
00BC
00C9
008D
00AD
0020
00CB
00E7
0003
0076
006D
00EA
00A5
0007
007A
0053
0027
0081
00B0
0056
00E0
006B
00E0
0093
00C4
0046
00A9
008B
0072
002C
000C
0056
00B6
002D
009D
0074
0062
004A
0068
008C
0046
008D
00D5
00C0
0021
00B2
0015
00C2
0021
00D9
0099
0041
0074
0000
0080
0011
0036
002E
0013
0043
0053
00C2
005C
000B
0048
0098
00C8
00E4
00DA
0076
007B
0002
00DE
0076
0063
0013
0094
0049
0021
00E9
0061
007D
00D7
009E
000C
0077
001B
00BD
00DA
005C
00AA
0004
00E0
00BB
0036
0096
00BB
0022
00A7
00A3
0003
00E1
00A0
00B5
0078
0065
0039
0085
00B5
008E
0017
001C
0015
0072
001D
0083
00C2
00C2
0075
00C4
006D
00EA
0089
009B
001B
00D1
0051
00AE
00BE
0075
00BD
00B1
00EE
0058
0090
00E7
0004
00C9
00DD
0001
00D0
00C6
000E
00BA
0030
004C
00E1
0015
0024
00C9
00E9
0065
0093
003E
0042
00C4
0098
002E
0044
0081
0013
0022
001D
00DC
0040
008E
00D8
0078
006B
001B
00DD
0072
002D
003C
00D0
003D
00D4
0074
0089
009E
007B
0094
00C1
00C0
001B
00AD
0006
00A0
0066
00D5
005E
0020
0034
0024
00C6
00D9
00A2
0084
0096
0033
00DE
00B0
004C
0001
001C
0047
0011
0038
0075
0076
001E
003D
00B3
0056
0089
004C
0098
0053
009B
0074
0056
009A
00AD
00A1
0030
0076
00B9
0037
005A
0081
0013
0088
0073
0001
0040
002A
0002
008B
0012
0027
0062
0065
0082
0022
0037
008A
004A
00CE
0080
0008
0021
005C
0063
0005
002D
0033
009D
00B4
00CC
0002
0043
00B9
002B
00D8
0059
0053
000C
0010
0084
00B0
0097
008E
0003
00EC
0093
0016
0086
0093
0090
0077
002A
00EE
0021
004C
00AB
0017
0034
0002
0088
00B0
00AB
0024
00C8
00B5
0070
0059
00A2
0019
0065
0001
0062
0020
008A
00BD
00BD
0061
00A8
0039
0059
000B
00DA
0066
0047
00DC
0060
000B
006E
000A
00B6
00B6
0074
005C
004A
00ED
0083
00EE
00ED
00C7
0068
0020
0060
00AC
004E
0037
0033
008B
0091
0056
00EC
006D
005B
00BE
001C
0042
006D
00B8
009E
0076
00E3
00B6
00A9
0012
0040
00B5
0085
0081
0012
00BA
0036
0012
0084
00A9
0026
0046
007B
00BD
00EB
00D8
00D8
00C8
00CA
0018
00A4
004C
001E
0038
0083
0098
0028
0054
00CB
0035
00B2
00DE
00CE
00CA
00B3
002D
00E9
004C
00AE
0069
001B
003E
000D
0046
0017
002E
007E
00A7
0031
00A0
003A
0044
00E5
0026
0054
0062
0029
0039
00BE
005A
0016
00D2
0084
00D2
0083
00E7
007E
0056
00EA
008E
0066
0092
00CC
0000
0000
006B
00CB
00E0
004A
005C
006A
004D
0038
0059
0036
0065
0067
00C1
0047
004D
002A
0006
003C
006A
003E
0043
00A5
00DA
00DE
00AB
0057
0004
00E0
00A9
00DE
00CC
00E3
00C9
0081
002A
0012
000E
0037
002B
001A
00E1
0062
000E
0006
008D
00EC
00C4
00AE
00B1
00A5
007A
0083
00B5
00A6
0077
0000
00D2
0055
0096
001D
00D1
0060
0046
00E5
0062
003B
003C
005B
006D
00B7
008B
00DD
00BD
00D7
0036
00C9
0029
0011
00A0
00B5
00B2
0091
006C
0043
007D
004E
0072
0034
0008
0045
003A
002B
007C
0061
0070
00E1
0019
00C7
00B4
0001
003A
00A5
0039
0084
003C
00AC
0054
0001
0045
00A2
0081
00E1
00E9
0006
0072
00C0
00E7
00D0
0039
0026
00DB
00CD
00B9
0048
00B4
0053
00CB
0003
0043
0054
00C6
0045
00DD
007C
0065
0018
00A3
00D3
0070
004C
0035
00DB
0037
0046
009B
00B8
00DD
0024
0071
005D
00B9
0011
00B9
00D6
0025
00D5
009C
00B9
00EB
00E0
00CA
0031
00A6
005D
0075
00B5
0086
008C
0098
000A
0012
0053
0064
00D9
000D
00AC
00B0
00CD
00A0
002D
003E
00C8
0000
0084
0015
0083
0043
0014
00CE
003C
0074
007C
0066
0003
0041
009D
002B
00DC
00DD
0030
00E4
00BA
000B
002E
0047
0024
0040
00C4
001E
0004
00A2
00C6
000D
00DE
0048
00A4
004E
00C5
0073
0095
00CE
0021
00D0
0023
0058
0021
00CD
0078
00C4
0056
001D
00A1
0065
0034
0069
00C2
009E
0092
0093
00B9
00A9
009A
00C9
0080
0085
00AD
0001
0046
0041
00A8
0068
002C
0095
00D5
00BA
00CA
0075
0095
00B7
00D1
000D
0004
0020
0091
00E6
001D
0007
00AA
0088
00E8
0068
00AC
0040
0075
0062
000C
00BA
004D
0064
0017
00EE
0091
0011
0075
0069
00ED
00D6
00E9
0048
006C
005C
0030
005E
000C
003B
00BE
0066
0002
000E
0065
0018
005D
009C
0007
00E2
0090
0027
0038
001A
006A
00B1
0031
00B9
0025
00AA
00DA
0057
00EA
006D
00E4
00B6
0044
0066
004A
0028
0013
00AD
0060
00B7
00D3
005B
0073
006B
0032
004E
0030
0093
0080
001B
008C
004A
00D3
000B
0003
00CB
006D
001B
005D
0012
00C1
00AA
0040
0013
0068
004B
00AD
008E
002C
00B1
007E
0060
0076
0097
00D8
00E8
00A5
0074
006E
0041
007E
00A3
00A8
0096
005C
0041
002A
00EA
0034
007A
0073
00E3
00CC
0071
0000
0048
005D
0099
006D
00B7
001B
0038
0024
00EB
0041
0095
004E
00A4
00BC
0074
0071
000B
00DA
0054
0052
0019
00E0
0089
0021
0025
0048
0093
00CE
0011
009D
009A
00A2
00A2
008C
0014
00A4
0075
005B
007D
006A
000D
00E3
00B9
0094
0037
0060
0011
0005
004A
00DD
0013
0049
0078
00B2
0059
0048
0086
0069
00E2
00A8
00D4
0067
0088
0075
0063
0013
0078
007A
0008
0070
00D7
0024
008D
0080
00BA
00EA
00C0
00B2
0004
00B0
00C4
0097
0025
00E3
00C6
0099
0063
0084
000A
00D4
00B1
000A
001E
00E8
00C2
0072
00B5
00E2
009D
0059
00B4
0078
007E
00A0
0033
001D
003D
007C
0043
0050
005B
0044
00E3
00CC
0050
0038
0033
00C9
0062
0048
00D1
006B
00A8
0026
00B8
0039
0075
005E
00A7
009E
0091
003D
00DA
0052
004C
00B1
00D0
009B
00B2
0022
0025
0017
0068
005E
00AB
0084
00D6
00C4
0033
0093
0085
00E4
0093
0085
00B3
00E8
0082
00C5
006C
00CD
000C
0036
00BC
0040
00B4
0074
0025
00E9
0089
00D4
0040
0049
003E
0074
0046
0042
009D
00CD
005B
009C
0039
0074
00E5
0061
0076
0018
0001
0089
0009
0052
00A0
0008
007D
00D8
00D9
0046
0072
00E2
002B
00A5
00B6
00A9
00C3
0059
0014
0006
0080
0058
00A5
00DB
0011
0076
0036
00E3
0086
0041
0004
0042
0089
00C7
0085
00E0
0055
0068
00AD
0061
0099
008E
0039
00BC
00A9
00B1
0036
00A9
0033
00C4
006C
00BA
0049
003E
002E
0022
0030
00EA
00C0
007A
00E1
0039
0021
00E5
0024
0016
001D
002C
00D7
007A
0091
0028
00C3
00A2
001A
0061
0075
0038
0027
00DB
00A7
0096
0080
0027
005D
00E4
00CE
004E
0031
006A
006C
0019
002D
0055
0047
005B
0075
0008
00B4
00E2
0063
0032
0045
007E
00D3
00E7
00C1
002A
006B
00D4
0035
00B9
002E
0050
0077
006B
008C
0037
0087
008E
00B0
0095
00BA
0035
00D6
0096
00A5
0054
0073
0025
0062
0097
00C9
0081
0092
0027
00B0
0057
0058
0000
0040
0073
00BC
0059
000D
0009
00DE
0016
00DD
00B1
00D0
00D0
003C
00C6
00E2
0005
002D
00DB
0003
00CB
009D
00EE
009E
00EA
008B
001C
00D6
007C
00C7
0039
0032
0014
0051
0023
0010
00B9
0083
00E9
009E
00EB
00C5
004A
00C8
001B
007A
0063
00C8
0034
00C5
0074
0053
003E
00E6
005C
000E
00E4
004E
00D7
0046
00BB
00D0
0012
0072
005A
0072
0015
00C2
00D5
00EB
0015
0044
002E
0011
00CD
00B6
00D6
00DD
00E0
0093
00BE
00D2
00AB
00D4
0078
004C
007B
0005
0049
0016
00A8
0071
00B8
007E
001E
00B0
001C
00CE
00E7
0095
0092
007B
00A5
0002
004A
009A
004D
0093
00B3
0092
002B
00D0
0097
0006
0085
0091
001A
000D
008A
0031
0082
0040
00CE
00DA
00DD
00E7
0004
00A6
0003
00D2
001E
0085
002C
00AC
0020
007A
00CA
00A2
00DD
00D4
0040
002B
0064
0048
009B
0011
0034
0081
0010
0068
00C8
00AA
00E4
00B0
00DE
00B6
002A
00DD
0098
00D5
0057
0083
0015
0051
00BA
001D
00B7
00E1
003A
00D1
0024
0013
001E
0002
00AC
00A5
00C2
00E4
0059
0051
00B2
0086
0022
00B6
00A7
009E
00E0
009D
00AE
00BC
0093
0099
0043
0032
00D3
00DA
0062
0082
007A
0012
00C4
0020
00BC
006A
00D5
00CC
0071
0074
0009
006B
00AD
00AD
00D0
0008
0021
0009
00AC
0021
00A9
0052
0003
00AD
002B
0055
0038
0042
0058
0091
00E7
00BB
00D1
0003
0000
00E5
0094
0009
00CC
001E
0067
00C8
00B6
0084
007B
00CB
000A
008B
0039
00E4
009C
008E
008C
00B8
0098
004E
00CC
0003
000E
0068
0055
001E
0061
0094
0093
006B
007B
00D0
001B
0094
0009
0020
0074
002E
00C8
0096
0006
00E8
00D8
00E3
0076
0000
00C6
0061
00B3
0068
005B
0069
001E
0061
00BA
00B0
00CE
0020
003A
0071
00C0
0041
0017
00D9
00CD
0097
0025
00D4
0027
0034
007A
0048
0057
0071
0032
00E5
0018
009E
000D
00AD
0093
0044
00D9
007D
00D3
0027
004E
0039
0014
0041
0037
0036
0084
00A4
0073
00A3
0060
002C
00C8
001D
000E
0040
006B
0080
00D7
0026
0032
006A
00D6
0055
0099
005B
0036
0018
0063
00AE
005C
00D5
00EE
00E3
009A
00B7
00C8
00A4
007B
00D7
001E
00C8
002D
003A
0013
002B
0096
00A4
0027
004B
00D7
0021
009D
0074
00AC
0023
00B9
009A
0008
0000
00C5
00E0
006C
0058
0079
008E
0092
0078
004A
006B
0099
0051
0092
0010
002A
0088
00E9
0033
0032
000D
0036
0093
008B
0057
002A
0084
00CE
0087
00B0
00DD
0060
0032
0076
0003
005A
00C3
0096
00D3
003C
008A
00E6
0092
00BB
00C4
00AA
006E
0037
0000
00B4
005E
00ED
0093
004A
00C8
0038
0027
0073
0000
00AB
00C6
00E1
0028
0091
0095
0087
00B8
0085
0052
00C3
00D1
0097
004A
006C
00E1
006D
0002
000C
0070
0013
00D5
0031
0034
00A5
003C
00D3
005E
0065
0010
00A5
0016
0015
001E
0065
002D
003C
00D5
00C0
0078
0055
00B3
00E6
0087
00E7
00CC
0063
001B
00DB
00CC
007D
00EE
000D
0009
00A6
00A4
00D5
007B
0026
0087
008B
00ED
000D
0062
00B4
005B
006E
00E7
0076
002C
00CB
000E
002A
001B
0003
00A7
0033
0034
0014
008D
00C7
0026
00B2
0001
0079
0068
008E
000D
00E6
0001
0087
00D3
0022
0052
0039
00B3
00DB
0014
000A
000B
003E
00C7
0032
009D
00DB
00CA
0039
0094
00A3
00ED
004A
00CC
008B
007B
00AE
0076
005C
00D8
00B8
0045
0043
0091
00E5
0098
0091
009E
00AB
00A3
003B
004C
00D6
00EB
0082
00C8
0082
0036
00E0
0076
00EA
008A
0092
0008
003D
0065
0032
00D0
0073
007B
00D6
00D1
005C
00DA
0085
00A8
0013
00D2
004C
00DB
0003
0017
0014
00CC
00E2
0088
0010
00DA
0024
007B
00C4
00E7
0025
0070
0023
00AC
0046
00DD
0004
0044
004A
00D6
0086
0054
00B0
0087
0053
00B3
0084
00D7
00D2
001A
00E4
00A0
0018
0099
0042
00AB
005C
00DC
00C6
00DB
00BE
005B
0055
00E5
00A5
009B
0050
005B
0070
008A
008B
0033
00C6
00C8
0060
0080
0092
0066
0064
00C4
00C7
0064
0014
00D4
009E
005B
0054
00C0
00D2
00EA
004E
00C0
00AD
00C3
0028
0031
0077
002B
0065
006D
00A4
001C
0062
0037
001A
00EB
000B
0016
0038
0098
00EC
0053
0073
0034
0056
005D
0081
00DD
0082
0078
0006
0065
0081
00C4
00EC
0065
009E
000E
0024
0003
008B
00A5
0091
0046
004B
00BD
00D3
0084
0037
00B6
0055
00C7
00BD
00E3
0001
0028
0019
00A9
00E4
00E1
0097
0075
009C
00C4
00B2
0003
0028
001B
00C7
0062
0012
0008
00DD
008A
0045
0099
00E8
006B
0017
00EB
001C
0076
003C
006B
005E
000C
00B7
00D8
0055
0014
00C6
00D8
002C
0085
002E
006B
00B6
00B3
000A
00B4
0011
0010
0096
00CB
002C
0054
00E0
00AE
00B2
002B
0075
0079
00CB
003B
0036
0092
000C
0059
0057
0081
000E
002C
008A
00ED
00C9
004A
00B8
0093
0000
0051
0040
0047
0046
0044
0042
005B
0009
0009
0059
008E
00DE
0074
00E0
0088
00B1
00E3
00B0
006B
00AA
00A8
00BD
0097
00A6
0056
0060
00B9
0059
00CB
008C
00D1
00DA
0055
002C
0023
009E
000E
0027
0055
00BC
00E2
000E
007E
0033
0008
0089
00A3
0004
00EB
0096
00CA
0005
00B8
00E6
0027
0002
002C
009D
00CC
0017
0051
0050
0063
00EA
001E
0040
00C6
00D4
00AD
00B6
007C
0077
00AD
00E3
0083
0099
0065
0019
0082
00B4
00BD
00B0
0062
00EE
000B
00A1
00C9
0017
00C8
00C3
008B
0055
0076
0012
009A
0059
0069
0010
0096
0004
001A
000A
00B8
00A0
00D6
00A3
00CD
0029
0095
00CB
00C9
0053
0008
0015
00D4
009A
0059
00E7
00CC
0084
001A
007C
0013
00B7
00CE
000D
00E1
008B
001A
0037
00A8
0065
0088
00A9
00E5
0064
00DE
0037
00D6
0062
0052
009A
0093
00CE
0014
00AA
00B6
00EA
0038
003E
0080
0021
00ED
0037
0095
0052
0086
0038
00B0
00B6
00A1
0086
00D3
0052
0084
00E2
00B3
008E
001A
0067
0068
0072
0088
0079
0088
00E6
0048
00E0
005D
0081
000C
00BE
00EB
0083
0070
0096
0049
00E8
003D
0006
00B2
00ED
0079
00BC
00B3
0080
000A
006A
00AA
00A6
0029
009B
00C3
0077
0032
0084
00BE
00B5
0045
00AA
003E
000C
0074
0091
00CC
00DE
0019
0022
00AB
00E8
0019
00AA
0020
00DA
00AC
0060
00DD
0025
0017
0090
0087
0003
005C
00D5
0039
007C
0093
0010
0060
007C
003D
0000
0099
0016
00BD
0006
0063
006D
0081
00A1
00BC
00E7
002B
0004
0017
005A
00C6
001C
0059
0028
0065
0079
004D
0054
0037
00B9
00A4
0099
006A
00C8
00DB
005E
001C
00DC
00A2
004C
00D9
004A
00AA
0007
0064
00D3
00D0
0038
0074
0047
0012
0005
0046
00EA
00DA
0009
00E4
008C
0014
0042
00E1
004D
003D
0019
009A
00C0
0031
00C4
0011
0059
0019
00D5
00DB
00C9
0049
0067
0050
0095
0066
00B5
0005
0046
00B6
003D
0085
0058
005C
00C8
001B
00C3
0010
0081
00DA
00D3
00AD
00DE
003D
008E
004C
0086
0021
0043
0073
0055
003B
0093
0010
0050
005A
00BA
0097
004C
0010
00E5
008D
0067
00B8
007B
00C7
004D
00DA
003D
002A
0093
007D
00C6
003B
0064
0015
00AA
0095
00CB
00E1
0093
0025
009E
006C
0046
00AC
00D6
0051
00EE
00C4
0061
0051
0039
0071
006E
001C
0025
0041
00E9
000B
00D6
00D3
0076
0070
0036
00B7
00DA
0087
0053
002E
00A5
00C1
00D7
002A
0093
00D3
0037
00C8
00C3
007D
00C3
005A
0077
008A
00E4
0086
0061
0057
00DD
0060
005B
0057
00A8
0022
00A2
00AC
0068
00E0
00DE
00BD
003B
009B
003D
008A
0060
0096
0085
007E
000D
0041
00E1
00A1
0040
0084
00EC
0098
001E
00A9
0041
0036
00C1
0059
0041
0097
000B
0081
0058
00D2
0005
008C
0034
00DB
0001
00C7
0015
007C
004B
0038
0080
007A
00E8
0094
005C
000D
00BB
00C1
0022
00D7
009B
009D
0071
00AB
00B0
0043
00DB
0033
0007
00C7
00C1
0005
00CC
002E
00C4
00CA
0089
00CA
00C7
00D6
0055
0079
00CC
0054
00D0
0082
0093
00B7
00C7
00E4
0007
0086
0052
00AB
00A7
0069
0038
0084
00A6
00E9
0009
004C
0003
003D
008E
007A
00DB
0078
0016
0094
00EC
00A4
00A0
002B
00AB
00A8
0015
0015
0077
00BD
00EE
00D2
00E9
0002
0045
0063
00B5
0057
001E
0000
0046
00EA
0069
006D
0079
0027
0023
007C
0092
0029
0045
0069
00A7
00B4
00D9
00D0
00CE
00A9
0020
00E2
0096
00B4
00DD
009C
00DB
005E
0032
00D6
0043
003B
0087
00E7
00EE
0061
007D
0061
00AC
0090
0092
00C4
0013
0012
0072
005E
00C5
0080
00AD
00AD
0045
00B6
002D
0044
00E5
00E3
00C9
004E
00B7
000D
0038
0067
004D
0022
0044
00A4
0079
00EA
00CD
0095
002D
0018
008B
00B3
0067
0038
00C0
0068
0012
0052
0000
0015
005B
0099
00C9
000B
00BE
00BA
007C
0088
00D3
0001
00E0
0006
0082
0085
00B9
00AB
00E7
00AD
0067
00B6
006A
00E9
00D5
0051
0050
003C
00A0
00C8
005C
0032
001E
00C5
006D
00A4
008D
005C
0085
002B
001E
000C
006A
00D5
00A1
00A0
000C
00A1
00A8
007E
0080
0002
00DB
00A8
00DE
0046
0058
0080
0056
0086
005B
005E
00B8
00D7
00A8
0076
00EB
001E
008C
008E
0019
0035
0052
00D4
005A
0083
0069
00C6
00CA
00CE
00D4
0087
00E3
00B8
005A
00AC
0075
0035
0022
002D
009B
000D
00A3
0093
00E3
0078
000C
0028
00B0
006A
0025
00DA
00DE
00C2
0036
00E9
0090
0037
008D
0077
000B
00E5
0068
00A1
005A
0043
00AB
00AB
00B9
00C7
0044
00B0
0060
0053
0058
0010
0091
0022
003D
000E
00D4
0032
0095
0097
000D
007C
00C6
000C
0065
00B9
0020
0053
0098
0000
00C2
0024
006B
0032
0062
002A
0021
0038
003B
00B9
002D
0000
0004
00CB
0002
00E9
00B8
0061
00E8
0091
0070
0023
0090
0023
00BD
005D
0029
00EC
0077
0018
003A
0024
00ED
001C
0023
0011
00B1
00E3
0068
0003
00AC
